[PAD]
[UNK]
[CLS]
[SEP]
[MASK]
!
"
#
$
%
&
'
(
)
*
+
,
-
.
/
0
1
2
3
4
5
6
7
8
9
:
;
=
?
@
[
\
]
^
_
`
a
b
c
d
e
f
g
h
i
j
k
l
m
n
o
p
q
r
s
t
u
v
w
x
y
z
£
¥
©
«
®
°
²
³
»
¼
½
¾
×
ß
à
á
â
ã
ä
å
ç
è
é
ê
ë
í
î
ï
ñ
ó
ô
ö
ø
ú
û
ü
ý
ā
ă
ć
ē
ō
œ
š
ť
β
к
ӓ
ย
ร
อ
่
‒
–
—
‘
‚
“
”
„
‟
…
‹
›
€
™
你
葱
送
，
##i
##g
##u
##r
##a
##t
##m
##o
##b
##l
##e
##p
##x
##d
##n
##s
##c
##h
##w
##z
##f
##ö
##v
##ß
##k
##ä
##y
##2
##0
##1
##ü
##3
##j
##û
##é
##6
##q
##4
##β
##7
##9
##à
##5
##8
##á
##ā
##è
##ó
##í
##ñ
##ô
##ø
##š
##ă
##ť
##ê
##ç
##î
##¥
##ō
##ย
##ã
##ë
##ร
##ý
##ï
##ē
##ć
##â
##ú
##en
##er
##ch
##in
th
##nd
##ie
##at
##st
the
##an
##on
##as
##it
##es
##ll
##or
in
##ar
##ou
##ich
##ing
die
##is
and
##re
##te
ein
to
und
##le
##ir
be
##al
of
we
##om
das
##se
##ig
##ed
##un
##ut
##ur
##et
that
ha
##ion
wir
you
sie
so
##ere
wh
se
it
au
##ic
re
zu
##ro
der
##ent
ich
##au
##em
an
##hr
is
ist
st
##ve
es
##il
##ach
##am
##ten
##ow
##ge
ver
##de
##ot
un
##icht
##ber
er
##gen
##ier
##sch
##lich
##ben
##ke
was
##ind
##ter
al
on
me
ge
##all
this
##ra
##ol
##im
##ct
##ay
sch
##ung
den
##id
##ld
##ver
all
for
als
##ür
##sen
##ck
##be
le
he
##nen
##den
nicht
ne
##and
pro
von
##op
auf
eine
ab
do
dass
##ce
##ation
mit
##um
im
man
##ly
##ht
##us
wie
they
##ann
##ine
li
##ff
en
sp
##th
##ill
##ag
##der
##ith
war
##lt
go
uns
ar
are
##ess
##isch
##ally
##ste
##hen
te
fr
with
what
##he
##ist
have
##enn
sich
##we
as
##kt
but
wor
##men
can
com
ch
##ern
diese
##ft
##ers
aus
at
or
ex
##out
##ad
de
um
##os
##ön
##ust
sind
##ze
für
##ab
aber
##ib
##ant
ih
wenn
haben
##und
##pp
there
hat
dies
not
des
about
##ould
über
wer
also
ges
##oo
##uch
som
da
##og
ma
##ik
kön
##ien
##ort
##ul
##iv
sa
vie
dem
my
##art
##ne
##ahr
pe
no
##her
##ate
tr
sh
mo
one
##ight
##ive
##tw
con
##ies
##ore
##mer
pl
vor
##oll
##ue
peop
people
##igen
her
men
like
bec
##hl
gr
if
##ink
##ity
from
##ute
##ure
ze
##el
##00
kn
##ap
br
einen
now
gen
##ear
##ieren
nach
our
##ast
out
just
##ang
get
these
können
##fe
##ause
##od
##zen
##ook
hier
##ein
mach
know
us
fe
##sten
mensch
oder
thing
int
them
sein
werden
when
##iert
##ken
##chen
because
up
##ild
##etz
##oug
di
how
dar
who
think
very
##ungen
##per
am
##ite
gl
mein
##end
kann
##zu
by
##ass
##ige
kind
##one
ste
##ah
einer
##ain
some
##ted
comp
pr
see
##ound
auch
act
##scha
##our
year
dann
##iz
##fen
ihr
##olog
einem
going
##ibt
tim
ever
gro
##ame
##ose
##llen
##eren
sehr
##lle
##ack
will
##pt
##ät
nur
your
wo
##age
##for
etw
which
##ans
##ide
here
##ial
more
wird
had
inter
##ischen
##ard
look
su
##aus
ent
unter
menschen
##pl
would
##ise
##ück
prob
##ob
kon
mich
ve
##ru
##urch
bl
##ert
##lem
kom
##reat
##itt
leben
per
##ör
really
##keit
fa
ihnen
##ous
gibt
##äch
mus
world
##ually
##issen
gesch
their
##iel
ta
ind
then
##hing
ev
work
were
wur
welt
##chn
jahr
##ick
##hal
fl
##änd
way
every
##ud
##wo
sehen
bet
jed
ke
##ect
has
##gr
##ank
##heit
##ia
etwas
noch
dieser
time
##ign
##sel
##ip
don
durch
##schaft
sy
##ater
mö
##ions
##du
##ther
viel
ihre
habe
co
mir
##ough
ob
##if
af
actually
mehr
##ong
##alk
say
wissen
sag
sc
new
into
ide
##ens
##are
zur
ph
where
##nt
##pr
could
problem
cl
##ische
ag
sel
techn
##br
things
bei
##än
##beit
art
alle
groß
##lichen
years
somet
want
##rei
dr
wirk
##ment
##me
other
did
zwe
##stem
##sam
##mal
res
einf
##lie
well
she
fir
tra
lo
gan
zum
any
##etzt
##ph
##liche
##ak
##ical
nat
mill
bes
po
zeit
part
##inge
got
##ug
##ult
##form
make
happ
unsere
##ple
wä
##qu
wür
##cht
right
wirklich
##hn
been
##ac
beg
##ace
bu
pers
meine
fü
diff
weil
nun
##auen
said
spe
qu
machen
##rie
vers
##ile
##üs
something
wurde
over
need
mar
##ungs
##che
find
two
##fü
##ory
dieses
##ree
tun
use
einfach
##ry
##ient
pre
##ice
##assen
##mt
back
##ommen
first
##iter
dis
fra
##able
##gt
lie
imp
kle
##ange
##iver
immer
em
##ond
##fl
##bst
##wer
those
dam
technolog
call
bis
than
talk
##ger
##acht
end
##stand
litt
stud
his
##ren
##inn
gem
little
gew
##ount
tat
##own
hand
star
##ome
##ys
jetzt
life
##ffen
ac
##ingen
woll
##ations
hin
real
ger
arbeit
##chte
ad
##ges
ins
gut
du
ho
much
unser
system
most
lot
##iger
kl
hatte
##bl
##cent
##ath
denn
##ves
hum
ro
##aten
selbst
##ase
##way
##gan
keine
##nte
##ody
##ving
##hmen
000
##vel
leute
even
##iß
diesem
##ents
##ition
only
##glich
viele
müs
day
##schie
med
##ds
entw
##hlen
mal
##ale
land
##stell
##erg
sagen
zwei
good
produ
mon
sagte
##ktion
take
pol
person
cont
dinge
##leich
19
##ated
thr
##als
let
eines
##ichte
diesen
design
##bar
under
##ish
soll
bef
teil
##ance
##igkeit
many
bin
##ell
sol
andere
show
does
waren
down
##wn
geh
alles
verb
glau
wieder
##aut
ok
##erent
##ser
pass
##auf
ir
##ire
car
different
gra
##int
##gel
bo
exper
jahren
müssen
##tz
##unden
million
20
fre
##är
oh
through
bek
##ood
nie
##ution
put
par
hel
##other
around
min
##gend
off
why
##gl
fun
##über
würde
##urn
kein
may
##get
##igt
##xt
anderen
##pe
ll
damit
geb
##ok
plan
nor
dav
erf
ben
zusam
##ahre
tell
bas
being
str
heraus
##ors
##ict
##net
red
##ität
zusammen
10
aut
##ner
##ian
ele
vielle
##ible
sm
vielleicht
bra
##ty
##cess
comm
##ction
##ster
pat
bi
hal
##ious
##fä
##ßen
tod
##ought
fam
tats
met
##ichtig
big
reg
amer
ja
inc
##iden
##ience
##ary
##äu
best
come
##aum
##ha
pa
app
schw
sim
wen
rel
##tel
trans
##ces
##oss
versuch
three
mom
##ject
zw
comput
stat
jahre
##ower
human
univer
try
sur
geht
##ache
lang
##ons
happen
que
##king
same
##oc
inform
start
##nis
bit
gu
wahr
pu
kam
##piel
##tet
schl
wel
fact
##vor
zurück
##ade
##ful
##isten
count
kr
##les
doing
energ
##amm
doll
##igh
great
weiter
afr
##ord
klein
##ep
dec
##ss
el
dollar
##ler
##ün
##act
##tern
##ically
gleich
##kel
heute
##arn
famil
##iss
##ual
child
grund
##ächlich
##äh
##halten
##ting
schon
##ved
muss
##ism
percent
##zent
##ics
again
ganz
build
sec
warum
called
fin
neu
inst
organ
##thing
##ven
##body
##ize
form
him
wa
##bt
##uss
möchte
##hren
long
##utz
##self
rem
##geb
200
gegen
after
##öß
spr
ear
einige
##ri
tag
made
genau
macht
tatsächlich
##stellen
kinder
information
##ndern
today
far
##ffe
wr
##ating
##erest
##nten
bere
##pro
##its
##omen
##kl
play
##sche
bild
beis
own
brau
last
should
drei
soc
##stehen
quest
geschichte
spiel
##je
bewe
fall
la
letz
möglich
davon
##angen
verw
learn
ext
##teil
dan
jem
##pen
gener
bede
dort
##red
eigen
scho
turn
denken
import
##iten
##rechen
##entlich
##ins
ter
erz
##ierte
interest
##inden
rec
creat
##ork
thought
ser
##ines
zie
könnte
coll
verl
weg
ans
sit
##ichten
ko
hatten
sk
seine
feel
another
ask
paar
darüber
natür
ted
cour
mor
power
##bs
##onom
weiß
thank
belie
##sto
ec
##achte
##ope
ihn
moment
mean
##ular
planet
##ings
its
##uten
größ
##gar
##ities
idea
##ica
##ix
##esen
beh
gehen
cent
##halb
such
##ational
fil
num
##schen
besch
story
didn
sl
##mlich
old
change
veränd
##ids
##zie
before
wollen
still
important
lassen
school
##sum
ber
##ennen
werde
exam
beispiel
went
started
##oren
imag
##ogra
computer
##atz
##alt
##achen
mag
##olution
##sy
##ina
tre
##bei
give
never
bill
##kte
understand
found
##weise
bot
meiner
stand
##io
##reich
jeder
währ
vis
gef
##utzen
##cken
##old
bess
##pf
##ital
better
help
##irn
ihren
##ility
##str
##kes
mode
progr
point
glob
##äd
##use
##ont
während
polit
sicher
wurden
##az
sort
##ative
course
cr
able
##hrt
dazu
##schieden
next
##kommen
interess
##ts
neue
expl
##schein
exp
eff
might
erst
##ander
ty
##ull
gab
##ied
stu
##ather
##ists
funktion
brain
natürlich
kommen
##land
technology
jemand
sondern
char
sen
##ward
each
wäre
##iven
vide
##anz
denke
toget
okay
vom
ago
together
##für
natur
unserer
wichtig
##ehen
came
rob
##att
dat
four
set
frage
zwischen
spec
water
sogar
##under
commun
lebens
glaube
gemacht
high
100
näch
gel
nam
##nehmen
phys
jo
denen
fast
schne
kur
##cted
place
mater
wissenschaft
##velop
entwic
##no
##co
bro
bus
hät
patient
50
##achten
doch
##ween
##eln
comple
##ünd
number
develop
irgend
30
finden
gerade
##alth
geben
ohne
publ
ersten
##ps
##ma
few
einmal
##led
second
##iness
ihrer
fol
##ited
abs
nichts
between
prozent
letzten
15
gre
lar
inv
mat
prof
##ium
dre
erw
wasser
too
##ahl
love
eng
##ks
je
inte
##ures
##ika
stru
stra
gemein
looking
lö
##äs
live
##imm
##agen
##cher
bring
question
weit
##ock
son
##geben
scha
würden
used
internet
cre
kommt
##ced
dafür
##anted
cor
small
##mit
##gest
zeigen
##read
cell
##ized
##rat
vir
##ail
##ierung
mark
grow
##chten
##ific
done
cap
global
maybe
##aufen
light
doesn
##cy
##arbeit
##ationen
dire
whole
##gs
vielen
run
verstehen
##nder
bew
passiert
partic
stre
##ways
ur
example
verschieden
gehirn
eig
##fer
ged
##tzen
##ider
##oney
children
data
millionen
mut
##ably
##cept
##ms
##ember
##dem
erste
att
##sehen
##schl
##man
geld
daran
vier
rest
##ören
begin
konnte
##ule
##gew
##zeit
na
bed
read
##unkt
sieht
##aub
project
mil
lea
less
##allen
kre
##tschaft
stellen
idee
ganze
wanted
job
arch
##eter
##immt
##ört
econom
##ßer
##vers
##selves
##par
##ikan
glück
mot
hund
dabei
sagt
five
health
poss
##ften
##erung
große
material
book
nehmen
gar
einz
##stru
besser
##enten
ant
chang
##ahren
trying
supp
kont
sing
##jekt
könnten
daten
anim
etwa
away
experim
##enden
##fin
everything
times
##fr
care
sollte
pos
##ernen
always
##raft
fut
##ement
##stellt
cou
##ives
open
believe
bre
har
money
##iar
working
ziemlich
##essen
reas
anf
##rag
robot
##dr
cam
##ls
##ischer
schnell
kör
space
women
##na
pres
mind
welche
pict
##ständ
sign
sollten
film
arbeiten
##ention
##fähr
col
net
##ppe
country
richt
##gehen
erzä
##vest
fragen
kids
ander
raum
##mo
##ivid
##schied
sprechen
frauen
lab
soz
##ross
prote
##zeug
##ness
pop
##llt
##ogen
##licher
bekommen
meinen
##uge
meisten
wollte
lu
meinem
##kun
##anken
using
che
ret
##mö
teach
zer
##ograph
##lung
darauf
##agt
cle
hö
hist
##isen
##üh
##ief
##utet
math
##ates
betr
##vern
video
took
means
##äng
ende
air
##vir
energy
food
ging
thinking
sin
technologie
kleinen
bil
must
nä
eigentlich
home
earth
buch
tau
##legen
sta
arm
chr
hard
frien
##kunft
inno
erinn
##bel
##ever
##atch
head
future
fün
##rop
heiß
half
walk
create
außer
##ters
conne
weniger
hoch
##asse
voll
schle
resp
test
##zel
interesting
##here
##unde
cons
##ries
elect
##tt
seit
gefü
bab
##hip
ungl
cur
##ga
neur
compan
govern
##ktiv
acc
##scheinlich
glauben
##ktur
##los
china
sense
making
pra
biolog
ange
indust
##ues
sache
left
##ession
team
##annt
phot
##ruck
rad
invest
##fte
##dern
become
jeden
unge
energie
eur
##reiben
quite
getting
ris
innov
##ories
##ird
##ouse
##iff
##ierten
univers
rev
process
enough
wunder
hy
ganzen
bedeutet
lernen
stop
social
##line
großen
##ilt
probably
city
science
recht
sw
##rum
##sp
eben
##fall
comes
month
building
pie
##cle
schön
##gh
entsche
##erne
grou
dist
komple
says
contro
##olle
bringen
##uer
möglichkeit
mann
##asch
##cer
fünf
##äter
individ
without
face
unseren
##ultur
ru
gesehen
##sych
chem
##gung
offen
jedes
sym
##ennt
18
york
##zt
##ald
ihm
pap
##ulation
##alen
normal
##äft
top
talking
##iting
##itive
seite
gest
fest
ang
stuff
business
##kr
beaut
kleine
##ane
##gesch
kar
wahrscheinlich
fort
körper
##quen
##row
antw
##iere
##nah
kop
##ices
sub
dollars
brauchen
dachte
##usst
ihrem
id
##ält
gru
body
dig
##aces
##onment
zukunft
happened
simple
room
##vironment
##kten
fig
##urs
bar
youn
weise
psych
val
wind
danke
##ican
environment
archite
versch
##esse
keep
##ying
side
bad
market
##adt
sound
##ior
##cture
##halt
engl
anything
##so
menge
wonder
versuchen
##achsen
länd
##ift
hil
##ware
wee
besond
pret
40
licht
##ionen
##duc
africa
##oot
six
musik
öff
##ister
hour
typ
gesund
seem
nein
coming
12
##dition
##ash
prin
unterschied
##ially
rep
else
wirtschaft
##llig
verk
opt
pretty
##inen
indem
fal
##ckt
wenig
level
frau
mid
zeigt
scient
hinter
absol
ey
essen
##ning
##eten
##emat
hope
amaz
verbr
super
makes
problems
##tem
##imate
mov
government
##uring
##auer
fund
educ
lives
resear
los
##äum
relig
entwick
fot
vert
living
insp
unglaub
##fort
##que
seen
beim
##iges
##ape
music
##ulture
west
opp
goes
##iet
##ernt
nutzen
##ho
beste
erkl
##schaften
##ric
##ble
##wir
unt
across
##rib
##ließ
##cover
reason
dank
link
##ertain
milliar
##sicht
situ
tem
hätte
##hin
once
extre
allow
evolution
später
imagine
##wohl
told
##rieben
gute
##ator
saw
basically
yet
shar
##cke
sah
##ches
##itten
seiner
##erence
mathemat
gesell
entde
countries
vo
effect
keinen
picture
case
eigenen
25
##denken
augen
ble
kurz
oper
gesagt
train
##och
anders
bor
##ged
instit
gir
ye
remember
##stoff
billion
##bo
jede
##anc
ort
particular
##leben
while
young
perfe
##ismus
##ily
exist
del
ways
entwickel
research
##ime
experience
##wie
sex
happens
schaffen
##stellung
män
tro
win
erde
sor
miss
ungefähr
fäh
later
move
self
ga
result
having
##ppen
##chs
line
mass
family
asked
##ütz
spielen
mutter
##nung
cal
pain
oft
name
##ization
einzel
aller
days
kun
##iving
fand
##where
mole
erfol
eas
##aps
##ene
##ünst
##most
heißt
eins
##ats
defin
wohl
##reichen
inside
cost
emot
leg
##hol
sou
richtig
##mun
discover
ra
verd
##work
##ether
##ala
funktioniert
gesundheit
##ron
##ton
schauen
extra
bel
langu
single
watch
##dle
##yn
elekt
krie
##erein
ideas
ident
##ähr
##hrer
complete
haus
##ants
nothing
certain
everybody
hear
probleme
states
kunst
both
stadt
allen
##ousand
close
almost
##äm
dev
konnten
thousand
##imes
eg
##isches
experiment
##voll
tot
nächsten
bevor
neuen
dna
sure
##iety
projekt
class
##zeich
schwier
answer
##ready
##gang
hol
##ritt
flie
erzählen
##kelt
within
##öl
history
##unter
exc
erl
##ided
##ident
##ente
##setzen
whether
pot
product
contin
##ament
##ders
helfen
genug
##ality
already
verg
saying
##ury
wrong
##äl
arg
nature
incred
var
alt
herum
terr
suc
##mittel
fing
heart
cond
kill
speak
ern
national
60
##lichkeit
krank
possible
kennen
hau
phil
colle
loc
looks
engine
inner
bisschen
bau
##akt
##welt
liebe
dise
lange
##utes
schwer
treat
god
ideen
beautif
##oman
began
organis
law
darum
unserem
amerikan
eing
cancer
revolution
inf
tradition
gott
universe
##iele
large
dra
##mand
anal
priv
true
##einander
beginn
guy
##ets
aud
erk
##ogn
frag
hor
stim
gesam
##ield
##iker
cells
schul
front
##ivity
klar
full
milliarden
kne
##iti
sei
arten
verbind
matter
fas
kor
##liches
community
av
mic
exact
amazing
age
cra
heard
yes
##richt
##ielt
##ames
looked
begann
ref
manch
cho
sens
##gefü
##min
##ling
liter
##ahrung
seinen
bauen
wicht
web
group
##less
##such
##ären
challen
überall
##gangen
mess
beha
often
##ateg
rich
##ädchen
euch
##stra
public
beautiful
manchmal
free
spend
frei
oce
forsch
leuten
works
adv
tele
someone
##igkeiten
planeten
reden
figure
##atur
##ret
kontro
##ugen
##ragen
program
ed
jun
##zess
##ages
##heiten
bü
sü
##imens
piece
großart
##osph
##äche
green
months
kü
tw
##finden
##andel
wert
equ
built
dir
nah
soft
##stead
ass
##spr
##ases
kopf
vol
state
until
pay
##hung
##unch
house
##ystem
intern
wus
middle
mädchen
instead
united
##öt
##ence
##ctor
schwe
niemand
##ark
lau
##nitt
##cc
myself
online
##ately
since
isn
order
##ollow
usa
##side
frü
statt
##ub
##vious
words
netz
##ired
##met
##cing
iss
afrika
entscheid
lin
##utzt
anderes
punkt
##glichen
stories
schule
jour
sechs
verhalten
dep
india
gesellschaft
erfolg
mem
nennen
seinem
geschichten
sometimes
##kennen
gehört
einge
bewusst
incre
situation
gründ
entire
language
fant
##ahlen
stehen
somebody
night
##ieht
##thers
control
cir
##icken
redu
chines
##ians
##ße
tool
couple
##itz
##sein
##ücken
entwickelt
follow
conc
##forder
generation
species
schein
liegt
yeah
game
##ones
labor
meet
##fft
unternehmen
80
##hle
##ivil
micro
non
##setz
besonders
past
##li
##asst
education
sinn
##ument
taking
mother
##zept
lös
hören
sun
##air
##hm
##ination
news
decided
##to
##undert
places
object
##üt
##omes
fä
##era
sagten
199
universum
informationen
##ote
indien
ill
regel
deshalb
##bed
det
##port
##ential
##mals
moral
programm
##ision
##alten
behand
##ude
##zahl
##acter
fle
##oy
##ese
jahrh
anzu
##izin
##wend
##ony
kinds
appro
mult
##app
though
verändern
##ker
conf
rather
bezie
quick
behind
namens
antwort
erreichen
##av
##nisse
exactly
ourselves
flug
model
foc
künst
sum
share
society
11
ober
repr
hoff
success
company
third
minuten
fly
oben
ster
benutzen
##ipp
##ingt
prov
orig
machte
halten
##elt
disc
bereits
ner
vort
word
everyone
completely
complex
bilder
dich
##fol
view
happy
##innen
##antw
musste
verschiedene
ähn
entf
verr
##ides
digital
oil
itself
genet
inspir
south
woman
##chan
wasn
teilen
natural
##gende
themselves
##est
turns
friends
##uf
##heim
##ählt
##aur
black
students
komplex
gruppe
won
listen
cool
familie
deal
minutes
huge
ple
##gem
##hau
##ös
herz
darin
hätten
learned
kap
##osed
behav
##ering
##igten
##bes
##ommt
verm
##istan
gerne
##ush
gets
clear
stunden
lead
##ability
became
along
##weit
anst
erkennen
steht
study
america
##ging
sozial
ach
fu
hig
##öhn
##ett
john
##ional
goog
freund
aff
kultur
##ahn
american
happening
kosten
verein
##aun
##bare
##face
##ots
connect
##ption
created
animals
gefühl
pred
hours
systems
medizin
grand
verh
meas
ep
##ef
ak
eth
##bracht
serv
##annte
##äre
gebäu
##wards
innovation
death
einzige
ball
##haps
##une
mittel
shows
kil
erh
perhaps
auto
center
schre
software
##rieb
add
##punkt
##öff
##istic
irgendwie
cy
sil
ones
##itting
bereich
ocean
innerhalb
dro
bott
knew
beob
##igung
##els
diag
##ource
relations
century
ju
wall
braucht
explain
hiv
##ante
rei
##cks
guys
ök
jedem
baby
##grund
##ished
eight
500
ergeb
##immer
haupt
mer
masch
umwelt
##osp
##änger
network
disease
##zy
gesicht
##aw
##ienen
sprache
vö
stell
dru
##ortun
##endet
transform
field
##chter
##arten
##gestellt
deep
untersuch
bestimm
impro
opportun
##sc
bemer
besten
ap
kreat
##itte
wegen
seven
syn
cut
couldn
regierung
luft
nu
##anzen
area
log
##ibly
##iken
machine
fehl
jahrhundert
16
led
##ither
obwohl
against
beginnen
gave
##richten
##bild
recent
feed
worked
north
based
bewegen
tut
beiden
personal
questions
treffen
verschiedenen
##ließlich
aktiv
bat
moving
lim
population
google
##akter
##ager
sachen
vorstellen
takes
patienten
##ässt
fantast
sand
##iol
##cul
amount
lots
early
##ife
##ral
##olved
##zeugen
führ
##ump
##apt
others
ries
präs
##ätz
##itet
least
text
führen
foot
tas
##onen
stück
schü
menschlichen
step
blue
##ächt
mik
erstaun
entwickeln
##schnitt
emp
bank
vater
zent
learning
##ilen
##ologie
pen
dor
ziel
##des
##hor
neg
sage
##ney
krebs
##ples
diffic
finally
reich
bedeut
##system
difficult
90
jap
stellt
scale
##bringen
verwenden
nämlich
during
##uld
##med
##itions
erhalten
obvious
##druck
interessant
dimens
begr
verfü
##haupt
cann
dad
städ
solar
bir
einigen
##ucht
media
post
gleiche
##isse
pattern
##zustellen
unglaublich
##iew
##ison
image
japan
ult
##aden
##utions
chance
sud
unterst
schwar
gol
pick
##han
persön
verbess
##pekt
outside
prim
wollten
wort
kindern
##pfen
bitte
##zin
enor
short
gewalt
angst
##anger
interv
virus
##erweise
needs
##pect
##lligen
##äten
bez
morgen
present
14
ca
##ising
kommun
##werk
erscha
yourself
wonderful
culture
##erst
lage
##bere
##ature
ess
spez
break
absolute
##alax
gebäude
relationship
squ
werk
versucht
##zieren
##jor
##inal
daher
difference
damals
tausen
70
port
##oph
taken
mars
##kre
theor
##igte
perform
##häng
powerful
thousands
behavior
mob
plast
event
hause
überhaupt
eltern
nächste
kraft
##hlt
##hnt
prozess
##okrat
zwar
galax
struktur
dun
hold
tit
collect
low
send
##mel
falls
##ully
männer
schreiben
desc
tru
seeing
david
common
mechan
aufga
##ments
surpr
bud
fern
##arch
buy
hands
direkt
given
ändern
##lo
##völ
whatever
auss
##ology
pfl
##por
major
democ
friend
cop
##lic
simp
occ
##gn
##tend
##beite
turned
terms
##iben
beginning
##lam
kid
sam
tief
##onnen
gleichen
eyes
17
##ama
interested
##entlichen
##äume
reach
lehrer
san
##day
neben
überr
consum
##haft
street
photograph
ment
sicht
##ikum
parts
verändert
communic
##sw
virt
pract
week
optim
sat
ground
##baren
länder
##anten
meer
##verage
leave
fundament
trotz
audience
fish
##ox
##ängt
herausforder
incl
changed
easy
eher
size
##oms
nachdem
##ards
anfang
mikro
muse
wes
hab
allem
gene
access
vision
##essed
##bre
getan
circ
box
##möglich
unbe
##enne
verbre
kamen
dau
##rä
##oud
##oth
##bert
##genommen
longer
öl
et
##hand
##50
worden
dingen
fühlen
vorher
##hlte
menschliche
milit
##nahme
tö
sold
extreme
local
erklär
##ller
##uren
white
dessen
gedanken
roboter
sieben
color
junge
cannot
tier
##ücke
repl
##dest
bereit
zahl
##aktion
##bte
geist
depr
simply
ox
##inary
key
198
park
girl
roll
sal
unten
leiden
ord
##brau
europe
paper
falsch
east
brit
##iziert
##fläche
klim
region
letzte
tage
##lungs
##cious
erre
##standen
hom
conv
sicherheit
intelligen
entwicklung
leicht
perfect
##tete
arbeite
geschäft
bringt
möglichkeiten
oze
poll
hall
tages
##sk
##haus
##zug
##icks
humans
economic
kat
press
wochen
weitere
staaten
sek
##ams
expect
elem
##kü
gemeinsam
betrachten
ice
ansch
erfahrung
surv
welches
value
hilfe
gone
international
lässt
##wand
stay
reality
direct
fahr
needed
bal
bege
##omat
modern
zehn
poor
rock
##idence
kranken
special
##ban
tried
farm
effe
tin
##lin
zeich
visual
publikum
ce
op
##cker
##ktor
demokrat
##ledge
anderer
father
är
##bor
##tens
gren
individu
acht
##raum
##text
verste
force
eigene
lesen
##fully
##ars
##aul
version
erlau
fert
jungen
known
code
realized
bekam
aw
gas
sea
genaus
scre
position
13
rück
deren
hervor
jedoch
##iale
markt
either
##ils
##ows
##reifen
statist
300
spent
museum
##rab
meines
grunde
detail
##fahren
prop
##ains
##zentr
gemeinschaft
sudden
genauso
##izieren
risk
cities
##zip
rele
schließlich
erinnern
##ources
solche
##serv
folgen
support
tiere
##ci
##ötz
ther
##urt
##ently
parents
modell
funktionieren
focus
hosp
##book
##indet
alter
near
afgh
schlecht
temper
block
mussten
positive
camp
##up
##immen
companies
hit
nice
rot
##ball
platz
quickly
ability
dark
##ände
structure
eis
emer
rand
##ites
##ibility
recogn
slow
##ograf
##achtet
main
plötz
##führen
pull
general
incredible
fear
zellen
gewor
##mar
##annten
enc
##izing
guten
europ
born
pf
tou
übr
##bauen
schritt
feet
lost
minute
serious
electric
süd
afghan
##ised
auszu
woche
wouldn
##ried
surface
measure
bur
##by
erle
thema
strateg
sitting
vill
##ließen
wusste
viol
##ja
rein
verle
monate
lösen
##antwort
ding
sollen
verbunden
boden
computers
growth
eat
##rote
enter
sug
gescha
lösung
21
zahlen
##erungen
##orten
inse
prom
college
sterben
bom
##mm
##aren
##usion
##the
wären
danach
individual
aben
##itter
zuvor
aufge
brought
zweite
medic
growing
motiv
vortrag
path
##vert
moder
##uel
konzentr
führt
schwierig
akt
pun
##win
##wär
##achst
##imp
forward
iran
201
record
consider
##ght
sequen
stage
##stein
deut
neues
erschaffen
##rage
spir
##gebung
nation
##kraft
##itzen
blood
freunde
glücklich
fragte
hast
books
animal
zerst
university
bür
ka
pack
beein
dead
##zellen
##ively
blog
technologies
##jekte
fliegen
draw
wand
##zz
##schr
atm
felt
##prochen
##falls
weeks
bottom
ermö
compass
jobs
opportunity
kaufen
##pers
hey
##ynam
##ake
##bau
##isst
##isieren
deg
knowledge
##ips
climate
autos
instrum
images
fähigkeit
samm
##ilar
##rad
ausge
dom
fight
nimmt
tal
tom
##zeigt
##ival
strong
economy
links
##bon
##cts
##ills
write
besteht
##achstum
##alien
##scht
manche
##merk
starting
civil
##ined
benöt
langsam
morning
verbindung
wrote
##ators
aussehen
##ustain
##ächst
drau
##arbeitet
changes
respons
##nahmen
bleiben
24
bevöl
verantwort
ihres
feeling
political
potential
approach
sn
blut
flu
playing
wissenschaftler
miles
##sichtlich
philos
fire
aufzu
def
##zeuge
produkt
vergleich
hung
altern
anyone
developed
plötzlich
kolle
laufen
##oun
interact
elektr
##gefühl
völlig
cause
student
bewegung
##iant
##nal
gegenüber
namen
patients
künstler
familien
religion
webs
##eder
##acy
##gewöhn
hör
##inos
compassion
##bol
##reten
islam
prot
##ops
enth
beschäft
##lossen
tools
draußen
average
hine
##hören
##kle
##pec
##produ
challenge
##ndon
zuerst
##abil
überleben
favor
gewesen
größte
late
raus
concept
blick
technologien
cars
scheint
tum
##ifor
##fs
allein
##ückt
impact
arbeits
##uth
co2
road
scientists
est
mount
areas
möchten
designer
verschw
giving
wachsen
##gliche
##auft
gele
meter
similar
gefunden
integr
touch
source
##uit
isra
##abor
unseres
erklären
##wirk
##ieten
theory
##esh
expr
flo
eye
##jen
worth
comb
nachdenken
attention
christ
suggest
sustain
##alle
stelle
literally
überras
lay
pur
##pre
wahl
development
seems
hü
rate
##licht
##put
vergangen
spread
aren
entdeck
bist
gives
fair
medik
verwand
suchen
ersch
##äuf
numbers
beginnt
krankheit
auft
##weg
##uelle
herr
technik
gelernt
muster
institution
finger
dynam
##ram
##kerung
miteinander
medical
##clear
terror
##omet
zug
##gegen
mitt
nacht
tatsache
anstatt
##iforn
äl
meaning
ländern
infra
##unehmen
reihe
israel
lern
wild
anzahl
daraus
preis
geworden
pal
##fangen
##chsel
ann
medien
196
band
games
song
##po
uni
##idge
inde
smart
metap
größten
movement
ernst
infl
##entially
##ived
shape
mache
studenten
##ziehen
##zw
anw
island
erd
dein
niemals
##äuft
##ove
##bten
##ances
sehe
durchschnitt
empf
boy
herauszu
understanding
physical
english
beeinfl
##go
##ston
truth
disk
passieren
profess
leaders
nahm
stär
erfor
flow
london
realize
##gessen
infrastru
übert
map
blind
erzählt
type
recently
##reds
manag
demon
benef
jemals
running
richtung
krieg
avail
refle
journal
absolutely
fro
tie
sell
anfangen
discovered
kontroll
##ai
reise
except
nobody
##arm
##alter
hundreds
ton
##ikel
##yp
##ules
197
gebaut
##sätz
beide
##icy
aufre
##blick
wahrheit
fehler
includ
table
##iod
nord
developing
prinzip
extrem
repres
fur
ira
brill
intro
cover
einfl
millions
speed
egal
formen
kleines
creating
zero
curr
einges
kan
##cin
##hnen
##zogen
soon
alone
##ctions
##ustr
phone
verloren
größer
qual
telling
transport
changing
##let
##oper
genannt
sonnen
##was
##äss
##sequen
regen
period
bekannt
guess
verwendet
crit
entwicklungs
girls
##mut
##atten
##itze
frank
hinaus
kleiner
industry
demonstr
400
##iation
save
knows
##ified
##samkeit
bürger
jung
sau
umgebung
##ploy
rede
sprach
engag
aids
##urity
espec
##anda
happiness
bekommt
amerika
##älfte
faszin
predict
especially
nine
sky
chris
atmosph
üb
mitte
suff
lieben
metho
dou
lad
##lang
##son
##asing
##orge
teile
anybody
gold
las
##ägt
##iko
prev
produce
##teilt
entfernt
enorm
fem
##wind
austr
##inder
##head
nachzu
##hnung
showed
##zeitig
hundred
industrie
##wirtschaft
chinese
ehr
echt
##isiert
gezeigt
travel
graph
stellte
obviously
afghanistan
##sta
haven
benutzt
##zeugt
histor
conscious
##bi
##äß
requ
##roffen
mex
aufmerk
becomes
fell
fail
sonst
foto
mos
infe
sofort
##icans
früher
fisch
nar
##hood
alten
##oose
solution
##used
entscheiden
maschine
available
jen
pil
tend
##zens
among
##phone
profession
materials
fahren
##ativ
held
proper
trust
##iled
talked
designed
carbon
soziale
komplett
fanden
total
gefähr
vorstellung
partner
stark
männ
aufgabe
kal
##ishing
incredibly
druck
ske
##uellen
##ätze
##änge
norm
depend
nutz
##stro
##amp
##asser
##ichtet
issue
achie
mü
mist
pan
##af
bigger
richtige
bedeutung
hot
sle
##oon
##äus
bey
neigh
##abet
findet
bildung
bakter
wish
##hy
toll
sche
impl
geboren
##fäh
standard
tiny
mr
##ube
veröff
##feld
beyond
bacter
rom
##itäten
##ared
experien
interessiert
jemanden
capt
please
##dlich
sever
##gef
deb
peace
kompl
einfache
parad
finanz
subject
choice
fuß
##kehr
gegeben
meinung
drive
solve
appear
writing
term
absolut
tür
##hmer
##ko
##ami
device
stick
leist
passion
wol
##ike
##reg
##osystem
action
clean
stimme
hälfte
ken
king
##racy
lived
##rift
ign
##lagen
##com
##stre
inn
anges
resources
security
attack
pictures
symbol
extraord
spirit
##oes
##viel
##ützen
##stet
##itation
schrieb
mitgefühl
überw
basis
mis
niger
rolle
##aß
##off
##utage
office
versuche
scientific
erfolgreich
erreicht
fix
wid
##ny
##hers
schmer
brachte
##ierend
putting
urspr
restaur
forschung
bald
rules
zun
necess
geschrieben
größe
vereinigten
arab
fab
letzt
##ziert
heim
##ossen
##piele
died
maß
voraus
genommen
##ford
hoffe
spricht
motor
offensichtlich
vertr
richard
ozean
hospital
ansehen
mögen
firma
interview
einfluss
gt
wann
##lage
##ased
##arily
##inner
several
dinos
tar
##gor
##band
##wood
##fahr
heutz
asking
##ibr
##pped
##wohn
schools
involved
training
philosoph
heutzutage
vac
function
veränderung
profit
hundert
reasons
##länd
##aster
##ffee
sorgen
argument
beziehung
pflanzen
website
lt
##uh
##fore
sob
washing
schau
##ades
dete
convers
##ängen
dream
sonne
nahe
radio
##krank
voice
einzelne
gingen
##ipl
##seite
##urg
##iple
strom
##prob
herausforderung
dop
länger
towards
erschein
##umb
##adem
character
chemical
jähr
##hre
##how
verurs
##indern
hell
span
##wegen
track
ziehen
setzen
intellig
präsent
hinein
laut
wider
##agieren
const
zeige
##akes
tells
politik
erwachsen
##gemein
##jenigen
nan
##gte
##äfte
irgende
ere
##tter
##isierung
##gress
lok
grad
interessante
projects
batter
##ley
evidence
lief
realität
##iction
bestimmt
straßen
industr
groups
sounds
certainly
suddenly
übrigen
##sth
##ada
safe
basic
effic
ähnlich
städte
danger
##ores
stimmt
gesprochen
dram
teachers
particularly
##gorith
##action
##ales
vern
arr
komp
weltweit
##ify
videos
mission
fähigkeiten
erkennt
issues
ergebnis
trotzdem
breat
nennt
##zer
hinzu
starts
schulen
regeln
lag
##cial
bee
seiten
warm
traum
brand
hoffnung
herauszufinden
further
##oid
##yl
einzu
##iers
früh
##ously
quality
regier
gesamte
entscheidungen
oberfläche
village
##back
##lim
##ctors
##uell
nachrichten
bewegt
normalerweise
tor
##feren
##ana
neun
list
jahrze
besuch
emotion
geschieht
meth
coun
unterstütz
wachstum
##ausen
vergessen
confl
plant
##ändig
spezie
check
prakt
domin
##atic
capital
papier
##iber
##res
##len
##hör
##room
machten
objekt
tragen
schneller
screen
bang
ingen
##icher
verfol
liber
compet
studie
##arbeiten
facebook
karte
deliver
rid
sus
##itor
verständ
##idem
##stens
150
indeed
base
dachten
hop
lapt
swe
##dessen
##ösen
sele
##del
protect
##ultural
caus
gern
sent
##ometer
##edia
separ
everywhere
anyway
liegen
büro
paul
##iate
##iesen
##teile
##aly
##führ
gerät
ready
burn
page
##satz
##ural
##abhäng
kannst
complic
finde
skin
bemerken
sport
##ables
message
##ragt
##bew
exciting
begannen
bücher
nuclear
square
anschauen
bon
gang
mine
rap
wik
##itch
algorith
diesel
##ienst
showing
biggest
wait
creative
examples
straße
walking
rechts
europa
älter
ker
lose
russ
##mon
##lassen
schaut
doctor
notice
progress
gruppen
totally
journey
apart
dorf
element
medicine
professor
aufmerksamkeit
##kam
ine
zeug
konzept
movie
gründe
democracy
cat
##con
##wasser
trial
gleichzeitig
connected
einzelnen
wichtiger
kontrolle
käm
##wart
angel
trick
blau
##isions
geheim
likely
möglichen
kreativ
oxy
jud
##oten
##0s
##recht
onto
deine
trend
passierte
transl
cris
wichtige
etc
fill
##mus
##iegel
bein
selt
search
##uchs
moved
##ätzen
wants
carry
berü
universität
conflict
org
##antly
quad
definition
demokratie
baum
##fon
nachhalt
afrikan
nerv
ress
##ror
##lungen
haut
##verty
door
gesetz
poverty
molekü
service
fundamental
rat
tur
whe
##icle
fore
feld
monaten
magic
symmet
sozialen
bestimmten
birth
leidenschaft
extraordinary
##cen
##ham
##ügen
gearbeitet
spaß
imposs
verlieren
##tember
##zeichnet
bevölkerung
sobald
cook
mc
tv
##lauf
##amin
menschheit
großer
näher
beobachten
übrigens
gal
##artet
stamm
feuer
zumin
quant
gutes
african
magnet
explor
teacher
analy
agr
foss
phen
##la
##organ
atom
##nehmer
glass
activ
talks
bessere
mental
extremely
sä
##gth
##glie
##ikation
##plan
perspect
magaz
fertig
river
##rate
##hungen
threat
##unately
denkt
heut
somehow
arbeitet
gebiet
author
collabor
##ühne
wussten
influ
wow
##irm
##oming
teen
grew
urban
camera
richtigen
crazy
theorie
rain
wör
##more
##asa
##etic
meist
gehe
plat
usually
monat
older
physik
largest
return
objects
schreck
grenzen
##ius
##zte
##ered
##rel
##unt
##ickt
genes
activity
trag
disapp
studien
versuchte
##bildung
citi
##ieg
plants
epidem
dadurch
sleep
push
sad
##erte
arme
tagen
freed
waste
sitzen
supposed
armut
impossible
##ka
##ativen
zugang
##imin
forest
lehr
immed
organization
##teilen
verlassen
trees
##schlag
schlechte
biology
report
watching
verbessern
zumindest
adu
crow
##fre
##erei
##entliche
##weisen
auswirk
gesp
##nete
darwin
##ological
firmen
gewinnen
produzieren
bio
remark
mathematik
erlaubt
nachzudenken
cross
hunder
tour
##gleich
##krie
##ingu
##sed
##selbe
taten
named
eventually
vergangenheit
fine
##ieden
##set
heil
sahen
context
großes
zweiten
intelle
öffentlich
results
continue
##ped
wear
##ussen
franc
orte
buildings
irgendwo
##front
higher
protot
washington
rau
##ächen
##ery
zweit
strange
larger
particip
hyp
bleibt
winz
private
essentially
electricity
##windigkeit
##ov
mond
somewhere
##ourcen
##ground
series
##stoffe
charles
account
synth
introdu
##lern
##lemen
##legt
##schung
above
spre
goal
umf
##prü
behau
außerdem
products
adult
cart
kür
od
##orben
diejenigen
gewe
##nehm
intu
install
##pfer
bewusstsein
drug
kern
zufä
meant
lif
orten
shift
nachbar
##ruption
geschehen
clin
##gendes
brains
transpar
##keln
represent
dauer
##itung
erg
ended
models
sorts
babies
analys
##dro
##sh
##ott
unmöglich
wieso
spect
communities
bilden
fotograf
individuals
complicated
phenomen
ray
rund
zivil
##teten
sowohl
gebracht
dog
komb
landes
beispiele
##äumen
elektron
improv
truly
35
häuf
member
##gere
##rt
erzeugen
worse
##odies
##ensive
amerikanischen
schüler
ultimate
spezies
medikam
astr
pak
##over
##dom
##ca
##cient
##wert
##öst
gekommen
##ulpt
forms
central
western
affect
bacteria
crisis
##rän
abge
abstra
standing
faster
luck
sinne
molec
großartige
mad
wü
##bung
##atory
intens
##ements
##ract
abzu
choose
shap
wirklichkeit
finding
content
surger
secret
posit
staat
##ribute
allowed
amerikaner
traditional
original
bakterien
industrial
site
##arf
##isation
unabhäng
alte
enj
spiele
##astrop
amb
indian
trade
studies
stars
policy
2000
written
signific
ebene
architecture
calcul
engineering
##bra
##pfl
ständig
aufgrund
constru
grü
##inken
konsum
role
president
taught
voller
entdecken
continu
krankheiten
tausende
including
fit
gift
nut
##uß
theater
town
##lebr
außen
stol
##verse
cha
mod
##ierende
entweder
##ission
points
massive
aussieht
verletz
för
wife
##iste
reaktion
doc
worte
shown
##üssel
malar
personen
zusammenh
erhö
francis
deter
tree
##asen
verst
uner
##pected
sprachen
thanks
kreis
signal
pieces
depression
ingenie
600
vul
##ios
absch
assum
prison
blo
verbinden
beauty
conditions
increasing
concern
##setzt
intelligent
##lier
##sts
arzt
prä
clim
höch
99
##tte
##ette
rece
##stelle
##atell
nachricht
upon
##assung
artikel
humanity
##schluss
reading
therap
messen
mention
nenne
wün
##gu
board
##isms
einzig
killed
großartig
sekunden
perspective
div
##ubl
##ky
ham
sohn
therefore
brief
clos
befinden
income
##ussion
berüh
england
emotional
convin
arbeitete
freedom
lust
##ara
##ilities
##ologen
addr
##ünft
himself
excited
purp
3d
##yle
##onse
##tex
##throp
##osm
##oods
erfahren
##vented
fotos
##impan
45
lower
unfort
erne
##weis
phän
dritte
keiner
##legenheit
verbrau
vari
flugzeug
fantastic
budget
favorite
tumor
neighbor
tanz
##machen
##ses
##cise
##umm
herstellen
micha
response
drugs
krankenhaus
bunch
bühne
##wür
##enz
muslim
betrachtet
electr
painting
successful
gere
##gru
##oke
##prechen
schö
##ille
myster
price
flü
beweg
globalen
ignor
gebrau
warten
vorstell
genome
gros
konfl
##attle
invent
architektur
ursprün
len
##ufen
##kop
einkommen
##schritt
alth
tax
party
##ript
anti
treatment
führte
überraschen
##same
##hme
##ende
zustand
dahin
trou
hotel
materie
details
ban
satell
##iot
##pret
##come
##vision
spielt
##osh
kept
bisher
beings
krit
families
straight
gesundheits
surprising
michael
although
fangen
passen
##iately
##pfe
##volle
##schw
alive
##ulate
decision
expensive
runter
antworten
increase
effekt
cases
hon
pet
zit
##jähr
einander
verstanden
lebt
umzu
könig
automat
welcher
skills
##ständig
cheap
höher
##geführt
assoc
meeting
plastic
daugh
celebr
##ferenz
wörter
tä
##ählen
##ierter
saving
rights
##glicht
ebenso
##ieties
genetic
military
vertrauen
malaria
aid
card
##hem
##wissen
##kon
throw
notwend
##ulf
subst
entschieden
##plant
throughout
gefragt
performance
ermöglicht
verständnis
ressourcen
ol
##kommt
wechsel
gespr
##izations
##werke
famous
hilft
colleag
twitter
linie
afford
patterns
kol
##pel
##kn
thom
##atest
##ured
##größ
launch
effort
smaller
neurons
hyper
environmental
bestimmte
rise
##mäß
##hil
##itude
sep
##indung
teles
existen
shot
machines
print
##ounds
dritten
solchen
##riere
fallen
gefäng
außergewöhn
clearly
ah
jump
ug
##bil
##ittel
##lex
##altet
stock
##amer
verme
##imal
leisten
##ums
worry
##mend
male
actual
grundlegen
earlier
healthy
##licherweise
gesamten
fascin
sammeln
unique
methode
berg
##uern
##vard
innen
##ingungen
anz
store
##usagen
desp
brust
decisions
höhe
allows
services
riesige
negative
schwarz
jul
nahrung
##falt
einstein
dasselbe
##seit
##iced
artist
##üss
grav
effiz
freiheit
ergebnisse
golf
recognize
ran
rule
##zimmer
george
##ahrungs
interpret
drink
greater
familiar
specific
greatest
entdeckt
erklärt
violence
kaum
ten
tiss
vict
sod
##ctures
myth
selben
traf
handelt
americans
financ
himmel
farbe
physics
invol
bedro
costs
listening
occur
schmerz
fen
##iat
##icians
##abl
wohn
untersche
reser
employ
klin
patent
expand
seconds
respect
electron
schönheit
entscheidung
untersuchen
september
lines
änder
##mann
##seits
leider
imm
frieden
comfort
chir
ausw
interesse
entste
geräu
relative
digit
##board
pakistan
dance
hält
insel
bezug
anwend
forget
uses
divers
##rieden
handeln
nummer
retten
values
ordnung
geschäfts
fo
ku
range
uhr
##wa
##ya
angr
isol
seines
glam
mont
befindet
solutions
verrückt
instrument
method
fuel
hände
gras
zeigte
jahres
driving
hole
kampf
##progr
wundersch
englisch
sharing
maschinen
kollegen
express
address
fat
mächt
nasa
yell
bestehen
##rot
verstand
atl
##uster
bru
fac
##änden
geburt
kamera
protein
ehrlich
dangerous
phänomen
cry
james
mas
##frieden
##stes
invented
##repr
weib
becoming
##ahmen
veh
anywhere
differen
production
benutz
behandlung
akzept
describ
intelligence
geschaffen
conversation
agric
dür
hart
mix
null
vent
##brechen
##ners
##yr
##ym
##stood
toile
##sem
gestellt
denk
allgemein
leid
##umen
immun
darf
##gründ
anymore
niedr
waiting
creativity
bedür
teaching
außerhalb
hirn
kä
läuft
##äte
##antic
however
displ
landwirtschaft
remind
bedeuten
slide
erzählte
biologie
##ütter
balance
zunächst
cro
jan
weight
unver
schr
shoot
decade
naja
angefangen
hydro
princ
critical
behaup
surgery
none
##ippe
##ding
##vant
##berg
getroffen
whose
##ained
prior
indep
##ktionen
schlimm
final
suche
fortschritt
##holen
provide
kilometer
unterstützen
mobil
encou
hörte
##sätzlich
current
wikip
cultural
gall
ip
kir
##ec
##wers
initi
zeitpunkt
versor
##gesetzt
nieder
wunderbar
winter
random
ren
tisch
##sweise
##will
##fel
react
manip
herunter
herausfinden
##teilung
minds
walked
letztes
cold
wide
wesen
##blich
##ellen
##üge
eint
wett
##ico
gebe
worten
gross
##keiten
einfachen
##lesen
politics
capac
robots
##assed
verkaufen
gründen
immediately
remarkable
bodies
hang
jack
läch
##rig
##zwe
##erin
##sters
##rochen
erleben
##ients
systeme
direction
einzigen
floor
75
les
mig
##ration
##masch
##buch
##pol
##anke
##entie
aussch
willing
adop
republ
unglaubliche
conference
flying
klimaw
abend
##ober
##passen
##alog
legs
frustr
moon
##ahlt
foundation
harvard
types
organisation
verfüg
punkte
auswirkungen
##üst
##stück
beit
hair
gefä
##ims
schicken
schrift
##wel
deswegen
##ightly
##hlung
dipl
mehrere
landsc
##altung
erstens
erwarten
erinnere
belo
condition
speaking
netzwerk
begeist
##äuser
disappear
unfortunately
##reprene
mart
##öse
##atte
schm
ausdruck
##üsse
useful
german
klasse
gradu
biom
experiments
connection
##gaben
marketing
unterschiedliche
##mitteln
task
erstaunlich
practice
enjoy
thomas
klimawandel
baut
kore
wire
##hi
##inct
##stä
angeb
stunde
tex
weren
entreprene
cloud
poet
##schiede
sorry
californ
various
following
diagn
networks
restaurant
ereign
citizens
wikipedia
##spiel
##nde
stam
##iling
veran
projekte
commer
chair
desert
genom
status
societies
##nost
materialien
shared
beziehungen
enormous
nigeria
dinosaur
dramat
hunderte
ahead
##uck
##bit
##nungen
##leist
mel
forth
##ags
##olly
steve
##ergie
police
understood
gehirns
respond
ebenfalls
temperature
alternative
austral
##orn
##ises
##test
stren
##ray
##ierenden
spekt
produkte
stress
effective
lösungen
mobile
descri
militär
22
nütz
nahrungs
##lose
##rees
##ago
armen
techni
frem
simpl
laden
größere
globale
erwäh
popular
raise
summer
survive
##gefunden
regierungen
dur
km
mur
sauer
##ochen
##ieß
ancient
##iles
unc
##schte
##anne
##uls
consequen
amp
##platz
apple
kontin
##ognitive
zentrum
mountain
heutigen
aware
jene
wis
##ikt
##kom
##stern
abhäng
demand
zelle
selten
zeiten
guter
##barkeit
erfunden
2008
schützen
consciousness
kreativität
massen
pig
##ramm
##bet
##anter
##omos
##unsch
##etze
werte
##onest
loved
emiss
accept
autor
commit
farben
beruf
jemandem
profound
effects
virtual
directly
seltsam
sodass
kulture
##ining
rechten
forces
doctors
evolved
##aking
boys
charakter
operation
institutions
laws
stimmen
television
stattdessen
##wärts
laptop
california
mär
##ießen
schuld
entsp
konferenz
##selben
email
medium
produced
194
##geln
boot
##ception
##stände
tests
telefon
nahmen
concl
gefängnis
catch
echte
hus
##ibe
##dig
inj
gek
##ceed
liste
##pping
coast
klass
schluss
##ssystem
ganzes
eigenschaften
gedacht
biological
inspired
feedback
brilliant
einzigart
financial
van
##gra
##eras
##iete
##schuld
##hel
triff
fluss
resist
wählen
acce
iron
funny
apply
öffnen
öffentlichen
governments
institute
choices
challenges
fällt
konzentrieren
prevent
bedürf
23
alex
cust
py
valle
##mark
ausein
manuf
designers
schlag
wichtigste
career
birds
medikamente
ahnung
##bur
##atives
##lling
yout
auge
##ilien
erfü
heat
tech
umge
flight
##redit
##haltung
verbringen
sustainable
purpose
##iffen
##iated
##kur
##iegen
wege
weap
rechte
##bewer
impr
##anning
##annien
note
plus
herzen
##ivers
mostly
##bling
veränderungen
helped
match
experimente
below
lernte
fok
gather
hem
hört
##hib
##chem
haw
une
geograph
dok
vorbei
herzustellen
ame
compon
komme
erfahr
autom
tremend
bush
strug
chromos
teams
photos
levels
oppos
memory
behandeln
kapital
jahrhunderts
pressure
zweitens
youtube
dienst
##gal
##pft
##orfen
seien
legen
destro
grün
robert
broad
risiko
flex
werkzeuge
francisco
fash
jün
koll
##mung
##aries
wealth
gegangen
golden
plastik
metaphor
manufact
drop
hous
hinge
ros
wandel
##entw
stan
desto
prize
active
konstru
ideal
respekt
studio
brown
##maßen
##äsent
budd
müll
ax
gig
sme
##dings
##erk
##ino
##reibt
##schirm
heav
##anden
##brit
gering
offic
surr
typen
wichtigsten
bringing
nav
horiz
verhält
cyber
meeres
erfahrungen
honest
wunsch
##lei
schutz
hero
wenige
played
explore
folgendes
possibly
harm
terrible
verhaltens
verfügung
democrat
##hilfe
trifft
fett
roo
sir
##cl
##gency
shop
conserv
glas
starb
adapt
freude
surve
sicherlich
haupts
verantwortung
hypoth
zusammenhang
auseinander
fashion
bought
fold
hid
##mp
##lad
beat
bestand
stabil
erzeugt
##lder
##weil
##ielten
cooper
quar
endlich
gehir
instance
größeren
explos
sympt
diseases
bomb
eating
fach
gent
##nam
##orie
bele
##ffic
##ikas
knochen
##ologist
geschah
artists
##liegen
##hnte
halb
todes
related
##arbeiter
supply
##minister
twice
inspiration
komplexität
jugend
merk
titel
##britannien
fan
##aign
##wise
weiss
zuh
frame
somit
entstehen
phase
academ
appar
decades
eigenes
recy
kontakt
gefühle
existiert
privile
spending
frühen
focused
complexity
entfern
pleas
dunkel
campaign
irgendein
causes
yellow
capacity
bäume
dol
##ieb
##itar
westen
##thin
max
geschwindigkeit
evol
fühlte
2007
ansatz
##maß
##mode
sozusagen
markets
##cules
kompon
beeind
rit
ts
##ih
##20
##seh
worst
##ulieren
entschied
##örung
perspekt
bitten
decide
##rifft
corre
scientist
##like
fenster
kennt
pac
rough
##cies
##vin
##ench
##stin
##essel
tochter
seas
stor
ausz
shock
wohin
joy
corner
schöne
gesellschaften
vermut
empath
##load
communication
erlauben
oxygen
##gin
##iest
einsch
tolle
##ires
unbed
spitze
sommer
master
##aining
coffee
begonnen
prepar
freunden
kohlen
imagination
devices
condu
analog
##setzung
dorthin
modernen
häufig
closer
gun
kauf
langen
setz
wal
##tes
##pack
##va
##key
##ays
aufz
##ume
##uchten
##aterial
fällen
geschafft
ermöglichen
hunger
beeinflusst
infrastruktur
widers
##problem
efficient
osten
race
##ähl
##nden
##schutz
##indust
spl
photo
investieren
repräsent
nerven
valley
##industrie
sick
vag
##pa
##lly
großbritannien
einfacher
ließ
geme
waffen
physic
lights
garden
neuronen
karriere
verbindungen
target
lasst
tieren
zo
##afr
##outh
##utt
##imeter
##ennung
polio
puzz
##prozess
##geschichte
fernsehen
##räge
iraq
atmosphere
vulner
daughter
aster
cult
lack
wald
##light
wirst
vorhers
workers
##bruch
fühle
graf
slightly
erstes
nächstes
leads
infrastructure
##hyth
tissue
sauerstoff
custom
eure
kö
kit
loss
rücken
##ech
##aling
habt
reform
nehme
##pper
unterschiede
selber
loch
fühlt
produziert
frequen
weiterhin
spieler
kostet
molecules
hearing
##vollen
origin
ärzte
degrees
kontrollieren
cru
dh
wil
##oge
##bü
##elle
##do
beteil
station
gelegenheit
daß
##eless
##izes
##melt
gewöhn
auth
applic
published
breast
250
2010
dere
##ete
##hes
##anced
reicht
##dert
##istisch
entlang
##führt
boston
wahrnehm
verwir
broken
irgendw
##ribution
legal
programs
ökonom
katastrop
sekunde
foreign
magazine
trouble
surround
hind
mort
rare
senten
##ping
##chnen
alph
schn
aufw
aufgenommen
##angt
paid
neuer
highly
perfekt
edge
riesigen
kürz
mu
masse
nations
änd
##tr
##üben
##leun
aug
##deut
eröff
allt
mitglie
orche
noticed
mail
##änglich
##onds
polize
norden
halt
moments
brauchte
##drücken
nähe
erinnert
##ktivität
seemed
easily
einsatz
universums
intelligenz
temperatur
entwicklungsländ
pip
##stag
##arte
beantw
##edy
##icles
##othe
unsicht
bridge
diabet
besor
partners
wär
calls
dennoch
strand
vollkommen
amerikanische
tausend
communicate
british
nearly
erforschen
spreche
significant
stolz
27
ba
tens
##rew
bear
gee
spot
notion
genutzt
gotten
teilchen
##gebaut
creates
answers
botschaft
gemeinde
particles
architect
allerdings
holz
forschungs
hoffentlich
improve
farmers
beschäftigt
verursacht
quadrat
wheel
differences
tremendous
bread
fer
giant
hielt
kenne
vast
##andid
mac
shir
brenn
stein
##izität
##icket
##aced
gewonnen
surge
ethn
präsident
kommunikation
benötigen
##zwischen
double
achieve
independ
dying
row
##uz
##fert
##orted
##ichen
##reib
##enty
neug
spür
##istry
##ques
klingt
minister
politische
expon
accord
window
begriff
ille
sar
##lu
##wor
##far
##chern
##atom
##icke
##ichts
schu
überzeugen
weltwe
vielfalt
##aker
fragt
gewisse
klassen
##blü
wiederum
paris
schlüssel
letztendlich
stopped
switch
kämpfen
honor
colleagues
diversity
bienen
##gten
haiti
derzeit
meilen
##verständ
stem
interface
entspr
agree
halte
##fälle
fleisch
aufgaben
responsibility
eingesch
ultimately
landscape
commercial
smell
jer
lat
shr
tu
##bank
sev
reve
##ros
prost
chic
##abt
bran
unternehmer
tail
bub
studying
entwer
##stellte
berechn
möglicherweise
ecosystem
helping
drehen
structures
religious
linken
##zeichnen
ernähr
reduce
dimensional
relationships
werkzeug
titan
töten
pollen
begeg
##mutter
phenomenon
irgendwann
##stadt
beach
reagieren
zufrieden
unlike
neut
proz
assem
church
dee
##osition
werfen
presen
nochmal
objekte
impf
handel
boat
##pelt
visit
politischen
wissenschaftliche
streets
popul
buchstä
discovery
lautet
benötigt
female
nöt
szen
##ypt
##etwas
##icity
unf
erstellen
##raid
libr
##mente
flor
afraid
addition
expert
bildungs
treib
crash
interessanter
dreht
schafft
possibility
gaben
verrück
ökosystem
stellten
fellow
astronom
reisen
##auber
##aught
err
umgehen
stecken
##formen
roten
davor
relativ
schaff
universal
vogel
strukturen
mittl
management
kunden
ut
##ns
##aters
##station
##itzt
##icate
ance
##idet
spiegel
chicken
dagegen
sac
saß
##izz
##ätsel
coal
großteil
experten
herausgefunden
organizations
2005
turning
feels
sexual
kaliforn
necessarily
fabr
rapid
members
ändert
neugier
bow
bul
gilt
mouth
passed
zut
##fallen
stift
forg
forever
spaces
##hest
##heben
knowing
##lement
versus
disor
gewissen
zusammenarbeit
natürliche
gefangen
verkauft
milliarde
entwickelten
##markt
##mmern
wunderschön
rational
äu
##ring
##bie
##isser
sterne
##ida
aspect
##rupt
##halte
obs
shel
differently
##haben
charge
##mögen
identif
fully
behandelt
kommunizieren
##losen
talent
kompliz
wettbewer
äußer
bound
##iop
##cles
##lege
zuk
##auern
##dete
##idung
attem
noise
geschle
grab
kohle
planets
##schlagen
bedingungen
investment
##spap
verdienen
beeinflussen
irak
despite
chicago
gps
rhyth
tank
##baut
##ded
eindruck
##schauen
vorbere
##ologists
subt
durchgeführt
obama
traur
embra
lebensmittel
join
brot
weiteren
##gabe
kurzem
organisationen
figured
drogen
opportunities
habit
benefit
dieselbe
glamour
##ollywood
correct
unbedingt
buchstäblich
affen
iphone
oly
peter
##pted
##esis
bem
##icted
mitten
french
##ktoren
##zubringen
steigen
veget
newspap
##werte
klang
offer
appre
weiteres
brother
engage
erzähl
clever
geführt
babys
accom
identity
bauern
deutlich
benefits
atmosphäre
männern
experiences
paradig
berühm
zukünft
##ias
##house
##wh
##fter
##stud
##eth
sogen
##geht
worüber
ausbildung
##iens
##ulous
##chnologie
##iften
cla
einfü
designs
recover
gelangen
jeff
hintergrund
religi
engineers
grandm
##krebs
klima
vacc
kombin
strength
affe
lies
##gern
##of
##inhalb
##erem
sto
##ota
##nel
grass
usw
##quit
insight
grade
##ighten
corpor
##ification
lesson
vollständig
wahrscheinlichkeit
typical
paint
emotions
elements
fighting
chaos
fascinating
##programm
agriculture
olymp
bie
bib
dün
furch
##ued
##dy
##isierte
##alität
##entlicht
schließen
##zeiten
brings
##ildet
flüss
phant
contra
##hafte
appl
organisms
gegenseit
##klus
filme
beschreiben
invis
körpers
unglück
gestalten
elektro
circle
scheinen
kilomet
schwarze
insekten
verfolgen
influence
meistens
zufällig
entsteht
entwerfen
ehem
hi
hill
mouse
pian
##gle
##uing
##pun
##craft
##wide
##iche
zucker
##scher
##ibilities
trib
trip
##itely
problemen
besitzen
background
hinweg
shouldn
tedx
beschleun
antib
wunderbare
verkauf
vertra
missing
civilization
fairly
fossil
platform
kohlenstoff
according
core
date
##bing
##stic
themen
wei
erwe
abges
##istische
chann
überzeugt
##apse
faces
flat
prem
hohen
regular
transition
hopefully
easier
haufen
##richtungen
freiwill
wesentlichen
verbreitet
##ivalent
suffering
unterstützung
angeles
chirurg
zuhause
appreci
26
800
ehe
echten
jungs
mund
wander
##det
##stab
wein
weird
verkehr
asia
##uchen
justice
events
##print
##ähle
sitzt
colors
gestern
raised
##zeichen
bezahlen
slowly
veröffentlicht
##wohner
intellect
hauptsächlich
vermutlich
fische
ghan
hur
pale
rätsel
satz
##talk
##eden
erster
##cked
##ffer
##ulen
vorbe
##endes
sculpt
lieber
handy
remote
tedtalk
fourth
identität
laufe
responsible
qualität
professional
lucky
wisdom
husband
bahn
cognitive
hängt
purs
rahmen
##ked
##ania
befe
soph
##iding
fried
compar
phosph
otherwise
previous
##steller
creatures
billions
besseren
capable
bildern
distance
unterschiedlichen
verbracht
mathematics
engineer
schwester
kapit
erhält
fields
portra
degree
mexico
leistung
##maschine
ancest
dicht
dinner
lob
pand
sister
##iffe
##rom
##unte
##ety
stone
erweit
meat
schnitt
gesetze
##änder
quote
geräte
humor
regul
recon
modelle
irgendetwas
accur
horr
leading
walls
transformation
sequence
übertragen
necessary
describe
wit
##ax
##pan
##anzie
anru
verte
everyday
scan
begins
speech
zurückzu
helps
names
erwartet
creation
virgin
motion
option
shares
kümmern
illustr
##ipped
opin
gefährlich
counter
adults
perspektive
gä
##ua
##mat
##laufen
##nes
##nissen
##asche
##lled
reprodu
zusch
##uments
##istischen
concent
steckt
drittel
traffic
adam
filter
importantly
##lands
matters
##holt
competition
bloß
dokument
ghana
rum
##macht
##car
sowie
sector
##ctive
##kton
destru
hergestellt
2009
accident
verhindern
##brauch
relevant
diabetes
36
bird
gay
lauf
round
tue
tast
ven
##pher
##col
##fisch
##atures
einst
rechn
geomet
##steigen
franz
##wechsel
chap
##zelle
ship
vorhand
kontext
betrifft
click
##aks
##ungskraft
liebl
gewisser
contact
letter
bits
##jekten
ecke
trained
avoid
advant
entirely
pengu
dimension
herausforderungen
statistics
seriously
erleb
vergleichen
separate
destroy
700
caught
mamm
pfe
wächst
##mission
##ws
##kehren
arms
exch
könnt
diam
##achtung
gehabt
##adel
finished
bewir
radik
##soft
##onym
multiple
reichen
auswahl
kürzlich
fis
trop
##kan
##inde
einsetzen
seat
repe
anatom
unw
##iern
##schule
##cting
##idents
testen
desire
worldwide
alleine
##meister
spring
economics
aktivität
städten
holding
deutsch
heimat
prototy
begeistert
texas
ameisen
opposite
independent
setzt
##aven
##mmer
##bahn
##cil
##aler
angew
##rale
##odes
##itete
kindheit
pock
gewicht
carol
verwend
leaving
falsche
##richtung
deeply
empower
galaxy
failure
##krieg
gerecht
konflikt
uganda
stanford
maus
vere
infin
stir
##destens
moves
bron
user
woher
obser
##ifically
##stellten
glaubt
interessieren
kurze
folge
##frist
karten
amazon
erstaunliche
morgens
soldaten
perfectly
motivation
normally
acceler
jon
mile
mütter
rou
tough
wood
##uen
##sinn
##yer
##stau
weder
##cell
fresh
chip
ausl
überle
brut
getö
prü
entschl
##ifik
host
195
plane
meters
welchen
instru
organic
bildschirm
verlangen
crime
gedanke
augenblick
schreibt
wesentlich
##point
gewebe
nutr
increasingly
dürfen
navig
authent
invisible
65
fiel
lou
tät
##orrow
einiger
beine
seed
##aming
nest
manh
interagieren
poster
quas
lied
hohe
childhood
erzähle
believed
absor
dreams
princi
##ützt
gesundheitsw
illusion
origami
tomorrow
verantwortlich
managed
eingesetzt
lady
require
molecule
janu
principles
bay
gap
zunehmen
##uert
##ress
##zü
##arr
bell
##unk
anfü
##amb
schimpan
heran
whenever
sugar
konsequen
arts
gewinn
anderem
parall
basiert
transplant
schla
schlimmer
##gewicht
yester
languages
laugh
##tended
consumption
verwandeln
institutionen
constantly
moleküle
display
bag
bob
bieten
cow
nutzt
ring
zimmer
##sa
##icon
##gebracht
##iment
##ckte
geschen
##artment
vors
proud
mögliche
driven
##samm
poten
studied
bestimmen
versuchten
gegenteil
dreh
review
existieren
egypt
majority
survival
journalist
baseball
intuition
concerned
telesc
32
95
kick
pin
vibr
wahre
##ris
##mord
##pid
union
erkrank
liqu
##ischt
defen
hate
tricks
grown
##plane
blow
##udes
bett
precise
autonom
2004
weißen
stuck
holen
theoret
surprise
dauert
1960
diskut
kompliziert
angesehen
erkenntnis
dolph
wahrnehmung
lieblings
28
aqu
lachen
lernt
pingu
wom
##ming
##cers
##stu
##asion
incent
verlie
unend
ungewöhn
era
ford
##agne
teuer
orient
steps
artific
resource
polar
befre
finanzie
generations
weißt
gefahr
##ständen
normalen
argue
oceans
insects
kaffee
praktisch
schönen
adopt
attempt
vorhanden
yesterday
bf
drag
pfer
rie
äg
##laden
##nü
##zig
##zil
##onie
input
##reif
toward
reag
unless
gehalten
##oles
##osc
grös
thinks
article
damage
produktion
monitor
string
pair
genauer
wissenschaftlichen
antar
opened
windows
volunte
microsoft
diagnost
limit
verbreiten
zugänglich
normale
##führung
organs
analysis
entsprechen
kalifornien
händen
häuser
kart
nannte
##tten
##mas
##bu
##lv
##water
asp
compared
##ologische
faith
load
schwimmen
kräfte
ziele
kurzen
absicht
attach
opening
airplane
discuss
##folge
##wärt
erwachsenen
##bewesen
electrical
principle
hidden
##afrika
derek
manhatt
categ
fiber
hir
riesen
wisst
##gro
##läss
##har
##atoren
tox
##icing
##enth
stoff
erled
schien
aufhören
sparen
##wegs
ausgest
exer
exists
trägt
##örper
evil
drin
quiet
empt
##werten
mindestens
simul
player
generationen
##beln
investition
chemik
voices
operating
organismen
fragten
inspiriert
##heimer
cycle
essential
collective
##möglichkeiten
grenze
individuen
tiefe
helden
warming
öffentlichkeit
pyram
getötet
gü
pages
rural
##aff
##fassung
##von
##star
toler
##etten
hack
reward
verzwe
gelesen
lebte
##illion
wars
##well
exhib
vorteil
brü
steuern
observ
1950
letters
brazil
factory
seitdem
reduzieren
followed
digitalen
spezial
european
entert
erscheinen
wearing
##ributed
martin
pandem
bone
hen
lunch
opfer
witz
##pass
##orter
##ords
soil
spin
novel
nobel
planning
interaction
geschm
##ändert
##ifying
dran
##acle
landschaft
erfinden
##schlä
leaves
antwor
hilfs
continent
verbindet
dimensions
##swert
##skop
bekamen
europä
debate
geheimnis
verfügbar
grandmother
hollywood
rab
zog
##ihen
##ties
##oh
##bled
##cast
##zul
##fil
##icated
annehmen
esc
schiff
deinen
##eline
getr
dialog
glo
musst
weltraum
clock
##lied
##fügen
193
20th
##ordin
explan
viren
mothers
heads
kriegen
erkannte
higgs
effektiv
caused
überrascht
filled
unterscheiden
employe
diplomat
weapons
verteid
quasi
manhattan
battle
dick
gates
pounds
##di
##vention
behalten
weather
##uries
whom
anthrop
meiste
abgesch
ausgeb
##anta
saf
shoes
steel
prime
willi
interaktion
##ardo
failed
marri
starten
starke
minim
sitz
belief
cortex
harder
curious
investig
120
entwickelte
komplexe
highest
galaxies
saturn
zeichen
femin
skept
breath
gehirne
polizei
advantage
liquid
divid
pink
##tausen
##blichkeit
##pern
##hält
##stimm
##isierten
##lett
##igsten
##geber
lebewesen
enable
übersch
grid
compare
##hnten
advert
experts
informations
schlau
brauche
setting
##versor
succeed
paying
fantastisch
circum
oxford
ordinary
verschwinden
überein
laser
kenya
inneren
mentioned
grundlegende
consequences
mittleren
parallel
athe
pure
##zial
##fish
##vit
##ancy
angenommen
ungleich
lehren
aufbauen
worried
chart
##osing
überprü
##igend
grö
zell
bras
brachten
seele
dry
elemente
brauchten
corruption
garten
öffentliche
tempor
closed
stimul
forscher
netzwerke
bemerkt
persönlich
unbek
anwenden
spannen
shapes
document
vertraut
dot
gand
hu
##gas
##passt
##zunehmen
einheit
zuge
geste
##ologe
daily
mak
contem
vorne
wobei
zeitalter
##inning
arbeiteten
##stellungen
designing
##bares
krise
2001
schlechten
gestorben
losing
classroom
equivalent
microsc
medizinische
limited
galaxien
copy
expression
currently
sauber
crowd
vehicle
dinosaurier
library
fängt
mam
nationen
pill
##gers
##zed
init
##ault
doktor
##ationale
manife
##ischem
viet
##schaut
komm
perce
aging
zweck
hoffen
puts
2006
feelings
sucht
standards
politiker
attract
colon
army
electro
radical
emotionen
equal
illness
##ächtnis
moderne
drawing
snow
teenager
täglich
korea
heavy
##modell
vagina
entspricht
bare
ew
wuchs
##da
##fern
##val
##kor
##kins
##kont
##aschen
##isf
##testen
ants
##acher
verblü
alz
schick
##illed
platt
muscle
disaster
##werden
solch
bekäm
parte
smith
##fält
wave
ansicht
kooper
stupid
brothers
possibilities
businesses
valu
japanese
persönlichen
persönliche
layer
leadership
aufregend
covered
chemicals
##gruppe
bewegungen
##wissenschaft
described
grafik
phosphor
bos
cosm
lass
rene
##iors
##lines
##auben
##gene
canada
suit
scene
agre
technical
drüben
##aked
müsste
poly
eleph
2003
gegensatz
beschrän
invited
schaden
streit
attra
leader
##struktur
suppose
cambr
preser
lux
traditionellen
equip
##itzer
fuhr
negot
emerging
elektrizität
schaute
neighborhood
bruder
artificial
due
dutzen
pow
täu
tenden
##ode
##ähren
##onomen
diet
##reffen
weile
angesch
##idimens
##verb
abschluss
manage
##aged
nov
shall
vorfahren
bright
##ologischen
entstanden
poem
ließen
##flächen
entworfen
milch
signals
innovative
belong
holes
horse
assist
##ipping
geistes
convention
establ
dynamic
pilot
erscheint
battery
cartoon
entrepreneurs
abhängig
bietet
##punkte
alzheimer
earn
##mine
##bru
##care
thir
##ita
##orien
##rest
bees
##hrung
stad
##amt
schä
##umin
##esser
##osis
entgegen
hasn
bull
insul
solid
gehör
parent
smile
organized
beweise
gefahren
exped
distribution
unterschiedlich
evolutionary
privat
##minist
1990
northern
bezahlt
erklärung
britain
zeichnen
mountains
methoden
jahrzehnt
beinhal
lifet
fördern
emissions
horizont
gäbe
equipment
mall
tap
wra
##lös
##pte
##pet
##änen
##letz
wellen
##igem
stimm
ermut
schiz
heisst
aufgew
enzy
werbung
entschuld
betroffen
clip
cloth
married
hinten
command
factor
grundsätzlich
formul
wagen
beweis
thoughts
natürlichen
kreieren
##ography
movies
schwarzen
viruses
erlebt
strategy
auftau
regener
implic
paradox
##stream
prototyp
construction
associated
automob
verhältnis
recyc
pleasure
roughly
beantworten
zone
##ba
##bod
##hört
##fun
##vas
beet
ersetzen
##iminal
spoke
##iency
peer
lebenser
perman
taste
phones
kamp
importance
magn
joe
barr
keeping
treated
korallen
volk
appropr
##besch
zerstört
##resp
nervous
ath
bund
fif
ii
penn
tape
tony
vi
vessel
zahn
##aurs
##kul
##jem
##anen
##esch
##rete
weis
##urf
sov
##bewe
ens
##mented
überzeug
saved
##halts
flies
synd
großmutter
roh
producing
boom
bekom
halbe
wenigen
quelle
##ocol
schlagen
welchem
##ordnung
finish
spielte
beweisen
kochen
##stoffen
beschlossen
lessons
##ographie
buchsta
verdop
dealing
führungs
##bereich
surprised
zerstören
entdeckung
wolken
molecular
##mäßig
effizient
nützlich
schimpansen
dach
gore
homes
kb
passt
tes
##mitt
##äne
soviel
anteil
##bell
heir
imper
mangel
aspekt
maint
wurzel
acqu
hinsicht
roy
metal
schock
stufe
coral
neuron
ruh
besondere
killing
department
fantas
##liothe
kulturen
kerl
intellekt
launched
australia
jüng
cultures
sophistic
gesundheitswesen
bip
kenn
mama
tons
##ost
##ek
##hab
##wich
##wagen
##otic
lebten
fürs
feind
howard
vieler
studieren
irr
sites
irgendjem
proteins
heißen
chemistry
verbrachte
definieren
advanced
soldiers
mexiko
##fähigkeit
trials
trends
schrecklich
gespielt
notwendig
furcht
jose
lam
oct
zäh
##äger
##atter
toten
sow
reaction
verteilt
aufgebaut
spont
steigt
subs
konfront
flag
##ipe
##akte
marine
irre
miner
anspr
beschl
protection
architekten
effectively
fähig
wohlstand
wichtigen
laboratory
fälle
vögel
##kreis
awful
medikament
announ
dinosaurs
existence
democratic
survey
maxim
setzte
gemeinden
kitchen
cous
fue
rates
zählen
##uum
##nimmt
##fig
##üse
##eres
##anthrop
ing
##sey
repar
reef
zusätz
stro
verschl
##ophren
aufs
##lyn
enem
teeth
##oses
hadn
perception
script
##gerät
systemat
rote
##hai
##utzung
zieht
beispielsweise
chemie
##ancen
korruption
beobachtet
consumer
practical
blocks
##theit
aufzubauen
beschäftigen
spectrum
zivilisation
gespräch
comfortable
digitale
techniques
unex
kilometers
chemikalien
renew
schizophren
kosm
pc
##muster
##för
##erten
##ati
##itik
##rehen
beina
beibr
##ura
rechen
stood
vergröß
vermitteln
geändert
##rain
##sens
prove
proport
##aging
chain
ausmaß
maps
users
##izer
wirkliche
besessen
begle
embar
##fluss
##aled
metall
treten
explod
wirtschaftlichen
vote
advent
silicon
bereiche
untersucht
photographs
übrig
define
ernsthaft
sweet
nachbarn
gravity
geräusch
initiative
germany
illegal
nötig
geschlecht
intellectual
empty
safety
cambridge
beinahe
aston
eu
lager
mim
rief
tall
italien
zuzu
anre
anonym
##ierungs
##ola
##hler
theme
##place
komment
whereas
admit
191
gehören
gebeten
transfer
court
belieb
##gedacht
researchers
ledig
sicherheits
property
mistakes
##äusern
unabhängig
relatively
pacific
florida
newspaper
affected
valuable
agend
atem
bug
cast
dots
hun
hut
jim
ky
pad
sources
tonnen
##uhr
##ville
##onic
##itiv
underne
wetter
austau
stun
erstellt
##ierer
lektion
##ktions
orbit
febru
darstellen
konkur
selbstverständ
contain
gehol
##pielen
schlaf
films
gefallen
erwart
viertel
schlechter
ähnliche
synch
galaxie
satisf
homo
veröffentlich
explosion
mortality
opinion
ägyp
henry
lediglich
underneath
85
dum
fein
phr
##greifen
##rative
##bas
##burg
##nungs
##zähl
##style
##rechte
##unken
sonder
stücke
##gelt
verab
lee
proto
##ushing
##west
peak
träume
willst
##auspiel
##ifer
scen
##phones
##acters
calling
##iogen
characters
invention
##losigkeit
jedenfalls
ungehe
verknü
westlichen
mathematical
cutting
picked
encoun
bevölker
selling
faszinierend
australien
besuchen
säug
existenz
erwähnt
entwicklungsländern
phantom
fed
hob
hindern
kateg
vit
zauber
##mor
##bage
##hne
##vo
##ßt
beer
##bers
erhe
spider
ums
notes
shad
##asten
steuer
blät
scann
##lieben
besche
pool
diss
ends
administ
##gesell
solange
elimin
gegenwart
specifically
protest
chef
feststellen
##ließt
linear
gottes
assign
multi
silk
pflege
suggests
junger
arrived
intuitive
clinical
positiv
##amerika
stammt
beeindruck
tsun
deeper
piano
antibiot
französ
marriage
33
boo
biz
dome
feder
##hh
##war
thro
inhalt
anhand
##otten
##bern
##indungen
gegend
spät
ausser
##iban
fewer
fehlen
musical
geschickt
wirkung
zweif
erfindung
broke
folie
risks
processes
verschm
linked
soul
süß
nukle
verbessert
primary
occup
statistiken
considered
stärker
innere
restaurants
burning
epidemic
lustig
effizien
gefällt
veranst
struggle
exchange
cents
ped
##gment
##hö
##fassen
##anze
##telt
unit
schen
wieviel
orange
##iences
wissens
buying
arbeiter
müssten
##haften
computing
generate
##inson
centers
urs
controlled
sharks
linien
##fordert
discussion
verring
southern
##besond
überrasch
hallu
entdeckte
diskussion
mistake
experienced
maßstab
widerstand
efficiency
bemerkens
berührt
quantum
convinced
employees
lifetime
gree
jes
pause
singen
wahn
##ole
##bieten
##arre
##ician
eric
schätzen
aufnahme
überlegen
nachts
##ending
unterrichten
unterhaltung
coca
mirror
##lief
##flug
insbesond
verbrechen
sms
waves
players
verlust
naturally
gelöst
courage
testing
reput
identify
webseite
spezif
dunkle
eastern
internationalen
awaren
metapher
ladies
capture
odd
erneuer
hydrogen
components
destruction
##versorgung
circumst
irgendjemand
agenda
awareness
credit
hans
jac
mi
mt
pion
pum
tanzen
##zi
##ini
refer
style
former
lift
goals
##weile
chimpan
##önt
congress
plans
vorzu
herren
steven
blieb
scott
club
enden
##äuse
simulation
##teln
surf
langer
farmer
generally
weiße
stuhl
folks
folgende
stream
radiation
rub
psychiat
environments
horm
verhand
bereichen
diagramm
hallo
promise
##schrän
##schritte
##fähig
romant
speziell
wüste
grünen
convince
akzeptieren
graduate
poetry
axis
sentence
äußerst
synchron
chimpanze
ded
wired
##karte
##atar
##itern
eink
##etzen
sowas
seid
##icious
stere
expected
umgeben
menschlicher
facing
führer
pregn
solcher
berichten
director
##gehend
risiken
typically
wirtschafts
religions
schwierigkeiten
erlaub
variety
großartigen
##osphäre
added
dimensionen
replace
versteht
pfund
blogs
durchschnittliche
echtzeit
doppel
erwachsene
introduced
determin
##würd
##gründet
houses
bibliothe
erlebnis
deutschland
buchstaben
insbesondere
dumm
gle
gain
hing
hits
ram
##raten
##bors
##eit
##ched
##ani
##isa
eindeut
bedenken
zuhören
alters
dogs
##herr
shut
vorzustellen
brian
hierher
darunter
entstand
mehrheit
driver
momente
##klen
physi
gemeinsame
hardware
definitely
fingers
senses
discipl
ultra
circuit
kabel
##fahrt
carrying
afrikanischen
introduce
gebraucht
grosse
vermeiden
encourage
vulnerable
beschloss
apr
tab
wine
##dam
##wing
##jo
##enk
##ching
##esie
##ario
anerk
schauspiel
mitarbeiter
deser
noten
trillion
conver
grie
nachden
##issenschaft
newton
marke
damen
##bles
erzie
serve
skulpt
politicians
sett
betrachte
staats
topic
unglaublichen
eingel
##osphere
stattf
connections
explains
enorme
sample
taliban
mittler
represents
engagement
regierungs
unterstützt
spektrum
official
vorhersagen
##reibung
sophisticated
dut
hurt
rang
rio
##ader
##lock
##wenden
##zipl
##itals
##ichern
##igar
sees
anger
anstelle
##schwe
schatten
height
abra
##cel
liked
teuf
worauf
atoms
amate
wofür
entrop
blauen
obst
scrat
drauf
besitzt
pole
##athers
personally
##äufer
grundle
folgt
##gewalt
signale
cola
##nahm
freundin
gesichter
sending
pollution
gelebt
verwandelt
implant
collaboration
transparent
zitat
bauten
geographic
##entwic
buddh
roof
beinhaltet
fiction
kath
mandel
vot
##die
##fle
##ichert
einiges
##leib
##rooms
unus
legt
##uses
spo
grat
konserv
blatt
lebenden
fakten
##mehr
##werken
adj
##barer
##gling
##neten
langweil
wake
veränderte
brow
##imming
staff
curve
swim
rufen
situations
situationen
kriegs
behaviors
medizinischen
akadem
stephen
1980
strategie
präsentation
molekül
exploration
grüne
received
anwendung
allgemeinen
##üstung
bedürfnisse
framework
channel
exercise
entertain
lic
tick
upper
##kular
##inas
##orient
##isationen
##ctic
schicks
forced
aspe
exec
##ikes
##artige
diver
kannte
kongress
mush
pharm
goods
solved
freien
bekannten
strang
jazz
applied
wahrnehmen
momentan
sla
brook
carefully
ego
kümmer
achse
gesichts
begren
pulled
21st
palä
doubt
properties
tracking
birthday
kombination
interpretation
ipod
lächeln
kontinent
quarter
schlafen
expedition
ingred
fi
jam
josh
ohren
sides
twe
##toc
##ng
##inted
##sex
seht
reven
##iler
error
gelie
leon
umfeld
übernehmen
grippe
genü
##iertes
willen
blumen
faktor
worlds
reson
prefer
realen
facts
lake
garage
anfing
##lson
ruf
psychology
watched
location
koran
moralische
dropped
sandwich
presentation
fernseh
rocket
spiritual
lokalen
inevit
ergibt
überraschend
wireless
prepared
ernährung
vaccine
ancestors
konsequenzen
insulin
selbstverständlich
unusual
achten
honey
rout
##uk
##yan
##inter
##asste
##ored
##see
##seins
haar
soweit
seh
stahl
##ierungen
geor
gegründet
##bevöl
ausgeben
##ikations
shame
##ueller
mengen
brücke
genius
feature
menschliches
interessen
zeitung
##qualität
einfaches
prec
lieb
technological
roots
grain
regard
weiterer
beschreibt
kurs
löcher
kreuz
besseres
movements
philanthrop
lincol
verstehe
enthält
requires
leistungs
passionate
überwinden
speziellen
laptops
oxytoc
##itarian
puzzle
embrace
gegenseitig
erweitern
april
aer
astro
böse
cath
gulf
pizz
rö
rose
tib
##uits
##zing
##fir
sech
rezept
stern
##gence
##kehrt
##vermögen
##opy
woran
##erson
defe
##abol
überqu
trinken
wovon
nathan
##werfen
elef
langfrist
afrikas
##rix
##ffekt
termin
visible
runs
bedarf
erinnerung
wondering
korre
süden
internationale
meme
bottle
zentr
sequenz
stärke
critic
depends
ridic
cooking
mcd
shaped
verstär
ursprünglich
##bilden
schritte
##ihad
größen
jesus
dow
jane
lügen
ras
völ
##ras
##appen
##part
##dp
##netz
##wesen
##igern
##roll
anze
unmittel
##schrift
meister
leiten
aufnehmen
##umines
arist
sav
vorder
##osex
fake
geschw
##ught
mini
benj
krä
percentage
interests
collapse
eigent
##ängst
options
trocken
verdient
baute
programme
deta
confidence
diagram
footprint
aussage
mikroben
gemeinsamen
release
kanada
dieselben
symmetr
dauerte
ingenieur
konflik
encourag
gekauft
##burgh
manufacturing
spüren
severe
claim
bronx
tsunami
lincoln
55
bicy
gur
iv
ought
pump
##vation
##ühen
##ender
##erie
##stimmen
##ammen
##tense
verhe
unfall
ert
##keys
probe
##illing
tri
shang
##utete
output
entfer
##obi
geschlossen
aftern
clay
overw
gewin
teilweise
solving
##pest
zwang
factors
##ternal
##zentrum
skill
asks
##stoßen
storyte
gemeinschaften
healthcare
cameras
höre
nähr
innovations
fortschritte
##box
internal
taschen
persönlichkeit
ozeane
violent
instruments
hühn
songs
traveling
mosquit
##probieren
dramatic
stammzellen
threaten
##gruppen
length
kirche
fokus
zoom
fabrik
wettbewerb
fisher
explanation
oxytocin
entfernen
gdp
nick
rb
ride
tack
vital
##alem
##osen
##zust
##urm
anh
unkn
imit
##istent
##isters
ausges
voran
##forschung
##ruh
indic
gewö
gericht
gray
paras
remo
farb
##jected
biologische
perfekte
sensor
literature
reached
fundamentally
fahrrad
hospitals
combination
mittag
tiefen
prinzipien
neighbors
satellite
surgeon
weltweiten
bubble
penguins
gerechtigkeit
geschmack
##bevölkerung
cards
fingen
hong
rig
##lings
##wä
##ziel
inher
andrew
reverse
##rogen
anschein
sternen
schme
schäd
##ckten
##opath
##stel
##ulse
trig
plot
scar
resc
quer
handle
##athan
transc
##klär
falling
creature
ansieht
##stock
senden
dreie
erwä
gedicht
angiogen
keeps
religionen
shark
##boden
concert
sunlight
johnson
mittels
behavioral
verbreitung
konzentriert
meaningful
transportation
infected
hoping
erhöhen
##iosity
flücht
##jährigen
manipul
##leistungen
virginia
telescope
overwhel
cas
furn
fishing
jet
kond
pm
äuß
äng
##ippen
##ttern
##oe
##piegel
##vable
##inction
##ieben
##ata
inzwischen
##reht
weak
##unate
##emen
##hrte
schalt
##iday
##verhalten
aufnahmen
abh
##lying
sper
##agers
unsicher
worum
comics
ausbre
atmen
demograph
hierarch
feyn
dilem
unterricht
clou
##akers
##ungssystem
embed
glaubte
##sterben
biol
regionen
bestät
quellen
county
springen
##pfung
corresp
stret
milk
existing
closely
wertvoll
meetings
kostenlos
untersuchung
limb
mikroskop
##schriften
interactive
verschwunden
erdbe
kenia
überwält
##ausend
epidemie
therapy
electronic
behaupten
##entiell
diagnose
fokuss
conservation
season
split
august
rapidly
kapitel
brasilien
bekomme
unexpected
geholfen
encounter
bevölkerungs
cure
cub
günst
kos
lens
misch
nir
ost
okt
rush
räume
sight
tam
##gie
##gant
##oons
##bir
##ket
##kung
##ency
##itution
##orous
ink
##rechn
##achs
##achel
##schau
##agon
ausgel
##zepte
##iveau
##hlend
stehe
compl
kevin
shell
lifestyle
gebiete
bene
zusammenzu
formed
sets
joke
harvest
architects
musiker
wirtschaftliche
wenigstens
educational
defined
eggs
küste
memor
fährt
logic
amounts
interessantes
tausenden
südafrika
recorded
islands
irgendeine
##freund
vorstellungskraft
grossen
ereignis
empathy
astero
weihn
erweiter
shanghai
afternoon
hook
lying
mand
nase
rennen
tube
veter
wüs
##daten
##not
##het
##karten
##stieg
##iture
##tele
beige
##igste
##uther
anget
alien
##ima
schüt
nelson
##opf
aufgere
spann
extens
trug
outcome
features
meinte
actions
clint
aggress
dress
drücken
disp
teilt
2050
decline
powered
slides
bericht
standen
cricket
erwär
hunde
singing
presse
proteine
protected
innovationen
resultat
schwieriger
sensitive
literatur
depth
increased
microbes
aktivitäten
##design
nebenbei
sichtbar
stronger
enthus
demonstration
verursachen
batterie
armee
dahinter
satelliten
occurred
geräusche
fifth
##bewegung
reputation
mittlerweile
feynman
bol
eier
eisen
kogn
rönt
##can
##kind
##üm
##inkt
##etische
whist
##roph
anschaut
##gegeben
melt
schätz
manchen
manager
button
comment
##ppy
gramm
##apie
amy
##rucken
betreiben
vieles
drives
zweimal
##acing
hinunter
##hagen
schwere
2002
ears
##projekt
##ographer
magie
kurve
gedächtnis
erinnerungen
wundervoll
swimming
##krise
younger
##hof
productive
verglichen
##älde
chinesische
concrete
inspirieren
deaths
zentral
mechanical
occasion
2011
zerstörung
kollekt
tiefer
tonight
engaged
##staat
narrative
liefern
activities
authority
physikal
abstract
climb
conclusion
schuhe
accurate
horrible
route
##stuhl
aufgewachsen
beibringen
circumstances
pizza
fox
hide
jones
lungen
mere
ng
till
zü
##greg
##täu
##time
##material
##linge
##fach
##kungen
##yers
##stät
annahme
stap
##identen
##verbrauch
lebe
immen
vorteile
##zenz
intim
acting
##ätzt
unteren
vielmehr
clar
resil
loop
besagt
versagen
marken
basierend
guard
beschrieben
physiker
streben
economist
economists
funding
##quelle
operate
raw
classic
ernähren
##issed
truck
include
combined
sustainability
froh
sonnenlicht
fasziniert
detect
automatisch
technique
hawai
gentlemen
ritual
zuschauer
pocket
geschenk
globe
lebenserwart
kampagne
embarr
dien
dör
eb
kalt
roman
skl
treiben
##ae
##mi
##pie
##nommen
##hst
##vent
##üglich
##energie
intense
##ismen
##ema
dens
aufbau
enl
##thur
##weite
chop
ausger
dargestellt
##plätze
betrieben
durchführen
wherever
gewählt
adm
functions
paz
queen
welten
grundlage
##prof
verlang
irgendwel
dreidimens
glücklicher
curiosity
##aktor
draht
volume
komplexen
anstren
kreativen
feeding
führten
football
bezüglich
performing
released
measured
recording
combine
palm
mosk
jahrzehnten
algorithms
geburtstag
applications
besorgt
paradigm
defense
vietnam
clothes
appropriate
astonishing
überraschung
abraham
entertainment
benjamin
clouds
29
ate
coo
nadel
##eben
##onald
##ingly
bezeichnet
bezeichnen
##urer
##icip
##schre
##indert
##cking
##opter
chancen
ausr
ausgew
umher
nose
plate
##hlten
nachgedacht
darstellt
gemüse
root
underwater
zusammenarbeiten
election
biote
tatsäch
regions
regime
guide
kameras
records
larry
##arbeitung
signs
neurow
##kräfte
killer
treating
organisieren
erkannt
gesamt
challenging
multipl
transformed
copyr
weshalb
##winkel
##abilities
roads
estim
romantic
subjects
##kosten
lokale
bemerkenswert
älteren
participate
ingenieure
vorstellungen
umzugehen
involv
angriff
phrase
blätter
eindeutig
genügend
röntgen
cens
fung
hieß
icon
lg
lung
mike
rod
sed
tort
ält
##gibt
##rieren
##fragen
thin
##techn
##igungen
section
refr
stäm
verur
verschie
wash
formal
sphere
##agnet
##artig
knock
intuit
glad
unterhalt
fläche
##brü
hinauf
bekannte
erfinder
remain
writer
daniel
centuries
billionen
expans
physically
##iums
airport
wunderbaren
border
wohlbe
belast
schwierige
messages
scheinbar
jahrhunder
explained
bemerkte
krankenh
folgenden
enthü
concepts
erforscht
frankly
jener
schmerzen
vertrau
lokal
wachstums
susp
nachhaltigkeit
außergewöhnlich
grundlegenden
märkte
component
shirt
accompl
weisheit
wahnsinn
eingeladen
ältere
hipp
ooh
pir
rak
rwand
wing
##right
beute
bezahl
zusätzlich
alb
neither
spenden
##artigen
lebendig
indones
durchzu
evening
monkeys
contrib
192
19th
minus
bibel
remains
1000
corn
##ikaner
processing
hybr
offenen
offenbar
delhi
sorge
collected
memories
hoffnungs
##geme
töd
philosop
elektrische
flowers
philosophy
bonob
seltsame
influen
##pflanzen
continued
mystery
flügel
printing
##oberfläche
##leistung
entfernung
bibliothek
völker
unknown
biolumines
aufgeregt
bern
bath
bones
dame
fet
jur
lit
tenn
wings
##frage
##erer
thick
toy
beachten
##allow
schicht
##iders
pros
voneinander
abfall
dozen
mitnehmen
chief
champ
ausstellung
##iene
##uted
knapp
acts
ages
##samen
marath
klav
paraly
bike
statement
dancing
##reiche
robust
busy
animation
##drück
höhere
biologischen
karik
rooms
##ooth
repair
operations
institut
reference
eingeführt
grandf
fantastische
städt
collection
villages
bomben
langsamer
jahrzehnte
selection
blaue
präz
wechseln
##bücher
presence
potenzial
conventional
48
gam
nom
watt
##abe
##avor
##bot
##kür
##ona
##ari
einstellung
einschrän
weigh
derselben
dense
neander
##opes
abwe
comic
ausgesetzt
deploy
heroes
##elte
##izie
interf
interakt
untersch
##gren
##ifiz
gemälde
starben
##gesamt
polic
##ishment
parking
herausf
relate
computern
generated
stands
##ünden
correl
##legenheiten
angeht
radi
ruhe
figures
wondered
falten
falschen
##unternehmen
##älte
variation
largely
advice
dirty
title
mechanism
depress
abente
enthalten
drucker
kingdom
##comput
nigerian
erhöht
höchst
kolon
begegnen
unwahr
pinguine
womit
mandela
schicksal
lebenserwartung
copyright
neanderth
350
cup
dv
dust
hub
jh
uh
##grad
##uc
##rus
##ria
##bm
##itors
##esign
##esome
##irat
wirken
rebu
stür
##ila
vergewalt
alarm
gezogen
##bekommen
##opol
liver
tee
##menge
chocol
##neiden
darstellung
somewh
prices
kompr
##örungen
##seln
beenden
planen
elev
transist
serie
##iox
visuelle
seti
glücklicherweise
rett
symph
angem
fortune
definiert
lego
surely
equation
genetische
inspiring
##etti
friendly
awesome
##person
##preis
entdeckungen
deiner
doppelt
jährige
verfolgt
liberal
determine
vehicles
lächer
murder
##probleme
neutral
infinite
joseph
##förm
##gesellschaft
clinton
somewhat
bond
cod
cash
candid
hielten
##rome
##räume
##affen
##messer
##nügen
##öser
##vater
##kö
##kap
##kultur
##ährt
##ült
##arian
##omagnet
stack
##schicht
gefl
##behör
##umente
##ffiz
##derm
frö
france
comedy
chips
dest
gender
outc
fehlt
intention
kindes
##reift
traged
millenn
buck
dish
kleidung
adoles
landen
gebrochen
decre
letzter
verlauf
gefol
funktionierte
##ails
nahen
schönes
distr
yorker
papers
##geschwindigkeit
boring
reduziert
flew
erhielt
##linie
instrumente
stärk
required
nutzung
interviews
causing
algorithm
judge
clinic
wünschte
berühmt
paintings
celebrate
simplicity
resistance
asteroid
beteiligt
obsessed
portrait
scratch
grundlegend
aspekte
erdbeben
aktion
ech
fusion
hip
jag
jell
nin
nannten
rut
wise
ära
##läuft
##nütz
##anes
beam
##urance
angene
##hrten
verz
unclear
##usions
tea
##istics
shake
moore
##orest
griff
zeigten
intr
herein
enttäu
indischen
quanten
##üssen
lets
##aufnahme
metabol
zwanz
schlussen
elite
organism
##gebiet
wright
owners
verliert
ski
berück
explo
gelang
schnee
richtungen
psychologie
hinterlassen
mathematiker
potentially
vergnügen
##älter
audio
schulter
anzusehen
genetischen
highl
kreative
intervention
consumers
leichter
directions
latest
kontrolliert
sonnensystem
debatte
conversations
hinzufügen
winzig
entrepreneur
kaufte
appreciate
zunehmend
divided
##lösung
implications
permanent
schlussendlich
agency
dienen
diction
hängen
os
pier
salt
tiger
tja
##bly
##pear
##cons
##fung
##kette
##ähn
##jahr
##qually
##esity
##leton
beun
##icide
zufall
unvor
##imine
scham
spons
asien
ausgang
umgang
##iessen
machst
glüh
unterwegs
geschäfte
obesity
agent
##reibe
##mechan
trafen
zeitraum
diszipl
insgesamt
klug
malen
##ärm
##oking
schwanger
shoulder
slums
olds
beru
berlin
jewe
particle
colum
retro
stoppen
hilf
musikal
wirtschaftsw
molekular
##ynth
arguments
knee
crack
greenhouse
eingehen
anstieg
connecting
logik
breaking
70s
boxes
depending
scheitern
breathe
spezielle
##deln
schauten
##conne
synthetic
erneut
##jährige
victims
emissionen
##entwick
alltä
klassenzimmer
witness
chapter
gandhi
bekämpfen
bosn
bundes
ägypten
spoken
licen
beunruh
eve
equally
gib
gast
gip
nit
por
woo
ört
##uals
##lager
##dienst
##nern
##kat
##yon
##ora
einrichtungen
wem
##uting
##ettet
whales
anpassen
##gefä
unre
##schm
mega
schild
allgeme
lew
abund
##ffin
##illa
chose
gesetzt
##iking
shakes
kinders
unterr
##ielen
flower
techniken
resolution
##acles
march
embr
starken
parks
helium
finance
bedeutete
billig
interessanten
charity
wichtiges
matrix
##mittelt
garant
##frau
ländlichen
besonderen
false
existed
identical
##zeichnungen
60s
bauch
twenty
chinesen
moralischen
ähnliches
ethiop
gebäuden
reihen
merken
ärm
hörten
arabischen
letztlich
constant
russia
exploring
nachbarschaft
transparency
housing
dolphins
konfrontiert
säuget
37
38
dign
elder
lä
pour
session
sque
##cal
bewer
##utze
##icit
##entions
##aust
##achter
desk
vorwärts
genießen
feiern
##schaffen
kong
kommer
flip
flächen
##griff
score
scared
selbe
dring
sheep
persu
mary
##gespr
carried
##ints
autism
schlägt
eigenschaft
export
wasserstoff
lovely
grows
careful
breed
##ragung
presc
nett
walks
accum
distributed
##aneously
allowing
legit
krieges
classes
niemanden
balloon
beobachte
unbelie
versteckt
nationale
christmas
metaph
1970
attacks
schaue
präsentiert
berühren
afrikaner
symmetry
magnetic
##ecd
diplom
impress
presented
verrückte
disorder
verwendung
william
microscope
recycling
furniture
embedded
grandfather
jelly
hmm
rent
##ifen
##iable
##mod
##lers
##dach
##igungs
anx
stab
##gener
##rah
leuchten
heilen
dood
frighten
extend
##ado
umständen
desper
zehnt
nowhere
ours
##ansas
everest
millimeter
beseit
happier
gemessen
hinblick
systemen
monkey
download
smoke
schlacht
africans
gegenwärt
extinct
##penden
sket
gelassen
jew
##örtlich
columb
earthqu
distant
öffnet
fliege
küche
programmieren
kaputt
führung
tasman
kommunikations
optimistic
accessible
stayed
emergency
##zwungen
jenseits
fabric
hello
nano
council
algorithmen
apartment
divide
bedrohung
inseln
uncertain
commitment
alphabet
mitglieder
wunderschöne
habitat
abgesehen
sculpture
absorb
advertising
plattform
zähne
fuels
bizarre
adjust
anscheinend
beigebracht
karikatur
31
72
ast
ara
dict
loud
pitt
##oz
##frei
##30
##chair
##oned
weisen
##seher
##eda
##veled
##gewe
uncom
wass
##imet
schach
schok
heben
neigen
späten
arthur
##abr
plug
vorschlag
knie
##ahnen
lebend
faced
muskel
coch
mehreren
liefer
geruch
1900
##ichtete
offered
##sterblichkeit
writ
plays
berge
wissenschaftlern
economies
breit
tested
rising
erfolgs
kriege
craig
##uchtung
##oxide
dauern
##küste
bombs
skelet
translate
analyse
umfassen
einkommens
automatically
savings
drittens
mobiltele
versorgen
kulturelle
erfüllen
fettleib
privileg
application
populations
stiftung
disorders
vorbereitet
carolina
erkrankungen
incentives
toxic
getrennt
erwartungen
joshua
density
shakespear
46
47
bible
ero
jay
lon
mumb
ohr
voc
##cence
##ki
##stage
##anlage
inklus
##isl
beides
##urgen
zurecht
stil
verfahren
ergeben
albert
##alls
lecture
proben
##derung
##ktis
atomen
##uchtet
dazwischen
herself
kongo
lebende
flick
flash
betrieb
coin
scary
technischen
firm
begreifen
studiert
glaubten
grace
param
zurückge
remove
charlie
gemeinnütz
verschiedener
chest
interestingly
sahara
calc
painful
devast
productivity
entscheidend
chinesischen
##life
oberen
measuring
ethan
limits
##systeme
samen
elektrischen
islamic
spreading
frankreich
##krankheiten
arrang
besuchte
##bewusst
winzigen
höchsten
wünsche
drinking
kugel
atlantic
ereignisse
dramatically
consequence
flexible
komponenten
physicist
alpha
partnership
sogenannte
contrast
anruf
befreien
##tausende
vessels
wurzeln
zweifel
bicycle
rwanda
outcomes
ain
ack
bun
dsch
han
läng
nimm
sang
yield
##sl
##zus
##zahlen
tower
##leb
wirkt
anten
anste
sticks
##amine
##oto
erad
##lden
heaven
proced
prosth
##usive
ausmachen
##ads
übergang
übersetzen
congo
herange
herstellung
willkommen
wozu
beton
##prache
technische
poorest
einfachheit
gerettet
offizie
gebur
strö
biod
schweden
gleichgewicht
neuigkeiten
berechnen
suchte
joined
lighting
psychological
opposed
resultate
providing
silence
präsidenten
tasche
sichtweise
##brech
rollen
130
propag
##ografie
floating
vergangenen
empfinden
suffer
properly
ursprung
breathing
##bilder
erwähnen
symptoms
dunkelheit
katastrophe
surrounded
hindurch
wheelchair
szene
elephant
november
dilemma
rebuild
chocolate
akte
dys
fel
gän
kuh
