[PAD]
[UNK]
[CLS]
[SEP]
[MASK]
!
"
#
$
%
&
'
(
)
*
+
,
-
.
/
0
1
2
3
4
5
6
7
8
9
:
;
=
?
@
[
\
]
^
_
a
b
c
d
e
f
g
h
i
j
k
l
m
n
o
p
q
r
s
t
u
v
w
x
y
z
£
²
à
á
â
ã
ä
ç
è
é
ê
ë
í
ï
ñ
ó
ô
ö
ø
ú
ü
ā
ă
ć
ē
ť
ย
ร
อ
่
–
—
‘
“
”
…
€
你
葱
送
##n
##p
##r
##e
##c
##d
##t
##u
##l
##y
##i
##a
##g
##s
##o
##h
##k
##m
##v
##b
##z
##f
##q
##x
##8
##6
##7
##w
##j
##4
##5
##0
##á
##2
##3
##9
##1
##ê
##í
##ü
##ã
##ö
##é
##ó
##ô
##ย
##è
##ä
##ร
##ï
##ă
##ť
##ē
##ñ
##ç
##â
##ø
##ú
##à
##ć
##ā
##ë
th
the
##er
##in
##at
##nd
##ou
##re
and
##ing
##on
to
##en
##es
##an
of
in
##or
##al
##ed
##is
##it
##ar
that
you
##om
##as
wh
it
##ic
we
##le
##ll
##ow
is
be
##ly
##ut
##ve
##ion
##se
re
##ot
##et
##st
##ent
on
ha
##ct
this
##ld
##ay
so
st
##id
##ig
##ur
##ch
for
##ver
##ce
##op
they
##ke
an
was
do
##im
##ere
##ir
##am
li
go
##ith
are
##ro
##ally
with
he
se
##th
what
ab
have
can
but
as
##ad
##ol
mo
sh
##ter
##out
##ation
com
ne
wor
##ht
##ra
at
ch
there
about
me
##ould
not
all
##ill
##il
fr
##ant
##ge
##ul
##oo
ex
##ust
som
##est
de
##ers
or
my
pe
##ear
##ight
one
pro
con
##au
peop
##um
people
##art
bec
like
ma
##ure
##ck
##pp
if
from
##ess
##ate
##ive
##ity
##ies
kn
##ist
##ble
al
te
now
##if
tr
##ind
our
just
out
us
these
##ect
##ink
sp
know
##all
##ery
##ook
##od
##ause
##un
thing
en
##rou
when
##os
because
##us
see
up
##ie
them
who
how
very
##her
##and
think
pl
##ich
get
by
##ort
some
##ain
act
##ci
##og
year
int
##iv
going
ever
##el
im
sa
your
which
##one
tim
more
##ap
had
here
look
##ine
su
##em
would
##ame
ve
comp
##our
##ast
un
really
##gh
##ually
##ment
their
want
then
world
le
ta
##ous
were
##ard
work
##reat
##iz
##are
##act
way
##ack
##hing
every
no
##ence
than
per
time
##ose
has
##ans
don
exp
##ab
##ther
ev
man
qu
pr
actually
say
##ore
into
will
fe
where
##ace
ag
##ag
##ide
##fer
could
pre
co
##ong
##ild
things
##alk
##ions
##nt
##itt
years
somet
am
other
##age
did
##00
##ud
inter
well
tw
cl
af
ar
any
##nder
new
##ical
she
##ach
right
happ
make
##ss
been
##pt
po
said
##fe
dif
bu
start
res
something
over
need
dis
part
##ia
two
##so
fir
##ue
##own
##olog
##ree
imp
##ry
##ory
mu
first
back
##ip
lo
##ire
those
kind
call
##ice
##round
got
##ass
##ens
##ign
##orm
ph
##ite
his
talk
##ri
##sel
##ittle
little
differ
##ount
##ang
spe
also
ro
##ac
##ound
##ater
##ber
cont
much
most
des
ac
life
id
lot
##cent
##ult
##ves
ad
##qu
##ple
sy
under
bet
##ving
##way
even
##ff
##ody
##king
ind
only
##able
##vel
##ome
day
bl
##ep
##du
br
hum
##ght
##ated
good
take
her
let
##ations
##co
many
##ish
##ade
gr
em
does
##ick
##other
down
##rough
##ru
different
ide
through
show
##ph
##rain
##ood
real
around
put
sc
why
##int
##ms
##ict
##ase
comm
##ents
ll
may
##ell
##ial
being
##ance
##urn
tech
##pl
tell
##cess
gen
##ark
fl
use
thou
inc
great
come
##day
too
big
techn
##ak
##ange
##ary
sm
##ject
##form
car
##ath
proble
##ors
##wn
three
##ric
try
##ting
happen
same
##ob
off
wr
##lect
##ether
fact
##ower
##stem
##ful
human
doing
sur
count
##ual
##ning
pers
##ys
##xt
##ible
##ology
##ically
##ces
##iver
fo
##ile
##ib
child
##ved
gu
##illion
percent
sim
build
after
again
called
system
find
##ren
app
ear
##thing
##body
dec
##red
dr
##ons
stud
##fore
long
##ert
bas
##be
##ord
inv
##self
made
##igh
rem
col
##ious
##ics
##nds
today
inst
bel
##ition
##ating
own
ob
##av
should
design
quest
lear
op
play
sch
##ars
##ress
gl
##ft
##ian
##les
##oss
##cial
##te
##we
last
underst
bo
interest
import
rel
turn
##ize
sci
creat
thought
end
hel
cr
person
##ates
another
feel
ask
him
mean
cour
old
ins
its
thank
idea
brain
##ities
exper
wom
trans
didn
power
##ied
ke
fu
change
##ution
before
##con
important
cons
story
art
##ope
000
##als
went
exam
started
##ub
##ty
##ise
produ
mon
never
understand
give
##ool
imag
##ail
##ough
point
##gan
##kes
better
help
##atter
##ility
##erg
plan
sl
##ular
school
problem
found
course
sol
bit
##ction
belie
##ily
##pe
next
kid
sort
eng
might
##ists
cent
pol
ter
ok
each
fam
nat
technology
few
19
##ix
tog
##ather
together
still
ago
tra
med
ser
min
num
mod
able
came
##lic
##ense
##ward
high
four
water
ext
##velop
##oth
comple
place
commun
mus
develop
##ween
10
learn
##mo
hu
seco
between
##atch
##alth
##read
##ness
##ience
##ited
20
##eric
##ave
rec
fin
looking
question
love
##ines
mom
bi
used
met
dat
eff
expl
cre
small
##ures
gra
##ized
##iss
##cept
grow
americ
el
att
done
##ven
##iness
cell
comput
##ific
maybe
str
doesn
read
far
##ork
light
whole
example
partic
lar
##az
##ways
children
##ably
##ute
sk
##ced
move
data
##oney
million
##cy
rep
gener
care
less
wanted
cap
beh
project
afric
stu
##selves
building
word
##conom
##ote
war
##gr
econom
five
poss
live
##ative
##formation
bus
giv
##ets
book
trying
##ural
univer
chang
pres
second
health
##ross
away
everything
always
##ale
hard
working
believe
sub
##ird
##per
reas
money
supp
elect
ho
##cer
##aw
cor
doll
pict
women
hand
form
vis
##ger
country
space
energ
##ands
##nect
##gin
kids
open
##ational
food
prob
using
organ
##ments
##fect
teach
##ruct
mind
##air
##ract
sing
fut
run
information
took
means
##ism
anim
times
cou
##ah
energy
ent
number
##aces
thinking
fun
mark
resp
frie
pat
red
hal
create
future
##gg
char
##its
##led
home
bring
interesting
jo
##ries
##wh
spec
head
##aut
wo
process
making
earth
##ead
##vern
sense
val
left
best
cle
##hip
reg
acc
walk
gre
##ital
lead
become
govern
##ock
compan
quite
getting
##ks
##ues
##ten
200
enough
##ories
probably
set
intern
cur
##iew
comes
glob
##cover
##ention
month
cam
says
connect
half
##vir
grou
without
##ull
##iting
social
air
group
##cle
contro
##lf
pub
begin
talking
stuff
beaut
##ouse
##cus
##ew
##sw
sw
pie
##ner
##ogra
##ont
happened
hist
room
##ient
mar
body
##viron
keep
##ices
science
par
pass
environ
pop
add
share
phot
anything
dist
youn
dollars
pret
##ever
##olution
africa
answ
wonder
ty
eas
side
wee
coming
hour
else
top
pretty
##der
bad
six
prof
##duc
business
phys
moment
soci
##rib
##ember
sound
simple
##ety
makes
cult
hope
##ier
##ying
scient
such
lives
ey
##imate
mid
educ
ted
##me
living
music
sign
goes
##ne
##uring
##pr
across
bre
reason
city
job
##ts
stand
##ertain
model
global
##no
once
allow
imagine
told
##man
##earch
research
seen
mor
opp
saw
basically
aut
yet
##ograph
prot
countries
matter
effect
stop
inf
young
##ins
picture
wa
##llow
fig
##io
det
face
environment
okay
##res
##ince
##ash
##ided
mil
##ior
amaz
particular
yes
planet
while
case
che
ways
happens
experience
list
sit
mach
problems
remember
self
level
having
##most
lang
later
asked
billion
##ina
family
##ken
prop
pain
##irl
computer
days
vide
##ings
conf
##work
##ization
##iter
##aps
##where
##gs
inside
stre
rest
discover
langu
watch
rob
ideas
complete
##itive
##ott
nothing
certain
##ortun
vir
both
everybody
single
states
cost
almost
lab
##ots
def
thous
age
##ilt
sure
unt
##oc
answer
dev
mag
god
##ulation
class
##ready
whether
within
heart
polit
##imes
dire
test
contin
history
##ality
##ences
##ters
already
saying
sou
product
incred
wrong
girl
##orn
news
suc
oh
state
fil
net
##ank
fore
exc
possible
hear
##ape
##med
loc
looks
ge
nature
sec
dise
##na
cond
beautif
treat
##allen
50
##gram
##ron
30
##arent
##dle
men
##ivid
##ury
guy
##aterial
true
large
cells
100
di
##ivity
##ants
##osed
cancer
exact
amazing
##ling
heard
control
looked
engine
cal
kill
##vers
##utes
15
tre
often
##ield
government
mem
beautiful
program
someone
figure
law
challen
public
piece
oce
material
full
video
##br
##ndred
hundred
##pect
months
##lish
##nding
works
community
market
##ware
until
##den
built
must
aud
##ene
##ames
equ
deep
adv
instead
##less
line
##ases
myself
arch
cra
since
##ately
free
middle
##land
third
isn
pay
##vious
dra
order
ret
##ages
stories
united
words
sometimes
##ake
incre
india
universe
past
##oy
entire
somebody
individ
language
house
##side
##ps
iss
pos
##row
follow
##aper
night
ye
##atic
##ired
species
nor
abs
web
##ider
object
taking
couple
##ane
front
result
ass
av
land
ste
##tern
decided
mother
##get
places
green
education
##ives
##line
wind
experim
game
##ians
individual
train
##bers
mic
view
indust
##omes
rev
##oice
##ime
quick
internet
though
tool
const
kinds
##acter
rather
##etic
inno
struct
sun
exactly
##ined
ourselves
oil
step
##0s
success
close
mass
math
everyone
completely
complex
name
##ental
dig
bro
itself
deal
ris
wasn
har
themselves
fly
##cing
focus
turns
yeah
students
friends
hy
society
##ats
woman
bab
coll
huge
##aster
minutes
learned
company
##ional
behav
gets
became
##gest
along
##ogn
##ream
meet
team
happy
study
mot
ele
##cc
##ability
happening
##ond
ant
##urs
created
natural
animals
del
hours
##uck
cir
meas
rad
##ator
##ctor
present
clear
america
##haps
perhaps
##fic
##ision
dem
death
##istic
##rop
ple
ones
##itting
##ium
ref
knew
collect
invest
hold
bott
listen
norm
relations
##wards
##ared
guys
explain
univers
century
ocean
mill
won
liter
shows
##ush
disease
##ential
innov
cau
american
china
fund
##ption
es
##ming
extra
opportun
##lud
##sy
couldn
fre
speak
ra
expect
cut
against
gave
recent
dep
worked
black
based
ed
field
miss
##ibly
questions
seven
moving
oper
non
var
area
sens
##olved
pred
amount
oth
lots
early
network
takes
##ological
parent
super
others
mess
##face
prov
machine
eight
pot
##que
##ern
least
##ral
learning
##ones
finally
##ients
short
diffic
grand
arg
difficult
##ted
demo
during
obvious
##cul
##ature
neur
vi
interact
colle
##ither
patter
##ples
leg
bar
exist
eur
chr
outside
sym
systems
pattern
protect
bra
chem
##not
##ination
##ident
needs
typ
micro
appro
sum
##astic
jour
wonderful
scale
beginning
tem
culture
relationship
difference
taken
##aring
##ising
18
fish
trad
thousands
lau
york
##ides
maj
record
powerful
behavior
##inary
blue
yourself
dru
##ially
##att
image
hands
foot
##itect
seeing
##cious
center
architect
common
surpr
perform
behind
fail
ill
wall
whatever
given
##ully
12
##sych
##erv
evolution
turned
terms
democ
friend
population
break
##gress
##itions
spend
##ster
buy
##ency
instit
interested
eyes
rich
extre
lim
psych
perfect
consum
major
low
occ
pract
reach
##ented
parts
communic
support
##ges
##utions
##verage
sud
emb
audience
cy
fall
leave
emot
changed
size
impro
serv
easy
week
##ump
photograph
tot
##unch
longer
squ
##ton
##olute
media
ess
pen
feed
access
personal
absolute
win
##ply
##mer
local
sex
cannot
ap
cop
##app
##ret
simply
pick
south
eat
insp
paper
##els
direct
ground
##itch
europe
##aking
relig
40
began
##ode
##ource
dark
conv
economic
humans
famil
film
##osp
press
vers
surv
##fully
sent
##bo
stay
orig
needed
gone
poor
tried
##rought
##ler
##ison
##idence
father
ice
event
ident
includ
profess
enc
desc
civ
known
special
value
realized
mult
opt
technolog
##hor
either
##ule
white
##ledge
dream
ir
national
##ows
spent
situ
key
sudden
##ror
##ney
##ony
parents
dna
sea
mole
25
##up
##elt
rock
companies
bill
##ources
quickly
cities
dest
fast
ability
##iving
reality
structure
##gen
cool
recogn
incredible
sat
born
##ised
near
##izing
fire
##ouch
##ibility
extreme
##ains
wouldn
repres
electric
measure
sil
sitting
##ilar
feet
surface
##lt
##li
force
sever
obs
##avor
engineer
lost
vol
##arch
blood
growth
strong
hor
slow
caus
bene
brought
arm
serious
growing
##ged
robot
nice
##ators
consider
##ids
draw
fear
pull
forward
##anger
pur
stage
prin
##ument
nu
ur
##ively
dim
travel
weeks
viol
enter
compass
felt
medic
books
##room
opportunity
soft
mov
animal
##iny
knowledge
color
images
camer
street
hosp
modern
economy
bottom
predict
die
mal
sho
starting
phil
circ
technologies
stat
write
redu
north
##ipp
##inal
repl
wrote
changes
morning
civil
fight
approach
##ax
stra
##cially
climate
feeling
respons
political
##ustain
playing
hot
vill
anyone
developed
miles
ce
##end
requ
dead
tele
##ills
patients
experiment
##rent
compassion
##lu
##ford
##uth
conc
##ards
drop
average
##ances
box
gal
touch
##ivers
##zy
##aly
concept
pa
visual
mathem
##ny
areas
impact
patient
scientists
depe
similar
giving
##eter
comb
unf
##rodu
camp
challenge
##hood
theory
attention
##ister
sugg
priv
##acy
literally
suggest
##ero
##ades
seems
worth
revolution
sustain
spread
post
gives
tradition
ach
##ored
numbers
main
est
cars
sell
road
##ellig
development
##clear
tools
dou
fac
hun
sal
##entially
##ife
meaning
##amed
##ried
rul
##bs
intellig
crit
path
##he
ec
##ped
understanding
prom
ast
ult
shape
##ived
realize
term
movement
physical
ah
games
guess
recently
running
leaders
avail
absolutely
##old
##bon
express
affect
discovered
lay
except
nobody
poll
risk
##ove
hundreds
dan
english
wish
##vent
##oud
online
##ateg
compet
##ensive
developing
type
##ned
##asc
scre
millions
truth
phone
creating
alone
track
medical
eye
##par
soon
emp
telling
##yn
##iant
##ift
polic
hon
changing
current
##ging
knows
mount
rele
normal
er
##ified
##pecially
industry
especially
fur
favor
##apt
inde
flo
neg
bal
map
cover
anybody
generation
dimens
##to
##iod
seem
save
##ploy
produce
##ik
##bor
##ival
showed
girls
##por
period
digital
obviously
din
##ique
##aged
##ference
emerg
##asing
happiness
conscious
##urity
becomes
flow
transp
##inese
general
fundam
ball
##osph
available
##erm
among
speed
solution
aren
talked
writing
transform
baby
ep
innovation
sn
haven
##oph
incredibly
led
##ites
chinese
subject
issue
achie
fair
trust
bigger
smart
designed
boy
solar
link
nine
ox
neigh
##ishing
##ley
tiny
##ram
carbon
experi
please
rate
##yond
beyond
react
arr
199
bird
hig
solve
11
star
##ilities
syn
university
bacter
benef
eth
rid
drive
virus
device
situation
aw
lived
choice
farm
dom
##chan
##racy
text
flu
pictures
clean
tas
deg
table
extraord
sle
computers
joh
port
putting
sounds
bur
necess
choo
peace
resources
##bit
encou
rules
div
died
zero
##oices
lea
scientific
positive
##arily
defin
security
several
hit
##ban
##arr
##ased
asking
##ief
adm
involved
vision
west
##ished
reasons
east
lif
function
pu
##ops
chance
convers
schools
progress
imm
materials
gt
source
towards
office
gas
voice
##istan
skin
lt
grad
tells
virt
bed
##lict
##go
##ese
goog
vac
##ex
##ude
character
chemical
software
##ze
sold
evidence
prim
certainly
suddenly
##abor
effic
groups
passion
60
block
teachers
particularly
danger
song
report
projects
aware
##ma
##ify
issues
princi
##let
mechan
spir
basic
attack
further
breat
log
##xic
plant
##ously
john
quality
dam
##oring
action
minute
##str
##usion
##ips
##uly
##ffer
##oms
hospital
search
lad
##how
##irth
##cuss
##light
capt
fant
park
##po
##iar
clos
starts
indeed
fa
sequ
cross
hiv
anyway
thousand
square
bud
tend
##une
potential
complic
ready
##gn
##oming
safe
capital
check
son
##fort
##itten
brit
graph
exciting
nuclear
tom
##enom
stick
showing
biggest
examples
message
village
google
send
notice
everywhere
detail
college
totally
code
fem
conflict
journey
tar
##sc
democracy
hom
##ug
##by
student
sky
walking
connected
likely
trial
sand
isl
onto
doctor
labor
screen
##ring
moved
wants
movie
500
dav
##antly
carry
wait
##medi
vari
##book
##eth
##umb
moral
fill
page
cris
##augh
##ruction
burn
birth
##rast
##ext
##verty
door
poverty
medicine
extraordinary
store
creative
mathemat
offer
teacher
16
fix
##uit
interv
remark
extremely
##gth
imposs
##rible
perspect
##isions
##icle
mob
somehow
suffer
african
collabor
da
mist
##aur
threat
activ
##apan
grew
magic
deliver
fing
##ners
usually
older
meth
largest
objects
cit
cook
japan
mine
##itary
activity
prote
disapp
transl
magn
return
apart
cause
##oid
plants
##iction
crazy
camera
pan
##akes
supposed
separ
##rial
watching
trees
lose
mir
push
##use
##erve
gold
##aught
international
influ
##osphere
los
mars
pack
whe
waste
diag
eventually
named
##iger
context
account
jobs
author
continue
impossible
king
rain
wild
##ai
results
bank
sam
stru
print
appear
larger
improve
essentially
higher
sleep
san
somewhere
introdu
immedi
discuss
biology
buildings
organization
forest
electricity
galax
cat
mis
ang
goal
expert
adult
corre
products
##ground
above
deb
##more
##oles
meant
##ustr
brains
series
freed
temper
heav
muse
phenom
ended
sorts
particip
ger
surg
coun
individuals
represent
complicated
citiz
phenomen
fra
##estern
truly
strange
##mend
pal
worse
##odies
detect
ultimate
david
clin
##others
bacteria
faster
hop
##ann
accept
communities
webs
14
80
ban
bom
spect
unc
talks
models
allowed
drug
molec
traditional
choose
fasc
lands
luck
forms
##cient
written
finding
signific
museum
dad
kil
taught
##dom
##inct
enj
blind
calcul
including
policy
crisis
infect
##ctors
ann
##rage
trick
standing
ben
fine
jud
swe
wife
##atory
shown
role
points
continu
secret
site
##ping
##etry
shap
studies
glass
respect
pieces
concer
##emic
beauty
conditions
increasing
assum
17
sus
##put
prison
cloud
christ
architecture
bou
western
##nal
##ama
genes
training
purp
mention
rap
##cape
##isms
##ims
##ires
perspective
tree
##idge
therefore
income
fuel
198
killed
position
fundamental
bunch
##nch
rece
upon
clim
content
himself
excited
##ining
##onse
town
enorm
central
version
##lier
##ently
reading
distrib
unfortun
favorite
neighbor
fantastic
rand
##cise
##son
##inating
stars
##ung
##ffic
humanity
drugs
late
od
##oke
##ales
thanks
response
painting
successful
straight
den
fle
##sequ
price
##tend
address
spirit
lower
doc
launch
hall
sad
service
card
##ured
alth
hero
depress
freedom
##eties
fort
trou
##ables
beings
kept
region
surprising
although
##ube
##iti
##imp
remind
increase
families
optim
cele
cases
daugh
##ulate
alive
expensive
decision
treatment
##lo
##pped
saving
afford
genetic
invent
skills
military
celebr
cart
mental
##rum
##come
throw
##ches
plastic
manage
roll
throughout
electr
oxy
##fact
##rep
##set
##izations
fold
famous
colleag
##sh
##amm
rights
##ologist
contrib
effort
smaller
strateg
publish
patterns
##vision
liber
cold
board
clearly
neurons
##zz
inse
##urt
dog
worry
actual
unique
##soci
earlier
industrial
##egr
##vert
##amic
##rap
trade
decisions
finan
healthy
allows
environmental
machines
achieve
dar
rise
##inated
recognize
engineering
et
thr
hey
##epend
specific
reflect
familiar
violence
rule
tit
##men
##ulf
americans
costs
listening
occur
descri
##oon
anal
shot
greater
seconds
##ission
physics
13
lines
##iet
##istics
employ
artist
demon
aid
sor
##iced
uses
afgh
desp
jump
forget
##thern
greatest
solutions
dollar
values
ten
associ
comfort
driving
president
multip
weight
services
##iversity
dangerous
dyn
la
tun
##rest
##ana
##itude
becoming
agric
prep
anywhere
invented
electron
determ
##resh
describ
conversation
agricult
tv
##ays
anymore
creativity
production
dance
however
##anda
drink
engage
teaching
waiting
broad
iran
philos
range
tiss
consequ
##ained
blog
simpl
decade
autom
intelligence
critical
none
##cl
##back
hell
whose
physic
provide
urban
surgery
afghan
21
base
je
lat
match
##cr
##amp
select
##eless
##ologists
explore
demonstr
300
cry
pig
##ef
##bol
tor
cultural
propert
performance
depend
mut
yell
atm
##ounds
slide
walked
politics
remarkable
immediately
bodies
nut
ine
##itation
##iling
##iven
##rene
slight
capac
minds
motiv
ran
##atically
willing
controll
direction
nation
wer
conference
##phone
gene
robots
massive
types
religion
bang
wood
##iles
veh
speaking
201
condition
unfortunately
##cies
##uct
##antic
legs
useful
flying
practice
floor
interview
enjoy
fit
ju
forth
alg
##aging
connection
following
various
private
website
weren
ara
##enced
##eters
hair
##unk
##uss
integr
relative
societies
enormous
tal
vict
##uted
indian
understood
final
ahead
ken
##ffe
##ndon
##rees
##lly
island
terror
effective
hyd
german
24
ver
shark
quant
independ
hole
raise
journal
survive
temperature
catch
##yle
##iqu
chair
commer
##attle
method
mr
##50
exh
##cks
scan
networks
tum
##aries
loved
babies
meeting
copy
directly
consciousness
citizens
##ee
##sem
##oty
forces
ancient
doctors
moon
evolved
crow
police
shared
effects
institutions
television
task
##reprene
90
fat
##wood
##orrow
produced
entreprene
laws
random
##iation
196
biological
metap
##ception
swim
standard
inspir
inspired
transport
fro
##gu
##ceed
##rael
displ
genome
apply
governments
profound
##ball
israel
prevent
career
funny
challenges
summer
cust
wire
##ec
##ancy
sharing
choices
popular
harv
purpose
weap
mostly
below
helped
aust
gather
ren
heat
compon
desert
histor
tremend
memory
radio
pressure
sustainable
birds
strugg
##iber
london
flight
experiments
destro
sorry
##atives
wealth
tail
insect
wide
frank
##ander
coast
designers
boys
infrast
levels
financial
infrastruct
##aling
bringing
hous
mich
##ration
##bel
brill
played
197
possibly
vacc
tur
trib
belief
terrible
parad
democr
honest
etc
##ufact
##iforn
##empt
##ript
##bert
instance
airpl
diseases
californ
brand
original
bought
aids
eating
fash
ira
mix
ut
##rew
org
active
expand
offic
artists
supply
switch
oppos
##board
gradu
##ios
manufact
twice
spending
surround
decades
complexity
focused
laugh
causes
capacity
bul
##aign
##gar
##wise
##iding
washing
coffe
##rupt
appl
markets
photos
pleas
campaign
crowd
rough
wis
##ky
##itor
beat
plat
decide
related
symbol
##like
doub
afghanistan
california
70
eg
vul
##inate
##anc
frame
ord
##aining
##itted
communication
total
mobile
fashion
rom
shock
worst
smell
scientist
##cules
mountain
closer
gh
roo
corner
devices
efficient
trouble
coffee
ske
##uc
tax
mad
lights
##ervation
emotional
oxygen
gard
hus
ign
river
tast
##osy
intu
chris
dinos
daughter
##load
yellow
iraq
vulner
##ises
dram
slightly
400
##orge
mos
trip
workers
cheap
molecules
infrastructure
batter
loss
race
party
##rench
broken
degrees
climb
published
atmosphere
gent
##oting
##aced
email
surve
terr
breast
programs
mission
virtual
custom
ax
gar
rare
##ike
##iest
##oper
##olve
##izes
resist
applic
imagination
highly
hearing
lin
rot
##ened
##ste
##ami
seas
##ada
chick
mexic
noticed
seemed
fellow
easily
magaz
foreign
hang
##here
##win
##anced
altern
intel
calls
communicate
nearly
paid
negative
significant
mamm
##iers
##ius
##bb
shop
notion
##ement
gotten
differences
creates
particles
photo
wheel
philosoph
arab
tremendous
cru
cogn
lack
vast
##ok
##order
edge
paul
brilliant
bread
dying
tens
##right
##of
##outh
forg
acad
accord
answers
classroom
window
hyp
mort
nations
niger
##af
##oun
##arm
##key
prev
stopped
farmers
colleagues
tissue
metaphor
band
diversity
giant
sick
##istry
teen
agree
foundation
moments
argument
richard
correct
ultimately
landscape
##osystem
rh
surge
studying
helping
##othes
attract
structures
relationships
religious
reduce
responsibility
ecosystem
phenomenon
neighborhood
commercial
dri
##aff
##for
##icles
unlike
cooper
boat
volun
female
pet
##cest
##ening
##raid
##ils
afraid
spee
scul
possibility
visit
fed
gun
mit
##edia
reve
##thes
shel
##ores
partners
basis
leads
microb
double
gentle
fab
tour
ancest
shift
prize
adapt
designer
turning
feels
organizations
streets
members
necessarily
finger
odd
narr
##band
##cell
##rogen
assem
##ulous
knowing
##used
musl
respond
joy
passed
profit
restaur
frequ
balance
austral
ble
##pher
##ees
##mit
inj
recover
##otic
stem
aspect
contact
differently
fully
mouth
russ
##ya
##zen
stren
attempt
despite
nan
##orith
co2
amb
planets
explor
charge
join
figured
dimensional
rapid
algorith
sculpt
bound
fresh
mas
tough
prost
novel
que
impress
accom
newsp
opportunities
emotion
professor
experiences
benefit
benefits
bomb
gall
##arter
##arian
analy
note
noise
coal
insight
traffic
addition
discovery
forever
grandm
embra
identity
definition
strength
bon
##vity
weird
bridge
##ruption
##ification
lesson
engineers
typical
fascinating
agriculture
##uing
##ued
reb
##ams
spaces
adop
appre
organisms
brings
paint
harm
influence
fif
french
##icking
libr
##cked
##itely
##ibilities
invis
shouldn
missing
civilization
fighting
fairly
target
according
faces
jew
male
##har
##vit
dol
background
brother
easier
hopefully
suffering
cand
egg
mouse
master
##cra
##met
##omy
asia
interp
##connect
host
element
demand
raised
emotions
slowly
##stein
intellect
##erly
maint
fourth
150
motor
elements
circle
responsible
puzz
lucky
iron
ray
ug
##cles
##ding
##ctions
##antage
justice
previous
otherwise
cla
colors
creatures
capable
distance
facebook
legal
billions
mathematics
platform
cognitive
appreci
foss
lapt
sister
##com
stri
chann
##ysis
regular
accur
leading
##print
institution
necessary
sequence
describe
wisdom
cred
row
tow
meat
##pping
everyday
opin
helps
begins
shares
##ography
walls
degree
british
adults
kilom
speech
core
##fl
ham
habit
##idden
chur
concent
grass
crash
importantly
creation
competition
counter
darwin
diver
purs
##water
therap
##atures
##itter
##ica
##enty
held
sector
matters
fields
mer
##eared
##tle
bear
##throp
ship
mel
##ears
spl
##iable
subst
entirely
avoid
trained
professional
seriously
epid
destroy
fol
prou
ton
##bur
truck
click
childhood
remote
install
finished
corpor
##ographic
caught
statistics
mur
##house
repe
##idents
##verse
exch
##cket
##pper
##ifying
desire
brown
brief
letter
holding
pengu
opposite
round
vent
wik
##ront
stress
##celer
defe
spot
prior
##orders
deeply
failure
replace
leaving
magazine
##ls
##icity
##roc
seat
moves
franc
##ulated
##ifically
indic
##airs
politic
normally
perfectly
convin
empower
cos
wow
##mark
##ering
##asa
soph
events
acceler
institute
increasingly
mc
##ypt
##wide
##uments
managed
quote
bright
grade
flat
##athy
believed
economics
prototy
investment
depart
require
intelligent
principles
molecule
invisible
proud
##leg
##urally
seed
whenever
organic
languages
constantly
consumption
dreams
tomorrow
protein
fortun
mig
##cil
##eral
##irt
abst
driven
studied
meters
majority
versus
survival
breath
galaxy
concerned
egypt
hate
##yl
##vant
wear
##oted
ali
##apse
precise
commit
crime
yester
surprise
obsess
diagn
depression
husband
dolph
bow
dress
grain
lunch
##pid
incent
##uls
##ulations
saf
grown
artific
stuck
oceans
steps
motion
##ropri
argue
insects
roof
ath
toward
##anes
##ett
shif
chap
thinks
compare
unless
article
opened
infin
origin
damage
multiple
volunte
##craft
church
dry
era
##aria
beach
stim
exer
compared
quiet
arms
resource
load
blow
plane
attach
opening
layer
principle
washington
yesterday
categ
##ked
##inist
##encies
soil
exists
##ager
disp
empt
apple
warming
charles
review
operating
illustr
dinner
faith
separate
mexico
bag
hidden
rural
##cers
##zil
##encing
wearing
reward
station
lie
peak
##atell
intr
##apers
evil
factory
diet
equival
followed
collective
cycle
astron
electrical
exhib
airplane
bone
len
pages
van
##iat
##gment
theater
##reg
inform
shr
sport
planning
accident
##roph
interaction
brazil
replic
debate
independent
grandmother
francis
cosm
rout
satell
##thetic
worldwide
explan
##issions
generations
universal
essential
european
caused
leaves
filled
tumor
weapons
dial
mothers
##ta
##ael
whom
liqu
##iff
##ortex
implic
##aker
highest
20th
stupid
bush
harder
curious
signal
conduct
advantage
failed
galaxies
shapes
lu
names
pil
pac
pounds
sau
voices
weather
##ston
##entally
##uries
ange
##ume
clock
##acle
advert
transition
succeed
equal
paying
sexual
shoes
circum
experts
mentioned
consequences
ordinary
##hab
##lex
recon
worried
closed
letters
corruption
setting
propos
construct
feedback
dimensions
document
35
battle
pip
sen
tick
##tain
##head
alt
##emy
##ensity
designing
marri
microsc
currently
losing
mat
mile
nerv
##ha
##amb
mak
spr
spring
plus
perce
puts
smo
feelings
transformation
lawy
anti
investig
limited
drawing
expression
islam
heavy
vehicle
99
pian
##ino
rein
ants
shut
##illed
##ogen
fell
##agers
arts
muscle
warm
possibilities
businesses
continent
##ipped
covered
chemicals
japanese
described
fossil
jack
kore
nav
ru
wave
zo
##iors
##hi
teles
user
veget
prime
agre
aging
contract
scene
technical
invited
##grad
suppose
heads
valu
radical
illness
negot
garden
intellectual
artificial
equivalent
telesc
ein
holes
rat
##ov
##fish
##erves
stun
stone
stock
lift
##eline
prefer
poem
colon
belong
bits
leader
leadership
emerging
display
due
dip
mart
##ns
##iency
##essel
suit
sugar
hasn
disaster
grid
##elling
evolutionary
malaria
lifet
dynamic
##iques
michael
battery
chicken
liquid
einstein
gap
wit
##rate
##enn
inner
bees
refer
shall
interface
organized
married
equip
horse
viruses
britain
distribution
strategy
entrepreneurs
roughly
date
##dy
##ae
##asion
myth
tex
spoke
##cipl
importance
thoughts
treated
##pected
northern
construction
convention
movies
associated
pleasure
nervous
3d
pun
vessel
##rie
##lin
##aurs
saved
unp
pray
partner
phones
appropri
producing
finish
lessons
##gged
keeping
signals
killing
dealing
surprised
encourage
lady
details
daily
equipment
homes
lect
##und
canada
##anted
myst
twitter
factor
minister
coral
valley
cultures
stream
##ocol
steel
budget
molecular
launched
sophistic
45
cow
##do
##mar
thom
ing
reform
lies
atl
chimp
disc
acqu
script
##aked
glam
england
metal
sites
george
limit
soldiers
australia
department
fal
##pet
##rict
##care
init
hack
spin
paral
effectively
existence
chemistry
concl
honor
awful
announ
kenya
renew
dinosaurs
alternative
library
wal
##iot
##hold
##irty
extend
congress
teeth
hadn
unex
techniques
studio
medium
bio
auth
eleph
practical
army
estab
reaction
trials
comfortable
democratic
assemb
kilometers
600
jan
kick
vib
vote
##pan
stood
##olves
chain
frustr
orch
prove
users
perception
manip
qual
player
consumer
photographs
status
mountains
germany
empty
pak
rates
wars
##ded
##ox
##zed
compl
compos
whereas
desk
##place
recy
researchers
define
neuros
winter
affected
mistakes
spectrum
property
relatively
newspaper
valuable
pakistan
hur
kitch
rub
sources
tall
##mission
weak
##lement
##cend
##erson
##ension
underne
##elly
##forest
extract
biom
gravity
protection
satis
management
mortality
nigeria
opinion
safety
underneath
james
nasa
pure
sight
tap
##lom
##mber
##bble
initi
##edic
reci
##etics
height
asp
##acters
club
impl
calling
decl
invention
solid
characters
cutting
picked
selling
snow
encoun
bare
ca
fis
gang
##ca
##ka
##tered
theme
amp
smile
specifically
marketing
advanced
assign
suggests
aston
arrived
##point
mathematical
organs
eld
tan
##oes
##mers
##bre
reef
##ushing
unit
##berg
fewer
electro
patent
processes
soul
deeper
risks
considered
primary
clinical
analysis
struggle
epidemic
dots
ends
gift
ip
pow
##rument
##lation
haw
notes
##ulating
##abet
buying
dish
contem
scen
flies
instrument
195
generate
broke
silk
mathematic
experienced
efficiency
burning
mistake
discussion
employees
controlled
sharks
restaurant
exchange
convinced
abstract
marriage
lifetime
witness
ber
tons
##uel
##gets
##han
##zing
##rete
##ara
cha
spo
##aren
bran
brothers
emissions
ideal
scr
court
repub
videos
testing
diam
identify
privile
awareness
laboratory
flex
components
folks
wikip
circumst
75
gay
hol
nar
oct
pin
##port
##anze
input
##aled
goals
shad
players
generally
environments
waves
windows
convince
sentence
destruction
promise
ladies
graduate
pacific
chimpanze
cast
tro
toile
##estic
pregn
added
drag
hyper
radiation
expected
typically
facing
variety
introduced
sweet
quantum
harvard
houses
thomas
kitchen
lic
sir
##ught
##ij
##mas
##icing
maps
discipl
naturally
musical
eastern
advent
steve
senses
chrom
definitely
carrying
proteins
introduce
analog
vulnerable
mosqu
axis
forgot
driver
laptop
credit
republic
wikipedia
aug
bat
und
wat
##pes
##cast
##ham
##icy
isol
##rof
conver
ens
compar
surf
instrum
serve
connections
explains
represents
circuit
official
survey
politicians
sophisticated
gain
##kn
##ingu
##orous
##urb
liked
##rove
sem
sending
mac
##odes
union
##ago
poetry
crim
personally
clever
march
topic
occup
blocks
collaboration
diplom
gam
les
py
rit
vag
vert
wine
##gers
##ses
##bors
style
##igm
dogs
chart
mand
##iev
unus
aff
adj
centers
minim
swed
southern
behaviors
profession
mirror
received
framework
exercise
establish
hurt
las
poo
##la
##ym
thin
##ald
forced
shar
pros
trillion
worlds
contain
goods
command
solved
194
carefully
2008
curve
wake
director
pulled
cartoon
21st
properties
ingred
22
##rom
##esh
reven
stan
exec
##osh
pole
facts
mush
watched
digit
presentation
psychology
situations
horiz
shoot
##ipping
dropped
pollution
##porary
linked
disappear
prepared
inevit
hydrogen
vaccine
taste
intuitive
ancestors
francisco
piano
chromos
unusual
bri
cortex
hits
il
nest
sides
##itals
yout
shame
max
technological
##athers
consist
computing
movements
regard
virgin
location
requires
error
domin
passionate
capture
exploration
alex
cere
cub
mim
##nes
##uits
##oved
##za
##rel
##itarian
robert
contr
transpl
explos
string
wondering
member
bottle
sympt
depends
critic
ridic
cooking
shaped
channel
youtube
gulf
hill
genius
percentage
interests
visible
runs
2000
absor
collapse
options
severe
hotel
encoura
embrace
claim
dut
fib
fake
jer
ought
##oh
bee
##stream
asks
solving
internal
obser
traveling
violent
entertain
cameras
release
##llywood
inspiration
applied
dramatic
interpret
length
explanation
negoti
mosquit
23
gree
jul
##wor
##ament
comment
atoms
dece
##umps
plans
unkn
quarter
bubble
gray
##athan
factors
afterno
skill
reprodu
healthcare
auton
confidence
antib
literature
reached
rocket
combination
fundamentally
neighbors
surgeon
penguins
satellite
cards
fou
lens
option
pair
ride
tent
upper
##dp
##uary
##lines
##lands
##gl
##hen
thick
wel
wash
sees
prem
overwh
diss
phr
apparent
polio
former
courage
marine
keeps
tests
sunlight
behavioral
falling
hospitals
meaningful
clinic
hoping
infected
orchest
overwhel
bath
gdp
pill
##lock
##inction
##osis
resc
gras
mont
extinct
corres
stret
##ternal
closely
teams
innovative
existing
cyber
hung
portra
birthday
sample
dynam
transportation
##iosity
season
rapidly
therapy
navig
unexpected
cure
cath
fishing
ts
tape
##oint
inher
reverse
##keys
##ula
spider
##iel
uns
##abled
creature
formed
joke
2007
defined
amounts
recorded
footprint
embed
tracking
empathy
relevant
logic
electronic
wireless
rhy
afternoon
dedic
gut
lying
ped
ring
rational
##iture
##opy
##ros
##ession
outcome
span
feature
decline
drill
powered
storyt
singing
##gging
confront
increased
sensitive
interactive
protected
religions
stronger
administ
occurred
microbes
eggs
mushroom
bicy
dot
furn
fert
nurs
pump
##cap
##mp
##ered
##eness
##lying
stro
staff
##iring
##amin
atom
features
resil
##acing
ears
drives
instruct
boston
engaged
##ographer
productive
deaths
occasion
horrible
concrete
divide
budd
golden
harvest
manufacturing
accurate
split
conclusion
circumstances
der
mere
pad
##ole
##hr
##inations
inject
##ita
bell
##adic
coord
pocket
scar
technique
transfer
conserv
polar
economists
handle
younger
educational
milk
architects
embarr
include
combined
sustainability
admit
lifest
activities
gentlemen
muslim
tonight
embarrass
aster
bes
dere
hide
honey
pink
raw
sets
##rors
##ih
##stic
##sters
##cel
##olic
##olving
acting
sahar
perman
##abilities
wherever
clip
clothes
shell
elim
functions
films
assist
elev
operation
performing
feeding
multi
measured
volume
combine
released
authority
clouds
paradigm
algorithms
fifth
appropriate
astonishing
hook
pitch
tube
zone
##aver
##icip
##ctic
neut
##ogue
intense
sac
poly
loop
underwater
obst
funding
slides
recom
regions
curiosity
signs
treating
challenging
depth
250
concert
estim
roads
transformed
frag
spiritual
2010
doubt
romantic
applications
narrative
zoom
instruments
gest
rw
##bits
whist
sept
section
sphere
##ortion
nose
writer
remain
centuries
##azz
election
corn
globe
physically
classic
trend
memor
constit
pollen
subjects
islands
participate
component
frankly
accompl
ritual
ii
rush
sar
##rus
##metry
##bage
##father
##isters
neither
##ille
tri
pool
remains
insur
monkeys
19th
strang
processing
label
defense
collected
explained
concepts
fingers
continued
swimming
unknown
september
bones
border
du
lake
ment
wired
ze
##time
##mon
##20
reference
dozen
chic
knock
trig
##cience
expon
ages
implement
roots
evening
conservation
meter
rooms
paris
memories
collection
operate
records
recording
irr
villages
dancing
flowers
titan
selection
philosophy
conventional
mystery
cents
fan
loud
##talk
##van
haiti
storm
stands
deploy
myster
plate
phase
pharm
relate
generated
busy
presence
parking
wondered
tedtalk
figures
largely
advice
messages
falls
conclud
mechanism
title
inspiring
scratch
entertainment
27
cens
##rated
##uge
##vin
##opes
excell
##ums
somewh
tab
tack
prices
designs
surely
equation
friendly
mechanical
determine
rebu
paralle
illeg
somewhat
bay
boring
cup
dense
icon
ol
papers
wing
##rition
##cal
##my
##mal
##vi
##bi
##nda
toxic
##itors
##uting
##ota
chief
chocol
fright
delic
peer
alph
enable
##oses
acts
##ologically
root
flash
traged
airport
causing
required
songs
printing
paintings
flew
celebrate
simplicity
resistance
murder
obsessed
rhyth
chicago
cas
pra
##ras
##col
##esome
##orter
##itz
button
##iled
outc
##ogram
unclear
tag
lets
##akers
owners
obama
boom
grab
geom
collaps
potentially
limb
consumers
improv
directions
##onym
awesome
divided
conversations
diagram
judge
heroes
latest
vehicles
candid
infinite
implications
stretch
70s
iphone
jail
lou
oly
till
##greg
##oll
##off
##hal
##qually
theore
##esity
weigh
##etically
##anta
contrast
instinct
obesity
shoulder
bike
particle
organism
connecting
boxes
depending
##heim
breathe
kingdom
victims
fabric
appreciate
chapter
telescope
false
olymp
60s
equally
hi
peter
rig
##can
##over
ther
##ener
##asm
whales
##icide
hem
abund
chose
france
orient
output
##uses
actions
##acles
flor
olds
exploring
breed
breaking
constant
existed
identical
tort
entrepreneur
russia
adopt
dolphins
recyc
spoken
26
gig
gps
lung
pour
pace
ric
rab
sin
##cence
##ost
##iters
##otes
##iday
##iders
shake
chest
meg
tea
##unt
##rous
sheep
disg
disorder
bron
flag
smoke
carried
persu
colum
finance
lovely
grows
repair
careful
presc
2005
paraly
distinct
standards
allowing
classes
statement
filter
##aneously
presented
grandfather
arguments
barri
hunger
balloon
attacks
magnetic
distributed
jeff
queen
##connected
alien
microscope
furniture
dign
dirty
jelly
##bal
##well
##etch
##child
anx
##roll
ash
nowhere
ours
cock
twenty
happier
desper
adam
flower
decre
fuels
monkey
reput
africans
earthqu
walks
distant
gender
advance
symmetry
illusion
accessible
stayed
silic
transparen
synthes
uncertain
christmas
optimistic
hypothes
sculpture
puzzle
commitment
advertising
korea
adjust
phrase
embedded
lifestyle
transparency
cord
dust
dict
density
jim
mall
tank
wise
##iop
toler
stack
anat
liver
chip
##iform
disorders
imper
phosph
scared
plays
explo
economies
charity
autism
##iox
tested
greenhouse
rising
faced
salt
offered
translate
bombs
uncom
savings
automatically
hello
copyright
housing
incentives
transplant
dh
fiber
pand
voc
##ris
##edy
##itory
item
reject
##imeter
proof
manh
coin
##ptions
herself
score
scary
flood
remove
interestingly
painful
devast
productivity
measuring
origami
spreading
synthetic
islamic
drinking
consequence
physicist
ghana
dramatically
application
wheelch
##force
vessels
authent
800
diction
hat
tight
vital
wings
yield
##nel
##ey
##kind
##va
##nday
##anthrop
##orus
##tery
ate
proced
congo
##cking
bless
economist
joined
##while
accum
controvers
opposed
properly
providing
silence
eradic
emergency
breathing
surrounded
academic
texas
poorest
symptoms
absorb
rebuild
illegal
chocolate
outcomes
36
bible
horm
jon
nin
nets
sque
ub
ven
##ek
##da
##hol
beer
stable
orbit
##inder
clay
resolution
spell
letting
##phones
##icted
offers
secure
craft
funded
limits
psychological
psychiat
reduction
mainly
ethiop
disappeared
struck
##fficient
nutri
linear
partnership
maintain
uganda
agreed
lecture
satisf
chimpanzees
pregnant
pyram
cab
##ua
##rets
##oned
##iment
aside
knee
placed
intention
wanting
manif
##agn
poison
overall
backwards
glad
extent
lighting
##otech
2009
diabet
increases
anticip
entered
touched
sales
experiencing
ethn
tasks
facial
samples
forests
heaven
tricks
assume
latin
prosth
pilot
sweden
diabetes
ack
aqu
cash
dow
diox
gates
nic
pushing
##rant
##yal
##arant
golf
##raction
##ests
orange
##usive
clust
##cond
commod
involves
datab
behave
amazon
cheaper
raising
reaching
photography
floating
immune
virtually
fixed
electronics
motivation
journalist
frozen
recovery
destroyed
prototype
astronom
exhibition
angeles
smooth
toilet
stanford
maxim
apparently
parallel
silicon
aim
bob
fiction
fulf
hen
nit
rail
##tes
##struct
##ola
usual
##aint
actor
unbel
##aret
overl
##soft
lob
blank
granted
emph
download
afterwards
schol
bold
attrib
farmer
regret
agenda
household
meetings
delight
inspire
telephone
rainforest
appears
suspect
demonstrate
talent
muslims
precisely
attached
january
fisher
bicycle
65
700
cod
na
pile
wed
##uate
##vas
inch
whale
##lyn
attend
plot
##ardo
arrest
overcome
contains
adoles
flip
##aks
personality
193
muscles
secondly
hardly
passing
passen
educated
retire
provides
legacy
symmet
##attan
recognition
recognized
represented
dimension
achieved
pupp
angle
council
palest
##crim
aspects
algorithm
elephant
chaos
ridiculous
welcome
rwanda
triang
disgust
dignity
manhattan
dioxide
32
95
bos
dur
rang
session
##oons
##wich
toy
youth
##leton
anthrop
##aming
##rog
sevent
champ
conce
enemy
plenty
unh
agency
twe
poster
reson
firm
##acular
adap
appeared
imagined
metab
2004
adding
constrain
antar
innovations
microsoft
footage
winning
rocks
amongst
angry
fortune
##iveness
federal
frequency
shadow
sharp
derek
tragedy
reputation
manifest
unbeliev
ain
bf
jes
jam
tub
##now
##de
##oir
##inals
stere
anonym
##osen
##usions
intent
##udes
clar
humor
appe
engaging
skull
globalization
crack
refuge
collecting
practices
robotic
purch
traveled
shooting
links
apartment
spectacular
calculate
thrown
terrorism
skept
habitat
fortunately
intrig
privilege
laser
wheelchair
cave
##pass
##case
##ault
##aves
##war
##lets
##ida
anger
##illing
dear
mail
tries
spots
seek
poet
disag
guard
guide
guarant
obl
##aws
governance
populations
district
eleg
millenn
sensors
provided
neuron
consume
darkness
philanthrop
estimate
higgs
domestic
searching
miracle
fascinated
contribute
efforts
describes
baseball
cryst
inequ
beliefs
vulnerability
corporate
volunteers
sports
martin
atlantic
earthquake
phosphorus
borders
dop
gon
hans
wol
wip
##rome
##ixt
##hm
##esis
##arters
##opher
sel
##through
neural
##ifer
yours
units
leap
nobel
arctic
removed
opens
monitor
smallpo
caps
subs
hollywood
organize
curren
photographer
musicians
signed
excuse
refr
escape
expectations
breakthrough
filmm
includes
saturn
##archy
nucle
capitalism
conflicts
improvement
catast
colleague
liberal
automob
controlling
cooperation
boundaries
tower
barely
narrow
license
ingredients
recommend
##heimer
smallpox
80s
dies
nur
naked
rose
rice
##top
##uous
##esthes
ink
##ione
##sey
seats
chosen
fruit
##ckets
trash
enth
##osc
suicide
expos
exposed
willi
committed
##onscious
gla
native
minor
probability
margin
elsewhere
hearts
continues
industries
focusing
speaker
speakers
extrem
##ended
oxford
fluid
functional
sticks
concern
weapon
historical
tribes
customers
hanging
jewish
ugly
briefly
orchestra
dynamics
permanent
sacred
acknow
nurse
28
dump
drove
gir
tied
tired
##cut
##life
##kins
##val
##viet
##nded
##lete
beg
soviet
shirt
cham
##ulse
upset
exped
evolve
sheet
scott
genoc
flour
invite
oldest
artistic
accidents
researcher
controls
landed
viet
##box
textbook
reported
sandwich
christian
crying
utter
ignore
athe
encounter
powers
vertical
pyramid
90s
award
bure
cott
gand
lun
ooh
pound
punch
pione
##rating
##uity
##lies
##och
##mm
##ato
##rect
##onic
##alian
italy
wet
beet
aband
##illy
external
conven
enh
expans
aggress
acid
carol
colony
instant
produces
capita
elections
foods
globally
aircraft
morality
geographic
trends
advoc
drawn
holds
football
volcan
reduced
facility
captured
stores
disappoint
returned
receive
agricultural
dependent
integrated
methods
paradox
mammals
unlikely
lawyers
vagina
dedicated
emphas
vietn
bureau
aer
cable
cert
gy
hip
lit
wra
wander
##uce
##uum
##zheimer
##atar
##stage
##amine
likes
##ads
alzheimer
##allow
leather
clients
underground
emer
scream
smith
fool
finds
trag
traject
2003
cheese
discoveries
classical
thirds
explaining
interacting
legis
architectural
photographed
fears
ultra
##going
vacuum
optimism
prepare
determined
dinosaur
repeat
repeated
perceive
assembly
contemporary
trigger
aes
bars
borrow
cous
cute
hub
june
nurt
ros
sed
tes
##car
##aust
##hib
##ket
##bra
##ini
tooth
##oran
##itudes
##utical
rely
stations
gore
butt
deaf
##emen
worker
bull
locked
synd
##ishment
realm
scales
incident
relax
transcend
hardware
subtle
openness
2006
sixth
##bridge
opera
sensory
interactions
silent
layers
collaborative
separated
depressed
surprisingly
reminded
affordable
strategies
laid
intuition
shifting
categories
lux
lawyer
##riend
initial
forgotten
surfaces
chromosome
rescue
hungry
nurses
instructions
insurance
bin
hire
mate
##tical
##under
inches
##arre
##keep
##rol
neat
spark
spinal
##usi
comprom
##izoph
##aceutical
schizoph
crick
consult
##ails
traum
organizing
headed
2001
disturb
painted
treatments
grandchild
120
communications
observation
pulling
emerged
characteristics
dawn
citizen
palm
engagement
frog
rarely
teenagers
ecosystems
fabulous
##flies
trucks
originally
flexible
prosper
explosion
conclude
paralyzed
henry
fract
wid
wil
##ds
##bru
##zan
##fall
##era
##erved
##nders
##itous
stages
doz
outer
howard
intro
lee
##agger
phant
underlying
##icks
writers
persist
ending
bias
regener
settle
publ
figuring
experimental
supermark
essence
observ
predictions
circles
policies
transparent
reports
variation
methane
debt
tuna
gathering
injury
seeds
announced
extended
scenar
branch
criminal
autonom
resilience
excellent
ethiopia
biz
bats
dive
fathers
hitting
jose
kiss
mice
tony
##rot
##rical
##list
##iance
##sing
##ville
##west
render
ford
##think
shore
##ulum
conve
outs
##ela
##agen
arrow
bubb
parties
grat
commission
slaver
founded
mining
biod
strip
##ribly
proto
confident
killer
views
successfully
radi
universities
tempt
males
sleeping
banks
daughters
physician
pigs
diverse
route
senior
neuroscience
aspir
asteroid
pharmaceutical
rhythm
florida
uncertainty
emerge
slavery
mt
picking
tut
##bl
##fast
##asy
##icious
##stand
whatso
abuse
chop
chron
orph
##aus
spa
actors
sav
sacr
##mented
bucks
flows
crops
pointed
extinction
biologists
grace
##aze
redef
cambridge
parli
stops
proper
measures
missed
operations
barb
protecting
failing
##apping
1990s
ethical
burst
buried
mechanisms
graphic
pushed
detection
halluc
nutrition
mixed
expanding
garbage
shopping
crucial
dolphin
shrimp
makers
tsun
fertil
nutrients
downt
syndrome
schizophren
bizarre
whatsoever
85
ba
cats
eric
hier
kb
ng
nerve
rod
sink
tear
wound
##night
##pa
##ray
##iogen
##wr
##organ
##eda
whis
##igation
degrad
##ateful
alco
##using
leverage
febru
##agos
needle
loves
genetically
earn
owned
helic
articles
imaging
191
serving
highlight
subway
curric
robust
soup
audio
steven
predicted
statist
promote
lifes
delivered
miser
accepted
susp
description
1960
symbols
surgeons
adopted
fortunate
glamorous
initiative
dominant
strangers
bronx
glaci
dozens
phantom
february
fer
jar
rope
sits
sisters
tip
vit
##rich
##ba
theories
##eday
##omics
##ashing
moore
meal
someday
##umin
interf
lock
deserve
mayor
caring
##obi
##iban
simult
simulation
##ressed
mode
elected
visited
proportion
##lessly
##mingly
expectancy
breaks
irre
engineered
reducing
hunting
affects
crossing
graphics
translation
1980s
reminds
airplanes
skelet
climbing
analyze
insights
pursue
renewable
revenue
jellyfish
uncomfort
unhapp
unbelievable
##esthesia
genocide
grandchildren
parliament
helicop
apr
bother
dough
drew
gorge
mud
pir
silly
##pal
##ria
##ups
##ober
thresh
##ari
recess
stom
##adays
neander
decent
nowadays
trop
spons
upd
intim
##apor
uncle
perpet
##agon
pretend
coach
amate
##ache
partly
county
##ighter
funds
capability
warning
preserve
forming
charl
homework
protest
##inson
devil
kills
investing
edges
traditions
sentences
keyboard
arrive
domain
choosing
primarily
homeless
fraction
tumors
##ecd
struggling
reveal
shelf
impression
initially
october
inevitable
administration
##capes
stroke
occasionally
saharan
richer
pandemic
ubiqu
##otechn
gonna
currency
enthusi
begun
trajectory
biodiversity
threshold
neanderth
dile
gear
jet
kar
mri
piz
tatt
tears
##parent
##des
##iety
##vy
##bow
##walk
threw
##inarily
bears
neck
deception
enlight
plain
##ares
quad
arth
newton
scores
offs
involve
owner
glor
##tending
imagery
served
crew
computation
regime
##imately
magical
memes
fastest
entering
suggesting
suggested
##adesh
ecological
portion
damn
tribe
manufactur
shocking
russian
substance
diagnosed
replicate
spray
elderly
discipline
brian
merely
fragile
mysterious
dopamine
tattoo
33
boo
cake
dun
diving
fest
gate
hind
ly
nom
pm
rats
rays
tu
tone
tong
veter
##prof
##di
##uff
##fin
##ora
##omp
bend
recept
##othing
##ctica
##chem
##chron
friday
spont
enables
permission
export
agencies
gotta
indo
blame
lethal
instantly
monit
highway
attitude
subt
fung
joint
connects
distingu
proposed
programming
innocent
bottles
nonprof
grandparent
summ
supported
cycles
identified
##liest
reactor
burden
leaf
homo
panels
immediate
blogs
taliban
skeleton
garage
guns
odds
restaurants
prostate
elementary
institutional
dialogue
glamour
qualities
ensure
besides
exponential
hypothesis
antarctica
jesus
tsunami
dilem
bol
bust
fits
fusion
hors
jazz
rio
tam
vel
wider
yo
##ati
##ata
##reh
##isa
sty
##opath
doors
canopy
shit
mapping
spain
##unction
##astics
uniform
eval
agent
interior
client
##iac
realizing
genetics
smarter
bond
endanger
insul
farming
generating
entrop
redwood
marry
paras
weeke
musician
chef
restore
discovering
##aneous
winds
breakfast
improving
fires
robotics
spreads
exception
tracks
empire
errors
immense
gradually
mechanics
magnific
assumption
jumped
turkey
resistant
shelter
cosmic
matri
professionals
horizon
correspo
buddh
neutral
cotton
expansion
curriculum
uncomfortable
dys
duck
fet
josh
loo
rivers
##dam
##yard
##iences
##gence
##bled
##bling
##wl
thus
infer
##itan
stab
abra
butter
shots
chim
convert
alb
suck
leon
percept
prec
arist
disability
disrupt
grateful
##eller
incor
carpet
foster
sciences
pointing
sketch
joe
marvel
##nostic
remembered
treas
objective
steam
trains
stephen
approx
staying
flowing
synchron
primitive
tendency
targets
suffered
delivery
translated
expertise
phenomena
significantly
assumptions
bangl
1970s
academy
channels
empowered
ticket
vegetables
##iotics
waters
isolated
comparison
interpretation
portrait
tackle
ownership
dictionary
squee
passenger
downtown
bored
cig
dy
dumb
eve
nick
ram
tie
tib
##down
##toc
##uctor
##hh
##mitted
##vest
##onge
##onald
##sets
shan
##umines
plastics
sup
aggreg
##ague
twist
cliff
armed
pockets
bug
##angible
builds
drum
extension
presents
animation
charges
register
physi
signature
selfish
located
motors
demographic
editor
legit
eaten
silver
enterpr
civilizations
impacts
privacy
covering
array
closing
detailed
wheat
infection
annual
glasses
documents
rolling
oxytoc
tissues
demonstration
chairs
lincol
attractive
category
informed
conducted
tanzan
ipod
adventure
analogy
established
dutch
##working
december
prescri
wolf
tragic
protocell
alcohol
april
gorgeous
insulin
oxytocin
lincoln
boss
cows
dent
dung
lam
nathan
##ship
##oying
##hop
##front
##jo
toys
##enh
inex
inhab
##asters
comedy
orb
knife
##oded
##ghai
##izer
##arest
interse
acou
brid
fox
terrain
terribly
biologist
holy
confused
viral
labs
positions
steal
namely
delhi
demands
expecting
arguing
beneath
ceo
ceiling
compassionate
facilities
immun
johnson
wildlife
participation
continuing
inventor
jugg
victim
profoundly
drivers
##burgh
mcd
illustrate
sauce
reinvent
ratio
mathematicians
contrad
fibers
greek
spanish
conservative
geometry
database
adapted
tubes
anonymous
inequality
ubiquitous
##otechnology
endangered
entropy
ak
bind
fancy
jac
jane
junk
jih
kh
koran
rb
sulf
via
voy
yemen
##aving
##oids
ingen
italian
beating
stones
forb
##raph
choir
excess
enzy
plug
lean
manual
quit
coke
interconnected
clothing
dism
##seless
offices
remained
insist
insane
planes
recru
elite
##cedented
healthier
valid
profile
tedx
revol
harness
cyl
improved
printer
request
dropping
unfold
intervention
printed
representation
unconscious
judgment
prisoners
philosopher
motivated
terrorists
gathered
preval
gentleman
accompan
puzzles
penguin
dressed
volunteer
maker
frustrated
virginia
mimic
grasp
storytelling
delicious
procedure
cabin
subsid
refriger
bubbles
simultaneously
grandparents
shanghai
bot
cro
dil
gaps
hut
hong
ib
lg
mary
os
pix
pale
pills
wires
wrap
##ran
##lv
##gent
##view
##recedented
andrew
toes
toss
##orage
##isy
onstage
storage
comic
meme
##ilit
spill
feyn
precious
##quis
realistic
remaining
colored
playful
engines
192
traits
completed
##cycl
subur
swiss
gods
excl
geor
audiences
freely
sensation
symph
included
replaced
approaches
arrange
extraordinarily
offering
activist
appearance
luckily
infections
benj
worrying
despair
independence
scanning
historic
wealthy
widely
vaccines
laughing
prevention
gallery
strike
intrins
shrink
routine
altitude
unprecedented
recipe
reefs
august
navigate
collapsed
anxiety
ethnic
scholars
miserable
pizza
jihad
feynman
cree
ech
hipp
lone
lap
lord
ner
pause
tune
##cript
##uk
##lson
##yan
##oe
##oning
##uther
##ctu
stability
##idential
##ura
##che
##cher
##opic
##irm
cancers
##ado
mold
nelson
chances
proven
enabled
##apy
##emics
compelling
amy
clint
reserve
blo
carl
factories
counting
guid
basket
##ava
kevin
huh
2050
biol
biosphere
smallest
farms
handed
formal
formula
2002
camps
passive
distract
planetary
answered
50s
assess
stepped
occurs
supporting
satur
strongly
circuits
approaching
similarly
hunt
ecology
compete
consciously
closest
threats
threatened
panel
wheels
correl
participants
boun
crowds
shocked
reveals
assemble
impressive
blowing
mosquito
hemis
column
ngos
unhappy
matrix
55
file
gif
jones
nap
nerves
uh
voting
zones
##cons
##onds
##mates
##vation
##ala
##itar
sew
##ading
##aded
shine
comics
chips
##illa
##ilty
##gend
deals
prol
peoples
##umber
##ifice
encycl
intensive
une
unem
prince
diff
disabled
loving
##rian
genu
earliest
columb
schem
relief
meanwhile
transmit
helpful
mini
grave
ski
generous
supplies
headlines
woke
curves
badly
profits
propag
restrict
continents
radically
invested
listened
tempor
performed
lowest
versions
drops
daniel
screw
transforming
dominated
immers
burned
mobility
throwing
reflection
association
preparing
physicists
ambig
previously
pursuit
stimul
constructed
perceived
stunning
limitations
elephants
assignment
hawai
mathematician
troops
dragon
contrary
fought
atomic
obstacles
retirement
expedition
orphan
magnificent
abraham
bangladesh
encyclop
hired
jung
kir
mike
santa
tale
um
ward
zip
##rid
##ties
##ki
##bed
##bod
##onia
##aland
##itable
welf
beij
ongoing
stair
static
canad
shir
shout
chat
peers
tends
enem
sunday
unable
lever
leop
royal
brut
glue
reliable
believes
kidney
##ashed
propose
##ocr
gee
calm
calories
deliber
speaks
sensor
predators
difficulty
personalized
urge
