[PAD]
[UNK]
[CLS]
[SEP]
[MASK]
!
"
#
$
%
&
'
(
)
*
+
,
-
.
/
0
1
2
3
4
5
6
7
8
9
:
;
<
=
>
?
@
[
\
]
^
_
`
a
b
c
d
e
f
g
h
i
j
k
l
m
n
o
p
q
r
s
t
u
v
w
x
y
z
{
|
}
~
¡
¢
£
¤
¥
¦
§
¨
©
ª
«
¬
®
¯
°
±
²
³
´
µ
¶
·
¸
¹
º
»
¼
½
¾
¿
×
ß
æ
ð
÷
ø
þ
đ
ı
ł
ŋ
œ
ſ
ƒ
ɑ
ɔ
ə
ɛ
ɡ
ɪ
ʃ
ʊ
ʒ
ʺ
ʻ
ʼ
ʾ
ʿ
ˆ
ˈ
ː
˘
˚
˜
˝
ͼ
α
β
γ
δ
ε
ζ
η
θ
ι
κ
λ
μ
ν
ξ
ο
π
ρ
ς
σ
τ
υ
φ
χ
ψ
ω
ϕ
а
б
в
г
д
е
ж
з
и
к
л
м
н
о
п
р
с
т
у
ф
х
ц
ч
ш
щ
ъ
ы
ь
э
ю
я
ђ
є
ѕ
і
ј
њ
џ
ґ
һ
ա
ն
ո
ր
א
ב
ג
ד
ה
ו
ז
ח
ט
י
ך
כ
ל
ם
מ
ן
נ
ס
ע
פ
צ
ק
ר
ש
ת
،
ء
ا
ب
ة
ت
ث
ج
ح
خ
د
ذ
ر
ز
س
ش
ص
ض
ط
ظ
ع
غ
ـ
ف
ق
ك
ل
م
ن
ه
و
ى
ي
پ
ک
گ
ی
क
ग
च
ज
ट
त
द
न
प
ब
म
य
र
ल
व
श
स
ह
ा
ि
ी
ो
ক
ত
ন
ব
য
র
া
ি
ে
க
த
ம
ா
ி
ு
ก
ข
ค
ง
จ
ช
ด
ต
ท
น
บ
ป
พ
ม
ย
ร
ล
ว
ส
ห
อ
ะ
า
เ
แ
โ
ใ
ไ
་
ა
ი
ᄀ
ᄂ
ᄃ
ᄅ
ᄆ
ᄇ
ᄉ
ᄋ
ᄌ
ᄎ
ᄏ
ᄐ
ᄑ
ᄒ
ᅡ
ᅢ
ᅥ
ᅦ
ᅧ
ᅩ
ᅪ
ᅭ
ᅮ
ᅳ
ᅴ
ᅵ
ᆨ
ᆫ
ᆯ
ᆷ
ᆸ
ᆼ
ᐅ
ᐈ
‐
‑
‒
–
—
―
‘
’
‚
“
”
„
‟
†
‡
•
…
‰
′
″
‹
›
※
⁄
₂
€
₹
℃
№
™
←
↑
→
↓
↔
↗
↩
⇒
∆
∈
−
∗
∙
√
∞
∼
≈
≤
≥
⊕
⋅
─
│
└
═
█
■
□
▪
▬
▲
▶
▷
►
▻
▼
◄
◆
○
●
◦
☀
★
☆
☎
☺
♀
♂
♡
♥
♦
♪
♫
✅
✌
✓
✔
✚
✦
✨
✿
❄
❗
❤
➖
➜
➡
➤
➨
⟹
⠀
⭐
、
。
〈
〉
《
》
「
」
【
】
あ
い
う
え
お
か
き
く
け
こ
さ
し
す
せ
そ
た
ち
っ
つ
て
と
な
に
の
は
ひ
へ
ま
み
め
も
や
よ
ら
り
る
れ
わ
を
ん
ア
ィ
イ
ウ
ェ
エ
オ
カ
キ
ク
ケ
コ
サ
シ
ス
セ
タ
チ
ッ
ツ
テ
ト
ナ
ニ
ネ
ノ
ハ
ヒ
フ
ヘ
ホ
マ
ミ
ム
メ
モ
ャ
ュ
ョ
ラ
リ
ル
レ
ロ
ン
・
ー
ヽ
一
万
三
上
下
不
与
世
业
东
个
中
为
主
么
之
乐
九
也
买
了
争
事
二
于
五
交
产
京
人
什
今
他
代
以
们
件
任
会
位
体
何
作
你
使
供
保
信
元
光
免
入
全
八
公
六
关
其
内
准
出
分
划
利
到
制
前
力
加
务
动
動
化
北
区
十
单
南
博
原
去
县
及
双
发
取
受
口
可
台
号
司
合
同
名
后
吗
周
和
品
哪
商
器
四
回
国
图
國
在
地
场
坛
城
基
場
外
多
大
天
奖
女
好
如
娱
子
字
学
學
安
官
定
宝
实
客
家
对
将
小
少
就
展
山
島
川
州
工
市
常
平
年
库
店
度
建
开
式
当
录
彩
影
很
律
後
得
微
德
心
必
快
怎
思
性
情
想
意
感
成
我
或
户
所
手
打
技
投
报
持
接
提
收
政
教
数
文
料
斯
新
方
无
日
时
明
星
是
時
更
最
月
有
服
期
木
本
机
来
東
果
查
校
格
業
機
次
正
比
民
気
水
江
法
注
活
流
海
港
游
澳
点
無
然
爱
片
版
牌
物
特
王
玩
现
班
球
理
生
用
田
电
画
界
登
白
百
的
目
盲
直
相
眉
看
県
真
着
知
码
示
社
神
票
福
科
程
空
立
站
章
第
等
算
管
精
系
红
线
经
结
网
美
老
者
而
肖
育
能
自
色
花
英
行
表
装
西
要
見
规
视
解
言
記
語
计
论
设
说
费
资
走
起
足
路
身
车
软
载
过
这
进
送
选
通
道
那
部
都
里
重
量
金
钱
長
长
開
間
门
限
院
集
電
霸
面
音
题
食
香
马
高
龙
ﬀ
ﬁ
ﬂ
！
（
）
，
．
／
：
；
＞
？
＼
＿
｀
､
ﾐ
ﾞ
￣
￼
🌊
🌸
🍀
🎉
🏻
🏼
🏽
👉
👌
👍
👏
💕
💖
💗
💙
💜
💪
🔥
😀
😁
😂
😃
😄
😅
😆
😉
😊
😋
😍
😎
😘
😛
😜
😦
😭
😱
🙁
🙂
🙄
🙈
🙌
🙏
🤔
🤗
🤣
🤷
##i
##n
##d
##e
##r
##m
##l
##o
##u
##h
##a
##f
##t
##s
##g
##p
##v
##w
##k
##z
##b
##c
##y
##7
##9
##3
##5
##6
##р
##и
##в
##о
##д
##ß
##q
##j
##®
##1
##4
##2
##0
##x
##ᅡ
##ᆷ
##ᄀ
##ᅵ
##ᄅ
##ᅳ
##™
##©
##æ
##ц
##е
##п
##т
##ь
##с
##я
##8
##−
##н
##¨
##€
##ل
##ب
##غ
##ي
##ة
##ᅥ
##ᄂ
##ᆫ
##ᅦ
##ر
##ع
##ه
##ف
##ح
##¢
##½
##ı
##ф
##б
##м
##¤
##ェ
##リ
##オ
##´
##±
##า
##ม
##เ
##อ
##ล
##😍
##😘
##ˈ
##ラ
##ル
##а
##л
##い
##っ
##て
##ま
##す
##か
##к
##˘
##ا
##ش
##و
##ن
##œ
##א
##ו
##ח
##ד
##ג
##ב
##ע
##ת
##¬
##ว
##ย
##ด
##ค
##ร
##น
##แ
##ง
##ท
##พ
##α
##ρ
##κ
##ι
##ν
##η
##σ
##ל
##י
##מ
##פ
##λ
##ε
##θ
##ο
##ς
##ﬀ
##ک
##ت
##マ
##ー
##ニ
##😂
##у
##ы
##£
##з
##フ
##ム
##º
##ł
##🏻
##ה
##ɔ
##ː
##♥
##ᅩ
##ᆯ
##ᄆ
##ᅧ
##ᄉ
##г
##م
##ч
##і
##µ
##¹
##ﬁ
##˜
##ی
##👌
##く
##こ
##と
##を
##ト
##ロ
##♀
##د
##ø
##ђ
##☺
##τ
##ψ
##υ
##カ
##ス
##ґ
##✨
##ð
##🙈
##●
##щ
##х
##ə
##μ
##ω
##ッ
##ン
##њ
##×
##へ
##ア
##→
##ك
##π
##ѕ
##س
##ث
##も
##の
##さ
##ᅢ
##ᆨ
##シ
##ク
##タ
##る
##に
##≤
##♦
##エ
##ち
##³
##ヘ
##ﬂ
##һ
##ป
##ʻ
##ハ
##÷
##¼
##џ
##ん
##²
##ᄒ
##ᅪ
##ᄃ
##イ
##は
##ो
##テ
##コ
##כ
##ס
##ר
##°
##ɛ
##ſ
##ᄑ
##ـ
##ز
##❤
##ி
##ா
##ж
##ɪ
##ɡ
##ƒ
##ɑ
##ј
##ש
##ט
##γ
##⇒
##あ
##た
##ᅭ
##ᆼ
##ツ
##え
##な
##う
##ʼ
##ᄌ
##ᄇ
##ק
##😁
##स
##ा
##य
##न
##し
##お
##れ
##ら
##δ
##🏼
##😋
##ق
##キ
##👏
##ि
##ल
##र
##จ
##ห
##🤔
##🤷
##🏽
##き
##ᄐ
##ى
##ז
##ם
##β
##ص
##ʒ
##ข
##ส
##¸
##ʃ
##─
##｀
##ต
##บ
##ะ
##ج
##क
##ช
##ก
##ヒ
##ウ
##😆
##└
##⋅
##נ
##گ
##ю
##チ
##レ
##∈
##💗
##ﾞ
##メ
##モ
##や
##ন
##র
##😉
##👍
##¾
##த
##க
##ு
##ம
##ュ
##🎉
##ケ
##ш
##♡
##∼
##ո
##ա
##ն
##サ
##ᅮ
##ᆸ
##þ
##≈
##セ
##≥
##😅
##प
##द
##ी
##व
##🤗
##ᄋ
##🙌
##¦
##ट
##★
##め
##ミ
##🌊
##😃
##ი
##💜
##💖
##ذ
##↗
##ネ
##ך
##ি
##ض
##ィ
##¯
##🙁
##ब
##ग
##😊
##よ
##💕
##ャ
##φ
##ˆ
##▼
##đ
##ホ
##み
##χ
##є
##خ
##त
##ে
##け
##🔥
##ξ
##😱
##э
##ა
##ء
##ظ
##म
##ր
##👉
##ʿ
##💙
##➡
##য
##া
##ᄏ
##ไ
##⠀
##ナ
##ョ
##↑
##ъ
##ひ
##り
##ŋ
##つ
##═
##ব
##🍀
##☀
##ן
##わ
##ใ
##โ
##😭
##ʺ
##ط
##😎
##ह
##✓
##ত
##□
##♂
##↩
##ᅴ
##😀
##ª
##צ
##پ
##⁄
##ノ
##√
##そ
##ক
##💪
##ᄎ
##✌
##∙
##ζ
##❗
##│
##˚
##№
##▶
##∗
##✿
##∞
##◆
##✅
##ज
##❄
##ͼ
##🙏
##ʊ
##✔
##ʾ
##🙄
##℃
##￣
##ヽ
##⭐
##☆
##▪
##►
##₂
##せ
##😄
##↓
##←
##▷
##¥
##श
##∆
##▲
##➤
##♫
##च
##🤣
##♪
##😜
##█
##☎
##ᐅ
##￼
##◄
##■
##✦
##▬
##ﾐ
##🌸
##↔
##＞
##˝
##ϕ
##▻
##🙂
##😛
##○
##➜
##◦
##⊕
##➖
##➨
##₹
##✚
##😦
##⟹
##ᐈ
##ch
##in
##te
##nd
##he
##re
##ie
##on
the
##es
##an
##it
##or
##at
##le
##ge
##is
##ar
in
##al
de
##as
##ur
##de
##ing
##ich
##me
##un
##st
##se
##ve
be
to
##be
##ro
and
of
##ion
die
##nt
##ne
##il
##ter
##ra
##ic
##us
und
th
we
##ine
##ut
##ten
re
se
der
##ol
##ig
##ke
##che
ge
##ir
st
##ung
##om
##ou
an
al
##pe
##rs
##gen
au
##fe
ha
ve
##ot
##ce
he
for
##nde
##la
##ly
is
me
##ct
so
##we
zu
##ation
##am
ein
##der
eine
##ber
das
##lich
##ren
##ze
un
##ach
pro
sch
##ah
on
##ts
mit
ne
##au
ver
##lo
##ay
that
er
##im
##ith
im
le
##ver
mo
##ck
##ru
with
##den
##ul
##icht
you
##ate
den
it
##ri
auf
as
##ad
##rt
##chen
wh
##est
##ow
##ue
fur
von
##our
or
ma
##ben
pe
ist
##os
##id
te
##and
ab
sie
##ll
##len
##ill
##ment
##sch
##hr
##ive
##nen
su
was
com
##men
##ind
con
des
##ort
aus
##oo
##kt
##ld
##ite
wir
##um
##ab
ex
es
are
##ist
##her
sp
at
this
ch
##res
##ann
##ess
##sen
20
##ft
##ier
##ht
##art
als
sich
##op
man
##ag
sh
##rie
nicht
fe
##ide
##mer
##pp
co
##hen
no
##ed
##ted
da
auch
##th
##rom
ho
dem
##ant
ich
do
your
##ity
##all
##if
##ger
have
by
not
##ner
am
##iv
from
##ust
##ste
vor
wie
wer
ih
kon
##ler
all
nach
##ies
wor
##ib
##liche
will
can
##age
##are
##ial
lo
##pt
##ast
##one
##for
##ungen
ges
um
##ard
##ser
uber
bei
##nden
en
##ug
##ran
##ure
li
##ken
ad
sa
ke
##und
##uch
##iel
bes
##ang
201
but
oder
hat
##ige
##ise
##du
##out
ent
##ice
##ip
##ien
##fen
##ass
ar
##ould
dur
##tz
##ße
ste
##ight
##ungs
##ik
##og
##ta
unter
je
##ual
gro
werden
po
her
##ile
##red
sind
##ma
##per
##igen
##ks
##ions
##co
my
##ns
up
##ree
tra
##00
##hal
##ia
res
mar
comp
##lie
##lt
pre
they
##ub
##nder
has
##ud
##sp
war
ze
##oll
##ase
out
##king
wo
ac
##ischen
fa
##wer
##ther
us
##ry
one
##ap
pl
dass
##ges
more
some
if
go
la
##able
##ische
##ff
our
mus
wen
##io
ta
spe
##form
##ical
##ire
##ahr
ro
wird
##ute
##ild
##ance
##ime
new
##zen
his
their
fin
bet
##tel
durch
##fer
19
einen
##ack
also
wur
ye
##iz
zum
per
##ick
aber
##ction
##iche
vers
##ain
##ations
inter
bo
einer
there
##ore
dis
kann
zur
nur
##its
##ong
diese
ce
##ange
part
ihre
about
kom
##tt
##isch
##ings
##iten
who
inc
which
pla
##uh
noch
##qu
app
##ood
##rit
##tra
use
einem
##cht
wa
cl
##ition
##ame
kn
##ress
##ms
##ha
##iert
##mp
##ult
##rei
when
##ffe
ser
time
see
any
##ac
##wo
pers
##igh
##ian
bee
ph
##ook
like
wenn
##rin
##atz
what
##ated
haben
year
##lichen
##uck
##to
##ary
qu
##ven
sy
##ating
ind
##les
##ign
fra
produ
##sel
bis
##land
ande
##low
##ord
##je
##own
##mo
##tes
mehr
##tet
alle
##hn
ag
##lle
reg
she
seine
just
af
imp
##nts
##ally
ob
##ker
get
over
than
##ppe
##aft
other
##line
##anz
##amp
best
##reat
dar
##ors
col
##ays
lie
##cess
fir
sc
##iter
rep
fre
##uss
jo
##uen
##unt
them
konnen
##el
##zu
##lic
##led
inte
##ize
##ause
been
##ieren
off
##ins
may
ever
mon
unse
vie
##ph
##mal
had
##bs
##gt
##geb
##chn
##cial
hel
were
would
aut
##up
pol
##alt
wurde
10
sel
bu
serv
par
##rn
##atur
##ish
##af
##mit
hier
##tern
sol
##oug
##ose
##utz
min
ers
##stand
##ans
art
ins
gu
schon
dann
du
gen
et
##ahl
how
person
uns
gra
expe
##ble
##ys
##net
whe
gesch
##ces
bec
deut
inform
##arbe
##ude
##ful
##ory
med
##ters
##gra
##gan
fl
##los
##keit
fol
##lin
##ibt
##iss
jah
pos
##aus
##od
##ls
##rer
##neh
hand
200
sein
its
##olog
peop
hin
##ments
##ale
##ound
these
gew
act
people
##ak
into
##oc
ide
prov
car
##att
##ho
cont
most
first
##ned
##roug
bef
star
bra
##inen
##tzt
##mber
zwe
sehr
make
##gel
well
fun
gru
need
rec
every
bl
##nis
##ric
##als
know
##orn
##ßen
##assen
##bst
##cher
wieder
che
incl
##rat
only
ihr
sex
##ons
soll
comm
##rent
unde
bere
ele
##auf
viel
##ked
back
##unden
##ink
online
after
erf
work
inst
##dem
pa
##llen
dies
down
kle
##bar
zeit
##ese
br
bus
bas
##ket
##int
tran
fam
immer
##rough
beg
ass
exp
##acht
##wn
##cts
don
mal
information
through
##kom
zus
dam
very
prof
##xt
##et
##ps
stra
under
##ates
##day
##ily
##mt
eur
##ath
##bur
now
because
12
##heit
add
arbe
##ative
##wie
##ron
syste
##ied
high
mich
##ved
land
##ye
18
eng
good
dire
##aue
home
pra
inv
cons
##vent
supp
einf
gegen
##ious
two
##zeit
##ving
many
##wa
##itt
##ning
##ough
##iger
dif
mir
stand
techn
##nds
then
na
dec
pri
fil
free
##war
##sche
##hl
##ational
##inder
dieser
##ktion
hol
##itat
15
##pl
verb
even
find
natur
blo
vom
sin
gar
##schaft
oh
pr
##li
##uf
gef
##tent
habe
gibt
##ities
way
loc
##halt
hal
char
##teil
##tell
##med
ja
such
ber
where
wel
##min
ter
day
read
##man
##vor
##igt
##oth
sm
could
sk
##thing
stud
##ular
##ga
##kte
##unde
##was
cre
##no
bro
##sed
##ider
world
him
ca
##ption
here
help
el
##bei
sim
##iness
11
##ced
##iner
##osten
##ible
##ices
##rien
gut
##bo
years
##ank
said
##gend
##leich
##va
##ded
kl
ange
##vers
bre
##ics
ra
emp
##ous
ant
##isten
##que
qual
end
tur
tre
##ep
selbst
##ures
gl
##vie
##kel
pub
##cken
##ific
##uer
##ix
##ility
sur
form
ap
##ister
##gs
##ruck
##cted
great
##ina
vis
life
progra
##ros
##wor
##arch
##round
tag
kur
did
business
##ient
rece
leben
##ichen
proje
##ues
weiter
real
hatte
should
mog
##pen
site
ger
proble
##adt
jahr
##asse
keine
##mm
much
unsere
acc
versch
##nehmen
##velo
##act
made
##fl
##ves
##sten
30
compan
##bers
##ium
##lung
while
chr
mat
loo
##ward
##ool
top
pat
hoch
diffe
##pro
mot
team
##ty
konn
##weise
##cri
##reich
##halten
service
too
eige
plan
take
##ierung
##hip
##cy
##mb
##kl
being
##ict
spa
want
teil
develo
geb
rel
trans
##cke
doch
far
frie
bed
beim
requ
ganz
##urch
sing
##onde
ty
men
##ple
lin
again
##issen
show
system
before
##ats
##ivers
##ammen
##ull
##sent
count
ohne
son
wah
zw
##ited
##fall
##chte
akt
vide
2018
kosten
##ade
##ucht
those
siche
16
##ining
set
cor
does
organ
cur
vol
##une
cal
verf
##aut
eines
14
cas
love
win
##iden
spie
##vel
##ined
##uhr
bar
right
##tre
cle
var
##unst
cour
ed
##ils
wee
used
##aten
bur
got
each
bit
play
includ
##way
sta
##gru
fran
##alth
##ually
##ution
##kes
ple
fall
##ndern
##lage
commun
mode
große
weite
##bel
zusammen
dat
##ries
gener
##tsch
sowie
damit
##ital
post
rest
##wee
state
##ouse
lang
moglich
sub
17
last
start
design
13
bla
zwei
einfach
##ctive
##ds
kinder
give
spiel
##na
##aum
##ichtig
besch
eas
schne
##hor
tru
ihnen
wal
##ntlich
bie
##ives
##ped
dra
experien
colle
tro
##ism
rese
long
offe
000
num
school
provide
webs
los
dating
really
##nah
deutsch
##ages
##hed
##ness
care
lar
muss
##use
daten
seit
comple
##zer
lu
jetzt
##ling
dabei
##self
##allen
di
##igkeit
100
child
website
sit
think
etwas
##ierte
har
fru
meine
##det
ben
nor
mens
##ween
val
welt
euro
viele
market
erst
##ws
##gesch
##iß
##ane
waren
##ident
diesem
##ding
still
##zie
##imm
book
##kommen
dep
##ware
##uber
##bes
dist
##dern
##ichts
web
##fin
mil
opt
##ichte
denn
menschen
##onen
both
##fa
health
gese
bin
lot
ihrer
nun
##ners
intern
##burg
abs
##gar
##unter
main
##rage
around
##gest
wurden
##tens
pass
place
effe
##ather
##ral
25
own
adv
different
ev
sicher
##tro
##ahren
anderen
##ason
##hol
neue
##rate
##ogra
sec
##imes
##bt
ju
##con
##mar
grund
mill
ear
##ctor
##ession
between
##fort
##load
andere
tri
look
##ome
##ically
geme
dieses
sign
##fur
##terial
alles
ihren
conta
aller
gr
sal
christ
class
##fle
sche
groß
nie
##come
univers
same
feel
cust
##ized
##ring
found
anal
lear
##stell
group
priv
finden
##nded
##vail
big
ko
run
using
##arbeit
develop
##piel
##asst
stude
going
konnte
##ways
zwischen
##ster
##nerg
##ruf
machen
sto
##less
mein
##df
##icher
##ka
ll
test
internet
sw
belie
erfol
em
ur
during
##ffen
haus
kind
pay
fest
schw
##other
hist
##sta
##meric
say
besonde
sen
manage
net
##igung
wol
services
50
avail
##ton
prin
process
company
##cc
jed
pop
air
invest
##ature
##nung
##dy
litt
since
##immer
##rest
disc
hum
geht
inf
dri
##gle
jahren
bund
##ino
##ba
entw
##ivid
fo
polit
americ
##pre
famil
phot
little
##wert
ausge
##fuh
##par
##gang
appro
lau
data
##rend
##schen
kar
##ration
bil
##get
eben
heute
schu
name
mem
##halb
power
wind
house
##hers
ret
let
without
sam
##lose
perfe
##lau
things
sl
ka
ir
##ischer
three
##ology
support
old
family
ble
cent
import
ba
##uth
beste
199
water
lassen
##richt
##licher
stadt
hard
##ames
energ
##ists
##sy
individ
super
##kon
file
come
month
fuh
##zent
##ired
including
deta
##ln
dan
##ßer
follow
##afts
put
dazu
flo
##jo
partic
conce
bereits
gem
##ches
prote
short
sollte
few
available
2017
live
port
descri
another
resp
gol
##rein
wirk
##kan
##vol
##zug
##ichten
##orth
##iving
full
##ides
poss
mas
ru
city
cond
deutschland
##zw
sondern
##bl
gleich
download
schwe
ken
##ged
build
##chten
try
bild
##az
indust
material
letz
contro
seco
##keiten
based
must
voll
personal
iss
##sto
00
jahre
##ants
est
always
##tellt
gest
problem
angeb
##geben
game
contin
video
pres
##ash
##ilt
conf
beh
24
##ator
##stra
##uren
experience
public
gera
begin
never
##lag
keep
##forder
##itz
##read
##ars
ans
leg
unternehmen
jun
mag
hotel
pdf
##luss
face
##ione
quest
##raft
special
number
bal
##ume
tr
vo
spec
##inal
cert
##ross
##ahn
##wend
##ierten
kor
single
soft
next
##auer
room
##orts
##iede
something
##ppen
nut
##rag
head
dr
fot
better
##bild
##ctions
call
ersten
##ights
##hing
##lagen
##ines
##uten
##angen
dort
##mann
dir
weil
wissen
small
##wed
##bau
##vern
##tag
include
frauen
profession
mind
dre
howe
program
rele
looking
change
rad
mann
##ting
##tting
##uche
##urs
tal
sure
##tal
however
cap
##ris
##uß
zuruck
##ished
wohn
seiner
today
cost
opp
shop
##ots
meet
rech
##och
hy
##duc
##wir
why
außer
hil
##uchen
dav
##ield
##let
##berg
##feren
order
fast
##ipp
desig
able
sor
beis
orig
##view
uhr
dig
bau
welche
access
week
stre
exce
women
##tem
lea
##iere
area
arbeit
gel
second
21
##ards
##rsch
please
##unkt
offer
ww
##gese
within
light
might
##cks
##ying
2016
##ision
jeder
appe
event
inde
##uter
verg
##atch
##cu
##maß
ihn
neuen
##fte
meth
mussen
govern
perform
dev
##atione
office
macht
##pla
bad
##kten
incre
national
mor
##recht
open
writ
law
##haus
mult
porn
kunst
##esen
verk
current
oper
important
##oney
##hau
##ilen
##cent
film
black
##rum
##trag
news
som
food
##cl
weg
entsp
##set
##zo
##ift
##ater
##stru
age
bi
ris
##alen
tele
##zahl
##reen
##laub
##mittel
stru
diesen
lange
line
typ
##ationen
drei
kein
social
##ior
miss
einmal
##zel
##zeich
kommt
www
##rib
##innen
applic
less
unserer
##itet
gute
##uge
addition
##satz
days
sport
##ately
unt
##ared
htt
##raus
##ko
research
mer
naturlich
fact
22
ende
##fang
bundes
autom
cla
##ought
mach
##air
quality
##des
sag
hohe
sho
pract
fla
auto
visit
##anze
hor
##amt
##zeug
40
interest
though
mob
wahrend
##ott
mass
##mon
##weg
boo
recht
exe
lead
##isen
##itions
neu
children
##itive
neben
##kun
point
fle
##ionen
##rank
wasser
##book
stor
making
text
##pert
working
gre
blog
seite
suc
lim
check
hour
community
local
##ased
##ache
case
##ball
buch
kunden
large
educ
san
conne
##hre
ihrem
tour
##yer
##ids
region
##heim
preis
having
jan
##ntly
2015
lebens
##nding
date
zahl
kre
##pte
arch
##cing
regel
##mel
##bal
beispiel
beaut
schnell
camp
grow
##bru
red
##rong
music
jedoch
##bor
students
##reiben
hande
##ried
acco
verschiede
gas
##stag
steht
##po
came
enjo
log
##ndet
sty
##tain
verfug
ware
richt
frau
works
bring
times
god
four
understand
ope
weitere
##ders
sehen
gir
fore
##olle
against
##pie
ident
stat
##fah
##lish
##lated
cen
rund
pain
allow
##leb
##ination
non
once
##ified
einge
##pers
geh
tas
##rach
activ
##pa
seinen
##wort
##ritt
list
job
money
##iste
cho
##by
late
side
kurz
##licht
##grund
eing
glo
hinter
##alle
sele
##ca
##mes
verwe
elect
wirklich
##hes
fahr
##glie
away
##kre
##falls
yo
##ringen
frei
management
complete
##work
##tee
##zial
impro
##ience
europ
##icke
mittel
unterst
near
##nahme
dafur
##rid
band
allen
easy
untersch
course
level
##bed
##ril
##row
##cker
konta
##orf
##utzt
minute
##aufen
##ront
west
wohl
ot
control
23
kommen
##so
allem
ansch
equ
gerade
##ograph
development
##ommen
body
##bend
##ably
night
fut
sei
##iet
##iges
cou
##roffe
rom
##mog
max
##altung
bill
##vo
software
international
safe
erfolg
dom
2014
fach
nichts
along
##ization
##ließ
story
past
trad
ga
stell
schul
##room
##gether
##mat
products
##mas
##druck
nove
schla
##ample
sil
##immt
##icle
##ley
zie
##com
white
page
ihm
fund
##ique
##ahlen
project
emplo
university
park
ruck
##cle
##dings
unser
mid
entsche
direkt
##anne
aktue
rechts
großen
einige
##iety
success
##fuhr
compe
##fs
met
phys
aug
aust
##pr
maj
funktion
receive
##iver
thing
key
aud
##hmen
##zt
##ife
schwar
##ird
##ability
##bere
##anger
often
dich
##ober
mail
together
##setz
ow
##tellen
##fol
goo
##aring
human
gerne
besonders
until
low
##auen
##ffic
fig
stop
direct
country
remo
##ultur
occ
mad
enter
government
view
##nisse
##schu
##teg
individual
##under
product
sever
bietet
##ury
statt
party
prop
##lass
##ney
ero
##reg
berlin
bene
##rigen
heraus
##zimmer
eg
##50
del
##oci
##ults
euch
enjoy
mut
media
extra
fr
amaz
##hang
general
left
treat
informatione
dro
tun
wri
bzw
informationen
search
kleine
##mun
foc
##ugen
vielen
arbeits
##ille
schl
##redit
cr
ham
prom
partner
##ok
mean
##opf
interes
vi
##aften
pur
##20
mess
situ
transp
##werk
perfect
tell
associ
einz
oft
present
leist
training
move
instit
##gabe
american
einzel
tw
##nov
2013
members
ub
##nst
cra
##itung
##fel
##lauf
##anzen
sound
bel
##ording
##pel
##inn
##ured
hau
mun
ang
##ows
##atures
ol
author
led
defin
strateg
several
##kers
env
needs
november
sn
mochte
##aug
platz
wichtig
ment
198
propert
certain
##fic
##here
kit
##anst
liegt
called
folge
wollen
ema
account
ort
##ulation
vir
table
method
tool
allerdings
weiß
done
jeden
ober
disco
##ests
bede
##geme
wei
tradition
getting
##legen
erste
##stellung
hatten
redu
charac
price
vier
kam
##tte
fit
##band
description
personen
##fre
possible
##conom
##ften
friends
##bie
center
##aye
##reche
ban
##wohl
que
##ised
wide
engine
following
##vious
prob
##imal
##rieb
60
become
##hlen
major
publ
report
##ptember
ach
geben
musik
##ison
retur
26
europa
stehen
fah
pan
##gress
september
seiten
makes
28
states
##ones
##rich
##kunft
##reichen
create
bab
offen
frank
etc
genau
obje
content
others
##mend
phil
##seite
whether
2012
sour
geld
absol
##tschaft
stu
polic
##yn
means
##ission
enough
##ched
econom
pict
psy
##leicht
tar
##iron
##do
jewe
position
op
google
computer
ren
dru
##ller
ged
kir
##ikel
actually
##utzung
##gaben
##pf
mic
wall
series
##ips
##bil
woche
bilder
kla
share
tit
upd
mod
sat
27
secur
abge
jour
##wal
pack
##oss
##aur
erhalten
##riff
yet
press
bitte
##hin
plat
continue
##reiche
quick
ep
letzten
space
wenig
besten
##ills
##ahrung
cop
turn
rich
south
##iting
stellen
uk
##iful
aufge
clear
din
interess
##ready
kostenlos
environ
clean
didn
relations
##cil
erw
##schutz
club
paar
peri
close
##wers
##atter
already
tax
rein
sha
verl
doing
gab
deutschen
##ither
ak
bank
known
wun
least
tee
seinem
says
original
absch
private
gemeins
study
etwa
ill
card
darauf
history
instru
standard
##wards
init
particular
##heits
contact
mitglie
august
buy
bor
tv
entwick
##raum
##othe
sum
manner
gehen
jugend
##ging
friend
cut
pf
beiden
zusatz
##iding
result
april
##ckt
watch
due
##hand
##artment
hope
psych
hig
everything
thought
##ians
fort
##schaften
bek
##iker
##wahl
happ
##ote
denen
comb
01
##gor
deine
bru
install
##nehmer
gene
pun
##bach
##ortun
##vents
cy
organis
sogar
##chs
##ief
vielleicht
histor
##nit
ziel
color
technology
front
song
ref
opportun
##arbeiter
beautiful
##ku
##agra
##por
range
games
features
31
pie
##ahlt
season
young
version
across
kontakt
abo
##feld
cir
ful
early
##punkt
verein
##gestellt
moment
##yers
clie
freund
liter
verd
north
box
example
learn
reason
beach
conte
chance
chang
thema
##nes
field
according
road
future
##hop
stay
fragen
##utions
comes
tat
##ras
professional
##cture
unbe
record
innen
winter
type
##rau
gold
http
kat
hon
finan
later
##side
hom
living
lasst
##rab
programm
insp
modern
energy
##rieben
require
purch
##bet
##kar
value
sau
commit
soc
raum
herz
##uhl
invol
bon
##sa
ann
marketing
##kannt
given
united
sud
sens
zwar
##ahmen
extre
email
common
below
unterschied
casino
bieten
restaur
qualitat
further
building
repre
idee
##most
daher
respons
hot
att
##org
schle
million
##ror
performance
education
##aders
among
##hren
janu
div
bir
##ams
beruf
##ike
29
2011
gemacht
##bare
size
plus
russ
eigenen
someone
wert
##oren
##itor
altern
guide
##tend
richtig
environment
won
davon
liebe
produkt
##weit
fire
results
##osed
##liver
##av
##inde
challen
hab
trotz
digital
##fern
president
link
##wand
##urance
rema
##isches
bud
tem
systems
details
spielen
industry
##ify
security
frage
benef
##osp
##sehen
besser
heart
##usse
##ula
kaufen
##ference
inner
unseren
##achst
yor
##go
option
##inander
##ints
started
##serv
##gn
self
consider
brand
##llschaft
beit
vertra
##verage
ok
ii
issue
##ingen
##hle
sollten
term
user
smart
lab
##ktur
bew
admin
doesn
##ond
analy
##voll
##utzen
simp
2010
cook
leider
went
sun
recom
ens
bereich
ten
mark
##ss
beha
finanz
acce
john
total
##amm
komple
##cer
hours
##rift
nahe
five
##gegen
took
##stadt
ansp
links
##ziel
kleinen
meiner
##fla
##itze
197
integ
##quen
##zieh
base
rat
writing
##port
##lichkeit
alte
above
##bert
##zept
cm
innov
##ances
##pect
##lling
seen
jud
##ismus
cell
pal
##ulture
##val
##ush
automat
80
##ony
displa
review
kr
##itter
gle
##ließlich
##rech
elekt
##cially
motor
##icken
offers
word
europe
stree
months
note
woll
##rad
##phone
##idung
board
style
focus
##ret
wes
reise
##yl
moder
##10
dou
green
videos
period
companies
amo
potent
whole
##kle
##legt
prozent
arm
##ums
ut
##ledge
deal
dank
##fon
eigen
taking
##ager
##weis
relationship
cover
kil
##mals
gesund
fas
strong
mitt
##leg
##iled
##rige
eigentlich
atta
paper
everyone
eu
alt
haupt
specific
college
dest
foot
thanks
daß
##ira
meas
temp
optim
findet
konnten
##mand
step
wonder
##ologie
jul
##ford
deter
schreiben
suche
##liches
ital
rot
pare
##lam
subje
cause
zent
simple
##zz
daruber
##ional
unserem
believe
##iven
artikel
yes
ball
##acy
tor
dad
##idence
store
sug
##ama
kap
##wohn
gluck
events
action
dun
cann
kra
korper
partners
thin
##gl
##ising
##fert
idea
500
rahmen
##auft
##nahmen
code
address
90
##platz
facebook
property
half
prem
coun
##met
mitarbeiter
porno
##klar
question
church
##gu
reading
effective
mehre
##ping
veranst
##oph
books
image
either
agree
##ires
nehmen
ess
various
zug
nord
##lese
##buch
oct
anything
drin
favor
einsatz
##cting
geschichte
sand
attra
##ients
##bildung
prim
##iben
gesam
##halte
##ana
forder
issues
espe
##orted
alb
##leist
entspreche
##aden
##ases
##fil
##eded
tex
analys
master
##star
insurance
verm
alth
gilt
gebra
mobile
swe
spir
##zus
resour
questions
communic
york
##alten
##ube
deliver
##annten
sites
almost
creat
natural
deren
35
blue
kol
provides
global
##aching
wed
bege
##fully
pen
##mente
rock
##tty
especially
##asing
usa
##bra
contra
##lossen
jap
##ilar
leicht
assist
##lad
##ibility
##atte
model
febru
fuß
stri
coo
##anted
popular
improve
meisten
##chsel
##ada
markt
gal
medical
##hof
simply
ehe
##leben
tage
thera
##antwort
deutsche
exc
third
schwer
quite
##pra
function
although
irgend
##back
##stellen
##bre
policy
minutes
includes
rei
deb
##lor
break
weit
wegen
geschafts
##60
wom
##nitt
travel
financial
mel
##lement
docu
##ci
cat
deshalb
ebenfalls
32
nice
sagen
##gers
70
##aps
##gth
ago
kamp
oster
aktiv
happy
designed
##imate
neg
const
related
equip
##dle
##heiten
fuhr
seri
relig
##chein
##mens
garten
bestimm
##ims
clo
character
##inden
klar
schone
##asent
##ace
##ante
windows
ideas
##selves
burger
##jah
sucht
##stem
holz
mr
halt
kids
thank
##aul
netz
true
##stoff
##vert
##rict
verste
wild
discuss
basis
potential
chem
arbeiten
projekt
phone
weniger
nothing
##icial
rou
ult
##omers
45
##wur
intro
similar
unique
dach
aussch
##akt
##iat
signific
sofort
wil
##abil
brow
court
happe
speed
##ja
##affen
augen
article
rather
##30
##astic
##xe
upon
reme
particip
manuf
##ided
erken
told
gee
nation
worden
hund
##igkeiten
##del
fair
entire
japan
hers
brit
sle
veroffe
aff
##sicht
2009
probably
bekommen
rob
energie
stunden
##kor
problems
mart
constru
situation
learning
network
wahl
application
##ategor
six
required
##aging
blick
##igten
provided
via
##mbh
##usive
ale
baby
def
##unch
ergeb
june
erk
##ival
percent
stock
customers
staff
##rous
moglichkeit
wicht
##80
areas
##bereich
heim
german
previous
langu
##ragen
gesetz
mix
len
##oose
##itar
trying
king
drit
os
##pos
##nal
risk
werde
click
nutzen
##omer
erot
rate
##indung
death
##app
##setzen
##nday
##ming
##ny
pric
track
kitchen
member
allgeme
manufact
##setzung
taken
flug
##welt
ganze
else
vera
minuten
sce
##arbeitung
gunst
final
##fahr
student
außerdem
pretty
knowledge
##stein
kraft
credit
austral
##laden
##sh
neues
necess
wood
gmbh
zeigt
keinen
county
needed
eher
mes
bekannt
##teile
##pol
lib
##chan
street
girl
##flege
kannst
ubers
spater
stuck
estab
maß
##rufen
sales
anfang
tats
erho
ran
kauf
les
drive
##lungs
##lowed
science
inside
##da
ler
madchen
##lesen
ton
located
sonst
anno
##gangen
int
landes
klein
exist
##stead
positive
##annte
##rated
warum
schre
depe
hit
##tragen
hair
wanted
usually
##atten
span
##ification
commer
verschiedenen
hast
##see
jes
##itel
fruh
##male
match
official
##istic
multip
##genommen
essen
##ummer
zudem
sco
differen
##riter
2008
prior
zukunft
##baren
comfort
amount
enc
verfugung
wochen
terms
disk
town
produkte
matter
##cut
##ont
meinen
##tellung
host
rau
##tten
##hnt
source
diffic
jede
customer
##igte
somet
choose
luft
sale
##qual
words
talk
rol
##inger
archite
block
crit
##ranken
jahres
##ffee
coming
difficult
km
##lern
telefon
##orge
kopf
##lei
accom
##zy
enginee
##oten
kne
normal
china
veh
shows
treatment
muse
cross
feature
sommer
##ktione
medic
ask
temper
##kur
approach
betre
##atze
fant
##ands
##ises
instead
department
mensch
##ression
##ode
lad
squ
hilfe
##gehen
fern
regard
achie
##face
significant
sollen
##yed
ways
##arth
christian
anders
nr
##frie
anyone
anbie
##uring
ip
fal
abend
##mission
##12
kommun
werk
ging
mis
outside
held
takes
section
practice
yout
##anken
##bung
smo
advance
verantwort
custom
wahr
kal
send
pc
sieht
mm
sus
exam
corre
transport
alter
grand
stad
vil
english
kennen
added
spirit
##ses
##used
yourself
server
vict
represent
created
soon
fres
##fuhrt
##sweise
dienst
feder
##ael
##ktionen
march
cool
compet
spiele
fix
spra
heiß
veroffentlich
role
##ham
##wendung
entfer
separ
##40
gesellschaft
##ody
##anten
photo
klass
unge
##ndon
administ
island
##uell
deg
eff
familie
##of
bath
ready
##iar
suchen
vergleich
beru
nachsten
oil
explo
##gency
location
##agt
musste
recog
bott
##vered
subst
##mus
options
familien
##zess
##izing
##isse
received
likely
dece
gehort
fert
##ules
feed
##benen
sach
touch
currently
schwarz
##blick
floor
funf
throughout
bleibt
##son
##yes
feh
angebot
sagt
higher
##aren
ideal
##xis
lon
somit
##iff
##tter
sort
ahn
innerhalb
ersch
##hil
sometimes
erwar
alten
junge
seems
changes
##hel
gast
##itch
flex
maybe
shall
besteht
lost
conside
reser
woman
##ites
pil
##ruch
remember
sold
alternative
regist
leave
running
stim
legal
hear
##jahr
##medi
##ifiz
introdu
infl
behind
##ipe
deep
ground
forward
cannot
treffen
mochten
darf
##keh
schutz
##ickel
bevor
pap
##vention
bez
##amb
##hnen
collection
prakt
##mers
##ativ
rent
id
##iken
sagte
##ffer
isn
built
eigene
##iler
erhalt
stren
pas
van
deutlich
sent
##ika
erin
sou
guten
cru
erg
wollte
moun
hauf
internation
refle
bio
write
##arbeiten
summer
##rast
recent
##ables
celeb
##icherung
journal
repla
worth
##views
additional
singles
##chter
defe
glau
##anning
##ios
##standen
##lichkeiten
einsch
tie
osterreich
prasent
doll
regular
##aking
##utt
chat
##ump
##arf
sinn
196
##walt
presen
users
##ological
36
##spiel
london
##ators
##ierungs
engage
zun
##ob
amazing
jedem
boden
written
points
recently
##ieden
hohen
indic
mutter
entwicklung
##ntlichen
##fahren
##11
##het
##riebs
analysis
krie
cand
gemeinsam
expla
##zeitig
##ndel
leaders
##ky
##falt
increase
##hib
fer
july
hosp
##ucher
##verse
##where
##geber
schm
passe
laut
##ml
ord
train
kaum
##stre
##teller
fab
vari
##old
ite
druck
rights
emot
weiteren
corpor
##statt
caree
vert
##spie
michael
##mark
##frei
pul
##reifen
umf
production
anf
##vels
une
exper
##lines
opportunity
##rist
bul
skills
##haft
##lang
empfe
latest
girls
eltern
posted
couple
behand
america
##ki
daily
##stuck
foto
ensure
marke
##fuhrung
pic
asked
##rop
exact
vere
##annt
affe
aufgrund
skin
##nehm
october
##adem
director
##ai
weight
items
sig
mac
##ressed
300
meeting
bewer
##indet
kultur
sozial
okt
stellt
##ichtet
09
meinem
lesen
emer
photos
##icles
wider
##lied
##oud
return
stark
verbes
##leitung
fan
bag
##zoge
gren
activities
ast
weeks
2007
##dien
##ignet
announ
morn
##rief
garden
machine
urs
gott
grat
verschiedene
pick
##aser
looks
##haupt
jedes
sense
##llent
radio
##teilung
haut
org
schuler
eth
language
gegenuber
chair
##isted
rela
employe
##tention
choice
recogn
##usion
conditions
contrib
inspir
plans
pool
round
oben
parts
police
longer
##part
##wood
##lig
##gg
##acher
##meister
##itaten
saw
##vi
lives
ermog
expert
save
growth
namen
##cip
fuhren
equipment
benot
##sert
tools
info
sowohl
condition
motiv
nature
##isierung
herr
zimmer
roll
capt
zeigen
afric
08
bleiben
##ias
##besch
fro
##ground
east
licht
safety
bringen
gebur
bedeute
empf
mechan
door
##achlich
##resse
dop
##ragt
##ivil
##izin
images
expect
forum
spieler
dia
##techn
##zogen
dise
patients
thom
mother
heil
entsch
demon
maxim
intens
##rechen
included
##uchte
07
entste
prep
nacht
apply
##mitt
flor
zustand
sett
rea
##ikation
mee
ebenso
former
recommend
joh
33
##gh
##achse
fans
edition
lower
beweg
entde
investig
subject
fallen
limited
arri
##head
halten
cab
##wick
##asen
station
profit
ideen
copy
hinaus
##fore
##besonde
komb
##bahn
central
finally
ster
sicht
##gesamt
bran
dadurch
essent
##usst
##esch
serious
peter
##besondere
franz
wissenschaft
political
nachdem
jack
bereit
tier
mai
ame
leading
schlaf
zweiten
##pective
morning
projects
tipp
doc
warm
##umb
##range
medien
anim
hervor
##rael
##irt
solche
##bene
excellent
##isiert
##rig
##hy
##sc
insgesamt
academ
plant
born
##pekt
middle
effic
amb
millionen
auswahl
pin
aw
jesus
termin
nieder
vorha
##gende
society
extreme
##hern
anti
amazon
dark
resources
quar
##kommt
komp
release
inj
stress
virt
##rc
steuer
##ndes
easily
nar
##izes
##iction
becom
##ural
walk
israel
munchen
active
myself
falls
rev
tes
solutions
answer
absolute
hands
helfen
##zip
interesting
##lies
appear
morgen
liegen
##vin
gep
##atory
lust
manager
programs
wirtschaft
99
##losen
materials
##rst
berg
##za
danach
mehrere
earth
nam
##ntag
ihres
komment
insbesondere
weise
##uste
weihn
engl
hen
##ico
##uses
tages
##hood
blood
erfahr
##zeichnet
huge
unver
eye
variety
purchase
##kra
sym
##formed
##wasser
##kauf
beide
display
##straße
parents
zahlen
clients
##over
january
dead
pred
##schule
device
plane
tut
movie
studies
privat
##ica
gesp
##nders
leute
fresh
34
distrib
##meld
themen
##cked
gefahr
themselves
hd
quickly
##unts
champ
##zia
path
itself
##itation
sports
gruppe
dessen
outdo
##put
impact
ability
lage
https
ones
##ym
fel
pac
##rung
essential
emb
average
oktober
##lier
##kehr
mc
playing
krit
##24
detail
194
cast
##off
nu
schule
##best
fish
##ctors
wunder
##rial
request
##rschein
trip
lux
bisher
lice
bac
##ories
notwend
vac
##alter
career
nah
fri
loss
##telle
ner
cup
effect
##ktor
##lungen
pet
atm
##ließe
05
##reicht
großer
andre
##uz
##board
worked
highly
##ieg
india
##plan
fine
determ
##richten
##horen
gradu
##umen
mur
##mod
##nty
published
immedi
##ius
##ville
picture
restaurant
condu
dyn
##gie
##ussel
libr
solution
daran
baye
stelle
##fun
flu
hop
levels
consult
##kosten
join
##burger
anze
allein
##ridge
##ndent
lack
providing
hause
micro
player
##itting
players
cases
##test
fash
sicherheit
voraus
traum
december
bahn
03
glass
mention
##utung
paul
berat
dein
thinking
indepe
juni
father
multiple
##25
teams
groups
wand
##ano
hang
platform
##hend
types
countries
decision
hamburg
##ickelt
verwendet
##mor
beschaft
hold
##alu
spo
reich
##pose
lernen
pfl
fat
dog
##18
necessary
resol
comment
piece
##achen
strom
lese
39
##ziehen
trade
cd
##ienten
kan
pu
planning
screen
##genden
fotos
circ
##halts
goes
polize
relev
##agen
2006
album
##wegen
gek
began
minister
sitz
erforder
37
##imin
jobs
##reib
##kraft
jur
feuer
damen
##ida
boy
cookies
##schafts
secret
stage
experi
fuhrt
spot
2000
außen
##markt
hur
wrong
discover
erwe
##tschafts
06
kolle
fashion
cry
progress
marz
culture
david
##ban
apple
pad
02
satur
wish
complex
therefore
suggest
##maßig
spaß
##14
nav
birth
##tete
ps
asse
75
meist
erful
slow
zuge
avo
##py
##15
##gaz
##aded
completely
favorite
##oting
physical
attention
handelt
ost
pflege
##aming
urlaub
fi
giving
##sive
force
proper
unters
sea
##unsch
commercial
##iforn
allows
##ograf
weihnach
38
##haps
intell
##unen
decor
##uel
clin
##ald
##dule
accept
##irm
diag
involved
vertre
##ordnung
##itely
organization
ganzen
##ießen
gets
cit
ly
milit
repub
##cies
applications
stories
fight
hus
##attle
##weisen
leistungs
economic
update
magaz
goal
finde
blut
straße
cash
became
tagen
##richtung
listen
##onse
##tered
capital
zunachst
pictures
##hein
spring
trust
beispielsweise
kos
##ander
decided
interested
04
batter
##box
washing
verz
gives
##bezoge
erne
defen
##iser
##wagen
heav
fac
heißt
##ored
perhaps
cro
##arbeitet
##mi
##ography
##lan
furnit
holid
##pped
storage
alex
reach
atte
##abe
traditional
##amin
transfer
##iro
##bank
eyes
rolle
##bon
verbesser
verlie
imag
##xx
wunsch
##izer
furniture
##ark
benefits
##gleich
##gern
##uelle
kreis
##ague
prices
union
anges
refer
gewor
##itzen
indian
award
av
##hilfe
welches
##usch
hallo
dauer
##istent
subs
erz
bey
##fts
inkl
kranken
##isions
minim
jer
advert
##22
##wirk
farben
ern
betroffe
highl
##roid
##kend
statist
##stu
rap
##iko
trump
jung
##cast
##will
effects
damage
fail
bezieh
costs
kuche
wett
fly
##the
wese
fully
##gro
48
campa
##assung
felt
ros
##rought
repair
##henden
freuen
colla
modell
construction
flie
##ibly
##pri
developed
letzte
eb
flow
##igungs
draw
race
##cover
##ria
investment
double
erreichen
##stelle
unit
desp
initi
##flache
mi
gun
broad
basic
document
##gruppe
scient
dynam
reve
hospital
gran
princip
farbe
hochwert
response
erfahrung
rac
##ault
##forderungen
##gew
kontro
rand
essay
forsch
century
##mental
firm
##masch
##gebung
##wissen
conference
hall
purpose
profess
##ram
glas
suit
haufig
55
##gesetz
river
himself
monat
dum
##raten
thomas
starting
lee
frame
encour
##fahrt
##ima
##immung
halb
las
begle
tod
##aler
dut
places
##umer
excl
uberhaupt
geburt
##body
museum
zusatzlich
##sein
sla
gree
doku
##uchs
##pping
##lled
nen
federal
tim
##nach
2005
regul
klin
genug
behandlung
##oft
gebau
betriebs
##stellungen
gefunden
##wel
understanding
kennt
patient
##cement
##zeiten
thous
concer
##asons
brief
acqu
activity
aren
neigh
195
seem
##loss
##di
adj
print
dry
thus
trotzdem
mu
vit
facil
browser
##16
##mbol
spezial
##19
##verstand
##undert
##arm
liefer
mitglieder
gaste
agent
##bu
##fest
##nete
title
probleme
##ktiv
argu
graph
##ston
##ara
vors
express
origin
##17
##kal
wechsel
considered
bist
budget
generation
extens
outdoor
durfen
towards
directly
##seits
juli
bald
sonntag
angebote
reta
##mobil
finish
associated
proce
##host
##wehr
individuals
growing
influen
##angenen
february
##noch
schließlich
wasn
##atic
ing
cheap
obwohl
gave
kostenlose
lord
konze
convers
bedroom
verle
##lent
claim
fried
##iles
##wise
##peten
49
##13
##zes
execut
stuff
##oms
message
wonderful
gift
interview
##rik
schools
balance
implement
##racht
lauf
derzeit
##ichert
metal
canada
teilnehmer
##fach
##kehrs
jahrh
vehicle
##lant
wort
bay
wohnung
##kreis
##rench
setzen
definitely
moving
garant
ms
hi
##deut
carry
selber
californ
association
jungen
electron
##unge
##schnitt
domin
evalu
belieb
gewesen
##gin
##stande
##imately
wife
workshop
endlich
##nummer
saying
mitte
sozia
##bewer
universitat
##sam
revol
assess
##teilt
##utter
konig
##rant
punkt
creative
sleep
client
chin
exerc
rub
##augh
bonus
welcome
##ques
viagra
channe
pot
##vere
supply
schweiz
400
jeweils
richtung
dien
mindes
successful
gemeinde
philos
heard
frankfur
fou
sell
ht
##klart
ruh
dress
##wh
mission
wald
manch
beyond
nutzung
verh
reviews
150
solid
entwickel
##ago
##dic
##kamp
degree
peace
ring
labor
sonnen
beitrag
tatsachlich
enh
##change
##cen
audio
##ae
creating
promo
##meldung
technolog
friday
micros
california
achieve
##ultural
befindet
##log
##ii
dete
parte
##icks
##fft
##atives
trin
paid
44
certainly
exactly
released
gleichzeitig
tisch
sorgen
ergebnis
##els
pros
##klarung
##gas
##ili
electric
gros
verkauf
prec
##riert
sexy
titel
overall
wein
##ndert
plot
##pack
pages
##aught
requirements
feeling
hell
##pflicht
herren
od
##bi
hei
lots
##seit
european
##antly
##wertung
reported
##rote
##amples
format
moglichkeiten
##yle
anderem
surface
aktuell
status
willi
dip
##using
civil
schaden
jemand
nack
repe
##ivity
estate
friendly
##ya
gain
42
##behor
##chnung
beteil
ont
figure
##gent
dennoch
##itag
annual
praxis
stil
martin
ersche
standards
##hende
##xy
komplett
tried
farb
owners
medizin
helps
epis
grunds
egal
council
##fo
##frist
##volle
illust
loved
##minister
fahren
nutz
coach
initial
##beding
##nem
auss
erfolgt
##ksam
##altet
2019
infe
produce
baum
erinner
rum
protection
erweiter
95
appropri
mindestens
ec
nachste
cam
heat
guy
advent
einigen
shown
comments
jeweil
entwickelt
rules
##rika
##wegs
##uted
193
spend
##ausch
district
played
expected
wait
##progra
##vey
chap
brought
##illing
personenbezoge
industrie
##right
einzelnen
fand
hotels
43
element
voice
measure
##wirtschaft
##dom
evidence
gang
##imed
lay
##rieren
##ordin
klasse
staats
begru
bett
male
advant
compone
besuch
healthy
##70
appre
pressure
##aling
senior
ras
fu
##lassen
meaning
autor
rates
matt
bezug
continu
turned
twitter
bedeutet
sprach
##ers
##gesetzt
bringt
##lu
cancer
knew
correct
##arily
##utzer
wirtschafts
challenge
gele
staat
damals
##pris
websites
mig
uses
symbol
aktuellen
stein
samstag
##abhang
classic
imm
##hner
beginning
methods
wien
versand
##achsen
hyd
##zeugen
##ickt
adresse
##wart
prevent
core
italien
##geln
frem
difference
kurze
ubrigen
##kir
digit
licen
##indest
volks
mont
luck
ghost
surv
komme
semin
ice
gewin
##iling
centre
braucht
erfahrungen
disease
folgen
gefuh
occur
unternehmens
##urer
##auern
bathroom
roy
##preis
einzig
schmer
##produ
##fallen
##zeuge
monitor
trend
##ließen
connect
lake
saison
##opt
anderer
advice
##fuhrer
sky
langer
##pun
engineering
target
deze
library
##schuhe
##geld
unterstutzung
studio
charge
kategor
bow
length
##iment
##mitted
ferien
notice
##hrt
alltag
gesehen
delivery
happen
zehn
pm
##akes
##prise
wetter
##keits
verwenden
iv
reports
januar
pruf
fehler
##gb
##scher
military
satis
echt
models
##dorf
tot
feet
##athol
england
meter
indem
##cm
hub
ship
2004
##rikan
schritt
gesamt
washington
##bing
##akter
hinzu
designs
seven
mini
umwelt
##ienen
##iers
gegeben
##nungs
toll
##nel
gratis
vater
krank
bot
shopping
ere
truly
families
hart
folgenden
uberras
kunstler
util
veroffentlicht
65
##idents
structure
nearly
wahlen
##pm
##wind
durchge
wedding
vorsch
teen
geworden
schrift
homes
truth
##zeigt
songs
empfehlen
mie
##polit
vertrag
dezember
##atzen
sexual
despite
democ
##arma
weiterhin
doppel
##aries
hundred
kindern
statement
tau
apps
preise
french
alone
tips
effort
demand
##wiesen
straßen
wobei
manchmal
##wicklung
tu
brown
##time
##ndelt
##bby
kirche
operation
##nende
sechs
studien
##haltnis
erd
james
##pan
manual
select
opin
spent
##urf
cold
islam
##lers
poly
guar
##ades
##lished
##weile
erfolgreich
##renz
largest
festival
load
appreci
respect
greater
##ado
##onnen
faith
##hausen
zumindest
letter
##osition
income
sunday
erfahren
masch
##ntliche
##hung
negative
daugh
patienten
league
##vas
rain
beauty
##late
background
verarbeitung
##umin
dance
mitglied
fes
##rations
eat
interior
wid
##word
lat
##nsion
wine
interesse
verme
dinge
##hm
3d
bade
christmas
umfang
geeignet
ku
gehoren
jose
##frieden
laws
files
british
##lik
candid
verbindung
##barkeit
earlier
verfahren
##dienst
ker
dv
increasing
straight
generally
looked
saturday
traffic
sicherheits
liste
berufs
wants
sah
##orary
particularly
guys
inne
neuer
lines
vorher
setting
##ari
sympt
weekend
bestat
##ndem
vision
golf
##riften
orient
lou
miles
##las
benefit
nimmt
aspe
##lim
##itzer
zugang
por
##ipping
ausdruck
##reise
##riger
##mitteln
increased
regen
mex
str
caus
grade
gesundheit
offering
##23
namlich
richtige
primary
##amen
polizei
avoid
frag
advanced
##oe
talking
premium
verstand
weather
android
selection
##fuhren
##house
businesses
##hest
geschen
##system
46
coup
philosoph
vielfalt
wahrschein
##ringe
foundation
theater
australia
employees
gesagt
communication
immediately
tragen
expens
anbieter
##aly
payment
entscheidung
inhalt
##aa
wit
western
politik
responsible
leistung
##prochen
betrieb
roman
fens
ae
entry
vio
stur
##garten
numbers
tief
vorbere
##teilen
erhe
##kund
item
diet
concept
##ßt
poor
freitag
devices
##col
ubern
finding
owner
whose
anschließe
accur
kuchen
bekommt
committee
opportunities
husband
starke
flucht
technical
##lation
##imer
mist
fitness
schuhe
whate
established
eight
sweet
47
button
aktuelle
spanne
laye
doctor
occas
##cking
##rates
visual
organiz
cloud
##aster
regional
##fers
whatever
coffee
entfernt
ausbildung
demonst
institute
records
anzu
apart
exchange
##karte
ef
scheint
sad
##zig
##aks
useful
camera
compared
offered
##ona
sogen
serve
vent
resist
evol
##zwischen
losung
arzt
##geschlossen
lif
vergangenen
regarding
offentlich
exhib
schn
dedic
2003
rie
##rian
unten
##amera
iphone
vollstand
##leistungen
##vis
powerful
campaign
views
wire
bb
ausgest
experienced
syn
wrote
strategy
hann
brain
memory
interpre
bottom
fahrzeug
koln
beding
##oon
tin
obvious
mittler
pras
professor
roo
##mlich
ds
spielt
reli
##cape
terror
handy
ther
##kn
technik
##press
geg
laufe
acht
##iki
comfortable
##worten
conc
##aff
agreement
vollig
menge
##zahlung
besondere
shot
kg
##neten
kreat
wear
profile
mobil
afford
teaching
cards
##sex
##osph
##zub
changed
hill
chron
yog
keiner
reihe
unterstutzt
limit
##licken
relative
zahlreiche
driving
gern
##ussen
##istry
einst
monate
drug
wis
##sents
bele
##ierter
heavy
privacy
verlo
tests
gruppen
counter
##uellen
besse
##lands
sout
kee
geist
eroff
mental
verkehrs
twe
agency
arts
administration
##wohner
##wide
frankfurt
raus
grundsatz
drop
hersteller
angst
texas
iron
tab
zweite
rose
mittlerweile
inhalte
approx
graf
quant
installation
##ichter
extremely
##ota
##wig
restaurants
sar
transform
##mode
plug
##lingen
schol
kid
bib
leader
erwachse
gebo
paint
innovative
##kunden
coast
multi
##afft
##miss
enhance
##finden
movement
ine
holiday
orde
cha
##usche
laden
##mack
##iant
aufgaben
##reiber
fahrt
denken
snow
##reibung
##bot
population
tipps
##uchten
rid
republic
##win
##haltung
##rastru
welcher
setzt
beginn
protect
domain
intelligen
appo
samt
gefuhl
umgebung
esc
relax
firma
##works
ven
wolf
dial
erreicht
immobil
dor
##sts
erklart
microsoft
pleas
##anlage
gedanken
##field
awa
##writer
youtube
veranstalt
##ritte
##ibil
massage
cells
##aner
steel
critical
##meter
##well
existing
##uld
##esome
serie
rem
flat
tolle
danke
soweit
##immen
opening
tree
solar
index
##ikum
lehr
##ule
satz
##essen
februar
neur
spread
connection
glauben
##ickets
revolution
executive
besucher
##itiv
constit
prozess
reality
##moglichkeiten
strength
window
medium
characters
salz
dream
strand
##gelt
kop
##ole
erleb
rooms
foreign
##inos
weiterlesen
appropriate
##pts
##teuer
older
paris
ziemlich
operations
dent
metall
gone
reasons
angeboten
easier
kund
##arten
crow
##testen
dee
##alent
##lieb
##ived
ul
independent
ny
mathe
verw
interact
##piele
stone
quarter
##oden
mov
reduce
moved
commission
schaffen
unabhang
##ita
meister
nort
incred
rang
bedeutung
ram
kont
colour
except
distance
64
europaischen
chief
insel
##tempt
mom
robert
nutzer
encourage
franzos
steps
rab
##more
produced
haven
schonen
mul
##stat
prefer
##verfahren
square
goals
marri
map
##forderung
lose
##alog
concl
genießen
organisation
grunde
lag
allowed
datenschutz
##unger
entscheide
##vision
##hi
gelegen
wichtige
##seiten
##spl
couldn
described
seines
secure
actual
##key
breat
mountain
scri
unterstutzen
abwe
gay
object
##iques
##igur
named
sod
##quent
##schein
##hard
nied
hu
signal
chic
guter
##pass
filter
dese
firmen
seeing
spect
mine
##utze
##pal
collabor
recover
dow
jeweiligen
##bew
monday
##ato
langen
##sport
weihnachts
slot
kilome
##ake
passion
phase
lit
##gessen
eis
2002
##sk
hoher
##orial
institution
54
##90
helping
##tained
##hrer
nov
##stor
bern
fruher
##hne
##laufen
speziel
sache
grad
ernst
perfekt
gebaude
gerat
volume
johann
zusch
eingese
quee
meinung
53
##ichtlich
grun
##ogen
##aker
adult
rhein
arab
cars
##ierungen
##netz
jen
darin
erotik
struct
pair
mary
leiden
##sey
fenster
corporate
relevant
gestellt
offiz
##telt
provider
wohnzimmer
erkennen
##bro
##ached
sharing
##run
##roll
##mane
dollar
heut
contemp
freunde
120
seien
elements
verhinder
darum
pharma
##aufer
edge
##rem
jac
##venue
deinen
infrastru
artist
gewahr
andern
##rehen
journey
sets
mort
##bedingungen
fertig
thousands
##mented
conse
surpris
ride
anmeldung
##lery
spons
jederzeit
ahead
##inted
parties
auftrag
otherwise
##quently
lieber
eins
wunde
capac
##ancy
fußball
contract
##daten
verstehen
beratung
##istan
troub
nachhalt
##28
presented
englisch
einzigart
punkte
##vour
funktioniert
wander
seg
warme
verander
direction
##ielt
establish
veget
famous
##gene
cart
sprache
spl
bestimmt
##setzt
wann
highest
##ray
##wurd
cos
billion
designer
##car
gemein
##urt
environmental
##orgung
##itione
karten
konf
mund
zer
##vior
kampf
nein
speak
ledig
daughter
##yment
industrial
workers
farm
concern
muß
2001
died
##stoffe
varian
arz
anc
scale
chinese
##cket
falle
##isation
##hent
##26
##forts
56
announced
##rang
brot
nom
none
completed
loan
begeister
##bit
urspr
##iminal
knapp
beant
zuvor
##utes
##falle
##eds
followed
bestand
##ktions
obser
##verein
lt
football
session
helped
##27
names
##cript
##pted
served
gutes
honest
economy
covered
sieg
compar
##istischen
unless
ehemal
##laubt
##cs
##attet
forms
stick
lands
hero
kredit
passen
##29
##ossen
##aces
happened
attempt
ermoglicht
##gebiet
##ola
anderes
stam
lediglich
selected
##inent
norma
##leiter
tum
##lande
600
stars
unbeding
kurs
##wered
score
bom
##like
liber
conven
tom
versicher
impress
remove
##unft
shel
eleg
##liegen
ficken
##park
verhalten
aufe
ign
entertain
relationships
extrem
shar
fee
cock
zufrieden
stets
##leistung
##stain
##itis
erleben
waste
finished
sprechen
##hold
rezept
##hs
rare
##oma
teach
chef
##hafen
trading
##technik
teacher
##zeichen
beat
battle
durfte
driver
##osing
##richtungen
female
bewusst
mand
bun
adjust
##oles
hans
##gal
##istered
weltweit
##21
enable
posts
85
selten
##ziert
shared
dipl
menu
attor
beginnt
teilweise
stutt
##agram
##itude
bucher
larger
platt
##bern
lady
factors
liqu
##asche
ruhe
starken
##geschichte
werbe
norm
##oul
movies
attack
advantage
html
inzwischen
##isieren
zeich
shape
scene
gepl
##chers
angaben
tickets
walking
rechte
incor
mp
presse
theory
efficient
vorge
contains
absolutely
trainer
ts
##care
kreuz
##verband
zue
truck
abschluss
values
kept
sounds
##zi
##nam
##gart
pieces
dimens
zahn
experiences
##schluss
winning
package
florida
alp
beque
zusammenarbeit
unbedingt
##83
freude
##rd
##zin
##teten
reife
vorbei
awesome
lauft
##zif
exte
africa
specif
umge
##mittag
passt
reze
sugges
leadership
nummer
bache
slight
reference
##karten
blow
kompeten
aqu
keeping
rucken
sinne
##icket
gleichen
novel
##anzeigen
##konta
tech
monaten
germany
articles
##ternal
##zentrum
engagement
navig
ehr
##hauser
georg
freed
fear
laufen
##macht
genommen
ubersch
handle
##flug
sustain
gesundheits
geschrieben
recomme
enthalten
##laren
herbst
hunde
eure
entsprechend
mik
schau
nume
developing
##partner
register
silver
village
##iring
##cel
integr
vin
requires
initiative
mathemat
190
changing
lager
gunstig
bayern
800
compli
##ni
##tere
unterwegs
##nungen
##rale
tan
##page
tochter
richtigen
separate
organizations
listed
cate
taste
permane
##holz
thurs
1000
catch
techniques
symp
##ops
sant
promot
properties
explore
webseite
operating
##bus
##gericht
learned
hilft
##olf
determine
##ierenden
##meln
leistungen
##achers
vorhanden
geburtstag
##liner
##ahrt
##ugh
pull
##ously
##ibe
bese
##peration
##kus
##ulated
stift
testing
resident
vort
schwier
hea
##gesehen
anschließend
gesprach
prepar
evening
onto
bol
geile
wat
haft
ped
250
##mund
authent
moderne
justice
aufs
waiting
montag
guess
versuchen
applied
switch
59
george
##riere
bat
spar
selling
gestalten
ersatz
##uhren
knows
57
exclusive
airport
magazine
##istische
cultural
efforts
behavior
interessen
url
task
reform
competition
##mittlung
##rative
ergebnisse
hoffe
fabric
entgegen
elektron
##dr
compla
gewinnen
##una
##ux
chain
dokument
##ilien
gesamte
ries
##place
58
estim
##angel
vs
sohn
##rome
fallt
##zeugt
anzahl
##peri
##ziell
siehe
anwendung
lam
##iced
kaffee
teilen
butter
diverse
gym
schreibt
enthalt
wouldn
gewinn
schlafzimmer
genu
forget
##treten
antwort
diskuss
feld
aufgabe
personlich
entscheiden
rout
konnt
placed
##wechsel
equal
brauchen
gesamten
diagn
gerate
exercise
maintain
gottes
processing
sorgt
widers
durchaus
smartphone
pflanzen
smooth
surround
##gebaut
buying
passed
##rschaft
cabine
mussten
remain
gewalt
handel
fluss
brother
##licherweise
tues
miner
##gory
lieb
appare
mentioned
##oring
sav
##fit
dinner
spin
plenty
ausfuhr
experts
parent
##rasse
##ferenz
neighbor
auft
congress
kore
verwendung
sonne
##ellen
finger
##osis
ziehen
##hause
pure
deiner
neck
rule
channel
entwe
lovely
villa
##coming
bein
rede
champions
clos
summ
geschichten
##letzt
haup
##denken
gehe
grie
feier
erster
##ifying
hintergrund
theme
##lernen
haar
internationalen
hoff
stunde
upgra
genaus
biggest
gespe
unseres
communities
##programm
marken
notes
gestern
großten
ung
clearly
personlichen
##organ
##gef
connected
hyp
##stud
integra
##tenance
##lager
mg
##fast
legis
nine
medicine
stabil
erforderlich
continued
pfer
##ini
kas
##ality
cleaning
ausland
97
sieben
##unternehmen
##stattung
sample
##ounds
##losung
fantas
sources
pit
thursday
prime
route
folgende
synt
aufmer
karte
purs
##icker
anspru
##loc
##lar
cris
##ierende
##material
challenges
youth
beruck
##menten
romant
genauso
pod
panel
wundersch
poker
kno
ada
anschluss
##dru
dah
dedicated
scree
kontakte
valid
##lous
classes
bright
koo
##cious
ander
wunschen
wettbewer
cri
marriage
##manage
facilities
selbstverstand
##unately
##iation
wachst
##arzt
##volker
prepared
konzent
kunde
ausschließlich
verfol
datab
boot
claims
##har
bestellen
professionals
##igungen
denke
calls
carol
hof
fill
##rable
concent
watching
veranstaltung
editor
##kas
besitz
enco
##has
verbunden
apartment
buh
newslet
moglichst
##rechte
auszu
resolution
religion
ray
democrat
lieben
wahrscheinlich
solchen
logo
##lence
drag
numerous
teachers
##uern
##lock
bought
##pet
##igem
wednes
trave
genutzt
valley
##ost
kleiner
kamera
exter
accommod
##pielt
gemaß
zuletzt
##ammlung
mobel
bike
seat
innovation
uner
wenige
##versch
corner
einzu
animal
##obach
##van
machte
ursprung
stro
dagegen
##orter
##fordert
feedback
komfort
beein
taglich
##hips
programme
##ffel
##pat
zeiten
##ura
##inst
regelmaßig
offentlichen
officer
heimat
shipping
##ystem
##schlag
zeitpunkt
earn
opinion
teile
cs
kamen
##yp
oly
becomes
##sers
66
colors
entertainment
##alled
##cis
180
edel
##utlich
erkennt
animals
mite
gif
tuesday
##bour
adding
irgendwie
eindruck
schweizer
dining
vib
audience
interpret
fuck
##wald
usb
hardware
##99
##krie
sachen
anwend
geheim
launch
erreich
gebracht
topic
versucht
zusammenhang
practices
##pflich
##werke
glad
maintenance
kramp
jahrige
attend
temperature
rene
shirt
chapter
sper
##uts
mostly
slo
##annung
toward
##mogen
aware
kombin
conserv
showing
bod
fantastic
nachfol
bachelor
electronic
meant
helpful
anspruch
schedule
academic
usw
previously
harmon
leip
capacity
##istet
married
filme
factor
delic
schlag
orts
olymp
vergessen
wochenende
untersuch
##ielle
vereins
ubrigens
dub
assemb
fellow
guests
##illa
##88
artists
hos
grundsatzlich
konkre
ox
thoughts
##action
soul
funktione
coverage
schluss
##renn
cities
##proje
episode
chemical
horen
performed
dreh
filled
##okrat
flash
satisf
##beg
##gruppen
becoming
##spra
##taining
sugar
##ndeln
tip
beobach
uberp
rail
plants
##zene
joy
##ester
wednesday
verfugt
bisschen
arrange
actions
occup
maßnahmen
intent
relativ
subscri
sector
tube
maximum
weder
majority
markets
##ued
unterschiedlichen
##ialis
##fra
deck
viol
showed
guard
comprehen
vorstand
plastic
gekommen
policies
denk
division
##verb
integration
technologies
internal
kirchen
personenbezogenen
fotograf
discussion
eating
reicht
##ichtung
army
##orm
readers
##aled
grab
##untee
##rust
##durch
wege
recip
kons
donner
##ulations
managed
amate
meer
##teid
einzige
##aufe
caused
##lah
minimum
gewer
warten
##zeichnung
herunter
stuttgart
ehren
voluntee
##atik
crus
proud
happens
clinical
##werte
##wen
entweder
ss
dritten
##lla
##pu
41
analyt
##uster
##jen
vote
automatisch
runde
kommunikation
han
examples
aufmerksam
##anlagen
##angt
leder
freizeit
##iency
langsam
##trage
##pher
amerikan
thor
boys
magic
opened
##rodu
totally
funda
dela
unfort
betroffenen
besuchen
durchschnitt
##vollen
erneut
besonderen
leaving
writer
studium
xxx
sorry
##wesen
kuh
informieren
cialis
glaube
##setzungen
##cin
anforderungen
oce
urban
##riffen
##tellten
##bruch
elektro
py
presence
exception
geschmack
detailed
##versicherung
##rupt
##freund
tanz
erwartet
eingesetzt
identify
yoga
##rische
cream
ille
approximately
aka
sofern
##kr
##ih
abst
sorg
##formen
ended
alters
va
calc
focused
existen
housing
##iell
funds
stoff
closed
63
quo
eventually
photograph
films
immobilien
coll
##linge
##45
fell
vertrags
entstehen
##unting
gallery
##cas
vern
##punkte
smal
units
orange
appears
mah
bang
authority
##zehn
##kw
seeking
thread
tank
influence
entwickeln
remains
##bb
##hlt
kost
##hafte
wunsche
updated
southern
heiz
anlage
finance
documents
##roffen
nachrichten
##berger
error
absolut
##ingu
speaking
baden
##icip
##izien
climate
##ata
freedom
##othek
verbre
combination
poll
visitors
sonder
thre
##lander
advertising
metro
gross
myster
befinden
##mittelt
distin
argument
bound
diam
##estic
spd
##itionen
veter
silber
##tto
erh
losungen
##ritten
aner
defense
stol
##vit
iran
##riffe
isol
fc
##west
tags
##ulate
notwendig
##rick
registered
verlassen
decide
##ndung
cu
willing
##zusch
wirkung
##tains
species
protein
yel
flight
typically
assistance
spee
##77
iii
mol
##aschen
bewegung
##flachen
massive
##urg
royal
##mach
##rier
loans
resear
rise
smaller
processes
owned
france
plotz
minor
bauen
resource
anzeigen
umfasse
##icking
##schrift
legen
einlad
##viel
erstellen
vorbe
##unehmen
erb
##othera
script
starts
zuerst
arg
##kam
consume
bedarf
##bildungs
garage
##uert
depending
wenigen
zah
##baum
schutzen
##craft
optimal
##wing
inspired
runs
bm
tub
trial
aktion
freien
specifically
provin
katzen
bestehen
virgin
category
verlag
schauen
answers
regierung
uberall
##aktiv
##ju
verstar
##essel
zert
bemer
##syste
portion
dorf
genannt
##rical
##ilder
ah
##zed
experten
bestimmten
inspiration
unlike
dvd
1999
voc
vorteil
circum
eigent
daniel
contemporary
injury
ticket
deinem
##ov
forces
gelo
##anen
stret
slots
african
zut
##rane
wra
suffer
stores
russian
frequen
52
##bels
##ranke
leit
guest
alumin
possibly
suspe
consumer
gebe
##gesellschaft
##usseld
mannschaft
poten
therapy
accident
aid
##othes
##ario
wichtigsten
hey
blau
##far
funktionen
##rating
##losse
##uung
updates
courses
paralle
excited
##ami
neut
##iga
stie
enjoyed
mouth
struktur
beachten
atlant
##maschine
##elle
practical
##vertrag
historical
laun
niemand
educational
religious
verletz
##anke
##chung
covers
rapid
publish
##gangs
residents
wirkt
##gery
nachbar
throw
##cons
##isters
ausreiche
proto
fen
##itten
smith
pink
##halter
begriff
##agog
##ulin
lapt
gesucht
weiss
##iziert
zweck
##laut
drink
##woch
##arian
gewunsch
##iot
##itors
##chester
##uting
context
scott
raised
affili
indeed
judge
##asch
facility
lern
hein
putting
trends
whom
##35
responsibility
fuel
korre
schwa
anth
exciting
standing
tiere
relie
speziell
honor
allgemeinen
continues
donnerstag
linie
##hab
holding
bedurf
asp
frankreich
louis
bridge
turk
##igkeits
consistent
##ooks
quad
seemed
chicago
ghostwriter
##char
dj
beschwer
manche
##rankungen
##mg
recommended
verloren
benotigt
gedacht
##itete
krieg
brun
##netic
awards
##allt
##umm
tea
strategies
francis
charakter
forg
obama
##han
##rees
dres
reisen
label
einfache
dunkel
components
mittels
command
##000
emergency
gesicht
##estyle
dekor
native
##zieren
pattern
gefallen
verbra
nucle
sodass
##iellen
surf
cloth
falsch
jew
##angs
##stal
accounts
deals
##chel
election
##mehr
dritte
ause
##oner
bos
darunter
jungs
fis
##mut
handels
veranstaltungen
schlecht
buro
##chi
selbstverstandlich
##rater
##orie
##fahigkeit
##steuer
expensive
mehreren
mt
aim
##irn
zeichen
enth
##wach
passiert
zahlt
straf
##poses
##frage
distribution
1990
##ox
bear
imagine
virtual
vergangen
##izens
##ested
roof
victor
bevolker
risiko
##spa
fuhre
crime
liquid
literatur
##gebenen
miteinander
lights
inse
asian
campus
##idet
##66
determin
##rete
grunden
##holt
brings
##rischen
##krafte
respective
schwarze
joint
gelten
carbon
bildung
wiki
poet
studie
##mot
comprehensive
valu
schie
doubt
harm
##text
breakfast
##ferences
dialog
auseinander
motion
##verlass
willkommen
dumps
zahlungs
zone
dahin
projekte
verfugbar
anna
kleines
il
durchgefuhrt
##die
recru
auße
##liga
survey
locations
musical
pum
##list
##club
frisch
conflic
##ischem
stream
japanese
##person
expand
pate
incorpor
forderung
bond
##riebe
ib
personliche
##75
reag
##usten
ahnlich
##oster
##usted
emotional
bestimmte
quiet
##management
submit
hydro
sicherlich
landern
push
kant
lud
highlight
hierzu
##sens
horse
forest
canad
spiritual
spending
##igent
##orte
einges
dogs
extensive
##uters
##irs
swinger
math
functions
favour
bug
##usste
zit
definition
1998
##mitglie
anst
basket
verpflich
technologie
##acken
##zwe
planet
talent
remote
kilometer
##bald
cafe
misch
desire
bass
vital
netzwerk
worry
##ansp
golden
##vors
##scht
erlau
##ieten
vul
berliner
allgemein
propos
großes
fees
freie
invent
pus
entdecken
##standing
richard
grenzen
tabe
depos
aspects
recor
erde
##kurs
effekt
zentrum
muster
doors
tap
categor
##aust
##wirkungen
sitting
dates
ermoglichen
purposes
expertise
fests
##itu
goods
renov
kontroll
debt
shops
parking
leads
herum
slightly
aben
nas
combined
pregn
##rence
##phones
##bilder
##gut
leaves
trop
citizens
assessment
##klasse
sab
prasident
experiment
##anda
##oret
##rain
soph
##tert
habt
ließ
krampfa
##appe
##cal
affordable
##raucher
dramat
certific
##bee
eingesch
upper
##33
busy
depth
erotische
decisions
##ieht
clar
circu
yellow
database
television
rs
abe
beziehung
gent
jon
##nissen
##icians
maria
adults
breite
trees
ade
##barer
input
william
werbung
##omen
divers
zuverlass
entscheid
##haber
diesel
##teln
##how
seminar
zuhause
##wissenschaft
##65
spricht
explain
grundlage
sv
##folge
##igned
gate
destro
schnelle
69
worldwide
discip
lived
68
alleine
##boden
northern
##iences
analyse
unmittel
obtain
fruit
attorney
informations
##abilities
individuell
az
##gage
cult
knowing
ech
naher
asking
gri
threat
amp
mangel
linked
scientific
ingred
priva
kabel
##ktoren
bildungs
ira
##unded
schloss
serving
erklar
schnee
pee
hut
##yc
therapie
##ax
surgery
##istics
verp
cathol
fernse
hierbei
zo
ocean
fuhrung
plate
upload
rental
spiegel
produktion
##gets
battery
##nost
klima
fixed
apos
##kunde
introduction
blind
##zustellen
spur
modelle
hearing
occasion
##pper
unterschiedliche
konzept
musst
decre
##point
familiar
entsprechenden
schlussel
topics
ads
tend
lan
schneller
gegru
kern
plotzlich
leipzig
##fan
committed
##qualitat
anony
sister
salt
##ahrungs
manufacture
einb
##essions
determined
##ially
##ail
accompl
missing
yester
gewicht
scre
gegner
expression
##xen
intended
weap
grant
##service
krampfadern
##verkehr
zahlreichen
trail
thro
infos
vehicles
brill
lift
##auert
random
chris
erwarten
importance
diplom
##linie
##station
lander
papier
##jahrigen
demokrat
großte
maschinen
##iertes
##ads
birthday
wet
inn
erganz
appoint
clim
hobby
dick
si
fet
anyway
conver
##taus
##uries
explor
wheel
allowing
gesche
competitive
##zunehmen
eisen
geschenk
properly
suitable
verhaltnis
aufent
unfortunately
shoes
volle
elegant
##kul
spat
creation
laser
bezir
##down
##iveau
##water
sole
##betrieb
genannten
fift
daraus
removed
killed
##atest
arbeitet
failure
voller
returned
reached
lock
ausgestattet
signs
dange
##hlung
jahrhundert
bron
##spe
legend
tragt
##ichern
##kin
bri
hins
##wortet
bedingungen
##ship
51
##vertre
layer
license
confident
php
gig
flughafen
##not
##ulous
tail
broken
setz
##rator
kategorie
signed
immig
##ifik
fourth
jazz
hyper
##gebau
entschieden
##ahre
boat
##lywood
fordern
##gemein
asia
registration
anywhere
1st
erstmals
##ruft
kill
74
feels
betragt
luxury
seek
dusseld
glaub
introduced
jahrhunder
newsletter
funding
alco
##lls
internationale
erle
##aturing
enterprise
hinweis
measures
##fficient
recovery
horiz
haupts
lighting
output
settings
perce
##laufe
moral
formed
kommenden
einfluss
theat
aufbau
kart
##rechts
##stechn
bitco
calling
begann
eint
gleiche
manufacturing
technische
defined
erhaltlich
grunen
##omet
benotigen
ry
yesterday
bereichen
nik
approved
##lieben
karl
##em
##kampf
zune
erwer
disor
##idden
adapt
##lings
certified
fruhstuck
fleisch
##prin
untersche
rut
sobald
interessant
##aturen
lifestyle
greatest
vorsitze
##osphare
##dge
steve
react
hundreds
indu
sequen
einkauf
67
##hors
##prob
verbessern
##inform
##uhrung
kombination
painting
retail
griff
##gange
standig
discovered
holy
houses
98
mittwoch
##going
supported
##ora
officials
wave
##ching
joined
##imp
verse
freundin
casinos
##umn
##can
##uit
##stens
installed
himmel
beitrage
umgang
violence
copyright
confidence
scan
agen
delive
forschungs
160
##now
##orgt
portfol
criminal
stahl
turns
lunch
bem
##gerichtet
##illed
erscheint
##cular
##fuhre
##respo
dienstag
amateur
fields
ausgabe
hannover
mike
proced
cere
##hme
##weite
abstra
anlass
herzen
subse
guitar
enfor
considering
interests
era
##inein
resort
koch
leiter
forschung
burg
employment
lesb
quote
cham
advis
icon
consum
gale
##isa
hilf
border
mikro
sudden
communications
##nic
sprin
##64
woo
stiftung
participants
proposed
antworten
ft
concerns
dc
kick
stun
##hu
gespeichert
papers
okay
weib
prasentiert
##warts
##waltungs
gesell
adventure
politics
philipp
promote
geschaft
prepare
konstru
ourselves
##alender
rust
lies
americans
erzahlt
featuring
bob
##aktion
##teen
shift
heutigen
zentral
choc
##handel
gewe
jewish
schaus
##rufung
scholars
gib
##wertungen
frieden
pau
bericht
deswegen
wallpa
##osex
reserv
##gener
speech
wasch
tablet
verbind
queen
piz
##eding
hung
angeles
##linien
portal
inspe
exkl
substant
acid
realize
bezeichnet
schwanz
##komme
reliable
pix
##rechnet
wichtiger
entsprechende
organic
##ugt
joe
ancient
##istik
instagram
sir
##34
alcohol
bekannten
bewertung
ebay
plays
##iums
##sing
gesetzt
disp
##orient
mole
##ricks
lehre
bruder
##gleichen
chicken
parame
err
aggress
##osite
flexible
employee
taschen
110
orders
medika
affair
##reife
desk
brust
collect
berecht
ausstellung
causes
ash
##hem
identity
kapital
brut
##ndete
welchen
ske
sozialen
##mous
revenue
ml
drugs
obe
folgt
##arte
##berat
##ilde
seconds
##ati
dol
##ila
slee
stimme
##kop
##ifi
neighborhood
##uhle
lebensmittel
shares
brands
treated
geschle
reader
##angebo
##onom
zusatzliche
##terns
unre
gramm
##dam
reduced
zau
antrag
fahrer
##jahrige
prinzip
affect
samm
##bas
supposed
##mee
photography
dos
##orten
##recher
verkaufen
hook
abzu
achten
bier
##vier
behau
craft
unglaub
carried
##alty
##sprung
deutscher
trifft
nahm
stain
kommentar
erwachsene
tel
##betes
circumst
deser
77
instrument
herzlich
##kung
intelligence
gur
improved
fein
##hoch
ultra
erheb
##fluss
##friend
##tero
braun
pfe
chocol
gather
##deck
plattform
contain
##kla
vorstellen
##hetic
##ppt
terri
##rance
78
##imming
wealth
halfte
hind
trag
##maßen
##bericht
##ritz
inklusive
elimin
materialien
funny
##ets
##outs
##onsten
consumers
nerv
muslim
##ups
##gerate
row
trig
inch
pale
aftern
##ussy
instance
klicken
##ducing
behinder
nick
##mass
leather
friedrich
gewahrle
ereign
providers
##ags
##achten
##kontakte
prescri
hochst
klassen
abhang
aktual
fahrrad
homepage
charges
##prechen
visiting
expos
fuhlen
identified
raise
phen
einzelne
##borse
bringing
##bett
84
academy
zip
gaming
senten
##dis
symptoms
conversation
##forsch
foods
lehrer
vint
perfekte
##ighted
vice
jam
buildings
stau
verteid
appeared
zieht
zubehor
toy
thir
##inte
zugleich
unterschiedlich
fett
significantly
grill
##halle
leser
erwah
##gung
perspective
budd
drauf
##nson
standort
oblig
evolution
automatically
cree
##rinnen
betroffene
##nda
##ließt
##zens
ansonsten
tren
88
hochzeit
konto
assign
rear
shower
kuhl
herrn
delivered
protest
literature
crazy
attrib
passende
##unk
agric
feuerwehr
homosex
bestellung
##pflege
cred
wellness
amt
paying
##iano
##nehme
modernen
2nd
##ierend
##schl
##zil
diabetes
faster
nrw
##maschinen
cutting
appreciate
personally
##teren
cycle
##cles
kinds
ford
beginnen
damp
predict
monthly
schmerz
vorder
urteil
crew
76
##politik
healthcare
dollars
choices
warrant
##zeln
akzept
rig
##gerat
kollegen
mineral
stated
messe
schuld
viewed
thick
freiwill
ausges
##benden
canadian
jag
##irts
##handlung
rechnung
bequem
##gy
umsetzung
russia
matters
##light
##seitig
behor
jum
arrived
zeitung
sides
catholic
##zahlen
complic
gg
##itats
emphas
laptop
formen
##life
bibli
vertrauen
recorded
##peut
##yste
##dp
domestic
ire
autos
hp
##rankung
89
anh
repar
##kts
1997
pak
##repre
casual
##rell
flowers
tells
ig
fals
##ienst
##mic
permanent
verschieden
trouble
atmosp
vergangenheit
militar
##dra
slip
networks
duty
mile
96
##cd
##keln
##ologische
obst
schulen
technischen
supporting
##lia
##ingt
sams
vary
##rankt
erklaren
ltd
gezeigt
diskut
gear
theoret
betra
##isierte
wirken
beeind
caught
alexander
##fragen
intelle
partnersuche
spitze
stimmen
gunstige
##ichtete
marg
rhy
comed
erlaubt
##lying
moon
universal
lg
pant
##chern
gefahren
vorteile
ubernehmen
shad
appearance
anteil
189
##haften
##iti
##igan
heft
incredible
integrated
neun
schar
verschw
##iest
institut
humor
worse
erlebnis
blumen
produkten
failed
##komm
vorne
nochmal
benutzer
gau
flag
##umes
79
tause
australian
issued
milliar
##ji
improvement
weak
procedure
decades
##melt
zucker
unfall
##film
##ician
##blatt
##lichem
chip
schen
nackt
tiss
yard
external
excess
convenient
parallel
##ologischen
##bell
starten
beer
mixed
gon
bible
arms
##sprache
interface
94
eastern
nations
##zesse
sparen
##kturen
facts
fisch
##pad
##lot
regeln
vintage
dele
pump
adm
gender
##liefer
rod
replace
außerhalb
merk
perfectly
wireless
berichtet
mining
cale
opfer
quelle
discount
afternoon
kunft
##ock
streit
architecture
staaten
kim
toile
verurs
politischen
##ativen
##name
ceo
bare
##steller
graduate
bilden
##greg
guaran
presentation
kurzen
verantwortlich
reput
individuelle
concerned
cable
##rim
arten
##fot
trick
arbeitspl
mexico
geboren
assistant
starker
atem
profil
##mond
formal
komm
##play
##born
solo
##bn
##schw
spanish
##lade
ski
##akers
arsch
abenteuer
positions
banks
gelesen
schade
dusseldorf
gewohn
belast
kingdom
indo
##ktive
berucksicht
authors
jersey
gefallt
aussehen
stimm
findest
recipe
guarantee
uberzeugt
gericht
compare
fehlt
nat
minimal
halle
angel
mere
featured
investigation
##ell
instructions
ns
einheit
versicherungs
73
emotion
italian
constant
##legung
##cop
wagen
offnen
##lette
advoc
obviously
pfle
accurate
cooking
rud
stellte
##mern
##frau
##ndeten
strugg
bars
jedenfalls
routine
##reed
##zing
##gewohn
immun
begeg
miche
forced
messages
anzeige
##reness
bevolkerung
kunststoff
eigenschaften
stern
tough
##ktop
skill
nutrit
negot
kritik
coordin
stab
echte
dumpster
tight
purchased
planung
zero
telling
dient
##inations
drivers
##stimmung
offenbar
handeln
##pap
ages
effectively
walls
reporting
##mert
begeistert
chosen
leisten
##messe
confir
territ
aktivitaten
##aun
sne
##iffe
##ndorf
meat
milch
enem
##nas
monitoring
transition
wallpaper
soziale
depart
originally
##ishing
##dures
anfrage
ends
gespielt
##meth
cute
sow
herself
absor
delicious
hip
140
abuse
##platze
alko
##farbe
procedures
konkur
##denten
extended
frequently
parad
vereinbar
##spro
1996
rough
partei
efficiency
teilnahme
ultimate
twice
##dauer
receiving
wearing
counsel
writers
##messer
72
##beit
mache
gefuhrt
##reien
driven
titten
rating
sauber
seriously
##ibilities
1980
##ressen
atom
##rot
accepted
searching
sofa
horn
portra
##nert
concrete
marc
breit
grune
schnitt
tone
bislang
paypal
launched
##ypt
marine
##stock
downt
principles
texte
protected
##ktes
schein
basically
erstellt
sheet
konse
machines
gelegenheit
fuhrte
##fassung
begins
patterns
verantwortung
##izen
grace
hole
agents
gehor
##spiele
##hler
aufzu
hergestellt
evangel
photogra
##last
##swert
##andid
##ptions
##freie
commitment
rh
lind
portug
conduct
##meras
leichte
werte
guid
badezimmer
##loser
erstmal
ax
blu
froh
kie
wichtigen
kenn
##prozess
mcc
##dent
bigger
##night
bauch
##platte
edit
proof
belo
engag
deutschlands
seo
gerecht
obtained
shoul
##wann
##ioren
privaten
##pedia
milk
##itate
geraten
portfolio
hate
stopped
##lerin
transportation
tiny
schad
##kk
observ
prufung
typical
dual
beraten
wm
cub
##pool
pipe
severe
##fuhl
gala
dresden
joseph
kino
lucky
hosting
grosse
candidates
noted
700
##onne
bewe
univer
##orgen
ack
gehalten
chancen
##rel
corporation
raw
##inding
##lined
##artner
wow
spitzen
vieles
cow
aufnahme
adopt
fruhe
##veranst
##br
valuable
atmosphare
bik
aufgenommen
kin
andreas
wohnen
vermutlich
suite
verhindern
##kins
export
infrastructure
##gien
##wan
reserve
allgemeine
publikum
##blings
##lernt
dangerous
hello
hidden
zurich
geoff
akadem
##zern
fiction
tast
ziele
##urb
ups
gestaltung
diskussion
vollstandig
##ighter
treas
##grad
taught
zoll
categories
resume
authentic
##angebot
institutions
false
secretary
##phy
anx
widersp
relatively
expans
entsteht
trocken
folg
roh
##wohnt
bitcoin
everyday
anne
clothes
##kat
wesentlich
stem
##brauch
reasonable
normally
vogel
##pes
dienstleistungen
fick
##pens
vacation
superi
bekannte
##lautom
##gebracht
disapp
ordin
einiges
tow
##uchtung
rechten
mount
assets
constitution
alpha
lens
rosen
managing
forth
konzert
samsung
gekauft
wars
acts
fordert
##ruckt
scot
apothe
freiheit
lohnt
officers
##kap
affected
planned
outstanding
vitamin
ausser
##vera
##ichtigung
ministry
entspricht
##alz
lieferung
imposs
##liste
##code
dran
stefan
pig
##ziehung
130
##tellte
trage
##ala
beam
##windigkeit
chocolate
workshops
##weil
nuclear
twenty
coal
newspa
musikal
125
awareness
myth
hochwertige
##strom
styles
cdu
##tl
verpflichtet
tatig
grau
residential
##hh
charles
agencies
##liefert
grown
loves
grass
gebiet
researchers
flache
chee
belong
sessions
hie
enor
compris
tam
schwie
boots
shooting
anlagen
moments
millions
regulations
##auftrag
##rics
meal
camping
##beln
evil
cot
##iens
##vest
##ndar
tennis
kommentare
gos
fishing
irgendwann
##teste
spuren
vorlie
##85
wollten
om
##39
pussy
sme
86
tollen
critic
politische
schme
chart
attemp
ausreichend
internetseite
##anden
reifen
adap
cher
##iete
verwaltungs
vertreten
ext
##schau
zerst
carefully
##wahlen
interessiert
beschaftigt
compens
mb
##berry
enthus
##pg
smile
replacement
volk
pfar
##istern
##ußen
visitor
weiteres
milliarden
pow
dish
ari
supplies
##istisch
mainly
ingredients
1995
hingegen
##gewicht
erscheinen
##kunfts
entlang
diesmal
baus
sac
hire
surrounding
##fam
ron
blieb
md
electrical
##ikal
hinten
lebt
objects
persons
##cia
gh
##tracht
gebraucht
sitzen
nin
founded
##fristig
antib
alkohol
sachsen
weekly
correspo
verpack
##core
turning
kurzer
sick
assembly
trib
##regierung
##nitts
keeps
nackte
entwicklungs
##lix
geste
pleasure
##mberg
fremd
entfernen
##ee
involve
dental
##machen
motto
##pfl
clubs
fox
besitzt
sight
dynamic
historic
cabinet
dienen
entstanden
##reprene
sehe
wag
revealed
##gerin
##prache
rug
bowl
transparen
##cam
kostet
boss
surprise
miet
schwange
##ndence
constantly
trainings
cake
cheese
desktop
stadte
garantiert
usual
dane
entreprene
bell
jugendliche
highlights
##32
##filme
entirely
##bringen
##nn
##abend
mall
kontrolle
meta
picked
debut
recognized
agreed
gult
praktisch
hr
##iance
investors
verlei
##otic
klim
bishe
samtliche
kulture
manip
superior
technique
ipad
attached
##steiger
embod
##rency
erfolgen
lut
remaining
##asi
##fertigt
crisis
gorge
circumstances
hem
winner
87
differences
merch
circuit
height
##acke
##mpf
fehl
bench
lieblings
heiße
stunning
pause
methoden
worte
furs
letters
##theless
##stes
hort
gemeinsamen
tape
hinein
##rtain
##lets
weiterer
butt
resistance
performing
immerhin
ct
##assungs
wenden
magn
conducted
landscape
szene
aktien
nearby
additionally
rechtsan
elig
virginia
oral
fighting
##bad
acknow
wi
pier
behandelt
strategic
leon
spezielle
##hohe
breast
rollen
##cheid
gegensatz
umsatz
coaching
##jenigen
sekunden
##schul
positiv
fantasy
spekt
lessons
regardless
##atell
younger
##raine
hauser
hilfs
nachmittag
##hire
##mble
systeme
scha
tiefe
##rags
passenden
kel
closer
supre
boston
##zielt
letzt
##heimer
russland
nennen
##38
vielzahl
herrs
gewahlt
##never
proven
unabhangig
ress
folks
accord
buck
##beratung
phr
facing
tracking
ky
##stream
pi
ubersicht
quart
facult
einfuhrung
versp
buhne
stir
abgesch
lizen
participate
erfullt
##ronom
intensiv
split
jones
qualitats
explained
##stahl
publis
situations
accessories
##versammlung
holds
##verw
blogs
anton
ebook
sensor
meistens
##abeth
kreativ
ernahrung
##after
behavi
konne
zulass
hollywood
unternehmer
noticed
generic
##funktion
tables
heide
neither
laugh
kennenlernen
elev
ike
directed
auge
##ifications
freunden
tritt
femin
bremen
interessante
##igare
##sprach
##flo
3rd
schreib
wordpress
##chem
diver
factory
viet
meetings
santa
reden
##worth
##haben
1994
##36
regularly
capable
eh
colon
likes
confirm
##olo
##ussed
beton
partnership
payments
wande
kult
nage
gemut
##icherheit
anleitung
##rats
boost
wirst
##werks
conscious
speicher
functional
##kennt
sd
whenever
strange
verbraucher
62
kirch
##uls
theatre
component
follows
gewissen
hug
sq
dust
bessere
##ctic
bands
obers
uberblick
consequen
ell
amts
##fangen
formul
verab
zufall
verkauft
temperatur
hyb
eindeut
##ortion
degrees
hou
##schirm
##bende
buchen
bid
tatigkeit
einladung
##cessed
geringe
grey
retire
offentliche
##gorith
##gehend
evaluation
bird
ordnung
pilot
##iana
appeal
sizes
0180
gegrundet
candidate
zeigte
##iners
##wei
mitge
einrichtung
gutschein
geeig
tracks
studenten
##force
instant
arbeitgeber
bmw
zeitraum
stands
tomor
anhand
supports
plast
milf
festge
adam
ranking
##achtung
accompan
versuch
sogenannte
basketball
bush
##road
bread
erleich
##annen
chor
perspekt
notig
patent
mast
hits
##riterien
landschaft
sinnvoll
strecke
recording
storm
verfugen
bundest
gifts
leidenschaft
jim
##pected
reje
ansehen
impossible
williams
##schrank
trained
registr
veran
konst
umfasst
restrict
referred
orch
wiederum
vermeiden
uv
columb
##asts
preser
##denk
offentlichkeit
cum
cyber
illegal
##pelt
##atoren
##tags
##apes
einiger
##idee
reichen
##31
ladies
collected
junior
planen
arom
##verl
beeinfl
##don
##warded
großere
reprodu
##oned
##amed
forever
operate
##rings
normaler
schatz
parla
apparently
profitieren
ios
suggested
halte
##filter
aspect
##mester
commerce
##arer
printed
##versorgung
charged
##fahrer
clothing
discussed
##zust
disappo
browse
drum
kathol
##kern
##stone
##letz
##zut
##rock
qualifiz
pv
tomorrow
##bc
controlled
##ranten
listening
##km
figures
##mont
##ader
entered
qualified
manufacturer
filed
messen
absatz
willst
vast
##37
implementation
##trags
##mme
##ischt
athle
bodies
##44
klassischen
noise
##passen
cance
drawing
membership
happening
attacks
##rug
beschreibung
worst
##achs
framework
hs
geplant
oste
comparison
yeah
##loaded
contrast
shut
kum
attractive
##leit
##llers
regelmaß
##ista
##inc
describe
kooperation
saving
konzer
##working
swimming
inje
convin
returns
##analy
drama
gewonnen
jump
##lab
gemeinsame
hass
##stad
sogenannten
liked
codes
seele
gemuse
guarante
##lte
clip
conflict
oak
successfully
1970
assum
paket
genuine
erfullen
##uchern
tested
defend
eigenes
##stellungs
legit
algorith
aufwand
nurn
module
exec
organized
angezeigt
masse
shoot
datei
klassische
##card
leb
javas
premier
unable
unw
##ikations
##ggle
motivation
breaking
##ilst
tall
meines
rhyth
thorough
langst
##artige
lass
methode
landkreis
respond
quotes
##rucke
adop
humans
##zuge
##kret
jugendlichen
verandert
harry
##raume
##tle
tox
maps
tasks
vorgestellt
brazil
##ckte
gentle
##gren
##inge
kategorien
johnson
##acks
manufacturers
uni
##vide
sage
trink
exposure
##gestaltung
depression
##utet
classroom
pakistan
klaus
##zellen
analytics
hals
nic
##beck
lecke
quot
ehemaligen
ireland
contest
speaker
lawyer
##lost
ultimately
spaces
archiv
##ng
inqu
neutral
dachte
francisco
##forschung
##ulpt
satell
javascript
austausch
schwarzen
ludwig
heaven
##otten
impe
ue
ease
##kunst
bedien
bonn
##reisen
dreams
pp
presents
betrach
programming
anmel
prince
##kirchen
##indust
ubertragen
gegenwart
password
posting
klang
krankenhaus
variante
choosing
vermogen
destination
anbieten
unif
gere
##bereit
impressive
nap
prasentieren
legs
root
frucht
testen
batt
##seln
statistics
abwechs
gefragt
##kopf
leichter
tricks
ausgeb
##artikel
##licke
statements
mrs
ordered
##liers
racing
roten
##gr
##lare
formula
jahrzehn
##pras
##wohnung
certificate
produktions
maximal
empt
autoren
##haf
schmuck
zy
cine
##icted
samples
erzie
informiert
##große
##ppy
sufficient
whis
exemp
recyc
erfahre
##isierten
##selt
treten
drucken
faculty
abends
industries
pacific
bottle
##any
compliance
relief
losen
precise
rett
fuhrungs
proc
##viewed
cookie
##akte
jackson
##agne
gt
aside
booking
prose
layout
grew
muller
carolina
italy
erstes
##tenden
corn
arzte
authorities
promotion
universe
pleased
punkten
digitale
gorgeous
kab
virus
##lange
bestell
##ruche
kro
freue
##verwaltung
##ralen
deplo
##kirche
aussage
##55
accessible
equipped
##iry
beur
missed
parks
crowd
dealing
beruhm
##ragend
schwierig
bezahlen
##gemeinschaft
uberzeugen
rennen
suß
zertifiz
loving
##ghan
nursing
terrasse
incom
nahezu
fehlen
wies
hills
##uded
ikea
##zeichnen
versions
whilst
represents
tale
individuellen
weihnachten
liefern
##schriften
slowly
##uk
##athe
anwe
##zuglich
prize
wash
##aland
##zund
ew
scra
eq
getragen
witness
steiger
brachte
##rix
teeth
clock
##onder
moglicherweise
hoo
freib
horizon
tower
dauert
intellect
##pub
weißen
##while
welchem
##iguration
computers
##zieht
regions
darm
parkplatz
wusste
captain
hierfur
alarm
##rand
kenne
bauern
recon
expectations
mature
namens
gebrauch
vegas
mum
##hange
haare
feiern
stee
gamb
ebene
verst
dicke
hurt
europaische
##udes
mos
spont
gb
liefe
continuing
sexkontakte
tourna
challenging
sustainable
bah
vgl
wahrheit
##job
vertreter
##ruhe
moglichen
zuruckge
scen
##ubil
##heber
linken
believed
gesetzlichen
observed
guidance
abgeschlossen
guidelines
specialist
##stellt
till
einrichtungen
chines
benutzt
effizien
manif
lets
tarif
powers
schoner
informed
gefordert
##phan
##stucke
zweit
schmerzen
muscle
vegan
losing
##vy
##ographic
upcoming
jos
nige
##fes
handling
tg
##comes
##weight
decade
celebrate
##wich
fairly
surve
verwaltung
##reicher
##maßnahmen
kleid
wise
resulting
geschlossen
##abt
diagnost
comic
##pn
##iale
voraussetzungen
increases
900
fuss
glucklich
spate
schauspie
sharp
vorhande
negoti
possibility
recognize
interviews
offensicht
##manden
wurtte
ergeben
##itage
##isses
##ales
primarily
kaiser
opposition
widerruf
##mpfe
secondary
demonstra
jene
saint
architektur
richter
stimmt
##dessen
anderungen
##adel
capture
atmosphere
schones
hes
bildern
pocket
doctors
##proble
ausbildungs
##ckers
banken
##89
structures
ube
bewegen
bags
legt
##hoben
solltest
kindergarten
underst
objective
##rifft
startseite
talks
reaction
reduction
frust
##uschen
latin
somewhere
pflicht
broke
außergewohn
befest
holen
sauce
serves
legisl
realized
mittle
##iteten
prove
hafen
##ande
##weisung
incident
zwecke
kw
entdeckt
convent
##what
zweifel
berech
##hyd
##fried
singap
##rol
centers
##wege
ausprob
niveau
ressour
##scheine
beher
leitung
karriere
beruh
summary
risks
saar
streets
burn
##isst
iso
jahrigen
stan
rated
cc
donald
schwerpunkt
##industrie
upgrade
begleitet
mio
intensive
historischen
dear
ree
gemeinschaft
reh
loy
##stil
aluminium
estimated
##´s
vend
banking
ohio
founder
ei
bren
tay
##position
amend
1993
ruf
concepts
krankheit
verlieren
fundamental
taxes
##tex
victory
nachricht
jahrhunderts
##verhaltnis
surprised
##front
appointment
healing
gefe
pornos
default
proceed
disney
solange
philosophy
waffen
dna
penis
rice
synd
draft
##zeichnis
monster
besides
escort
accounting
supreme
fahrzeuge
nan
geil
1992
tagged
acting
erinnert
henry
##heil
removal
wilhel
nutzt
##reten
extension
##spielen
hoffen
widely
weiße
##itative
extent
offenen
##zone
##holen
container
balkon
##umed
monats
##andert
##rauf
resc
##annter
crypt
stammt
sensitive
erfre
graphic
##inu
##case
volt
mitten
liver
ausnahme
respekt
bou
eignet
170
branchen
hinweise
spezif
advertise
hangt
kompl
neub
erl
##49
improving
publishing
genes
finds
wolfgang
affairs
fortsch
muschi
keller
##starke
tob
melo
##athy
genehm
immediate
generate
heads
bras
##aufnahme
##abel
heritage
steam
handler
mirror
figur
passing
61
verstandnis
##86
abges
##bart
schedu
sauer
flying
downtown
hopefully
therap
collaboration
linux
branche
getan
##bedarf
translation
##agent
baumw
reputation
lol
flower
bedurfnisse
naturliche
promise
egypt
probe
calendar
electro
heißen
benutzen
string
sterne
johannes
bum
muh
feelings
beliebt
geschutzt
compat
##76
calcu
jeans
##gels
essays
deposit
##fred
luxus
grundlagen
saved
##kontro
frequency
wikipedia
scar
erled
jord
pizza
##stands
seid
edelstahl
ausdrucklich
drinking
##reinigung
weiterge
zugriff
oe
naturally
##ilers
offices
##wiegend
bestatigt
abgest
werke
prot
anticip
debate
##inton
burgermeister
rib
ceremon
ruhig
mira
sortiment
schal
##zul
##runde
sarah
savings
scheme
##abol
##orters
empfang
besonderes
recipes
##werten
##musik
##link
##wall
catalog
chairs
representative
feucht
reflect
hoping
##unters
einkommen
mortgage
grafik
stimmung
82
##chnitten
scientists
maschine
ongoing
flachen
##heiz
submitted
ward
provision
einschließlich
existence
barbar
prost
##kets
schafft
undert
democratic
erhoht
##tene
einfacher
login
moves
soil
##igns
##ruption
lex
##uling
favourite
##race
visited
##ancing
outfit
divor
##xture
flood
##schuss
producing
household
##mail
erinnern
klos
##ulating
preparation
bub
eck
brothers
asiat
closely
feiert
escape
stellung
##look
senden
spates
nix
##iegen
diss
##rus
containing
gla
wurttemberg
benefic
##sthe
snap
##ganger
segment
generated
##inter
tutorial
lamp
earned
##stieg
bedro
360
powered
ablauf
replaced
unbek
sorgfalt
explan
##kolle
vielmehr
geschaftsfuhrer
architect
gebaut
unkn
mountains
sem
##chnungs
##medizin
vietnam
185
neug
ausgewahl
graphics
explos
somewhat
berichten
##alem
erlebt
##ulen
##wid
lip
tasche
##onenten
dose
zog
analog
##angebote
##passt
##lusse
##icked
##vs
concerning
michigan
preferred
equiv
creates
opposite
wooden
##affung
steuern
##illen
exhibition
oberflache
##48
nachw
remark
regierungs
anwendungen
gap
confirmed
recre
parteien
kriegs
##missions
außerst
profiles
stolz
struggle
melden
ums
strategie
responde
verkaufer
elite
##beweg
##hens
crash
##ulf
subjects
entit
nude
##linder
succe
achieved
zivil
shirts
standen
kf
refe
approval
hammer
optione
spoke
walked
korea
wake
rural
##bestand
controls
##sis
##fahig
°c
tonight
talen
setzte
suffering
suffe
limits
simon
##tein
schuh
##modell
concert
temple
optionen
##iny
fehle
gerichts
1960
template
bone
##onto
nit
tack
schulerinnen
fie
##vermittlung
finale
mogliche
criter
personality
exklus
schmid
sending
blocks
fuer
surprising
klingt
stamp
arc
##ares
birds
##neys
rohr
vw
pace
##ifies
dm
insight
ov
##ildet
##aw
mindest
printing
##ito
trailer
viertel
contained
overw
##ibel
cord
##icing
verkehr
expansion
connections
tissue
##ringer
ti
##mess
gestaltet
iraq
fed
memories
bahnhof
instruction
##athan
##lein
hervorrage
##79
listing
alive
##rechnung
irre
parlia
giant
islands
ral
##zugs
##nth
objekt
ug
peak
array
##fare
karls
hoffnung
liebes
##moglich
bewertungen
##icy
wart
rote
bart
##ivals
##fr
commonly
literally
veranderungen
gras
##rog
zentrale
fokus
##spieler
managers
##atzung
privile
lade
wlan
##racy
##rose
interactive
##merk
scheduled
sciences
1991
einfachen
seb
##wes
##wear
##odes
fiel
physi
marks
krist
##reift
bh
illness
inches
branden
newly
screens
##urn
zuschauer
##itals
spatestens
serien
##pten
towns
##fullt
schwere
transmission
montage
##ishes
fruhl
stere
##cedes
erhielt
hochste
characteristics
##heben
stretch
##urop
##ighten
erklarte
faszin
##schutzer
##schmer
darstellung
breath
##cheln
applicable
lounge
ukraine
senate
jean
beige
solve
agend
ff
tatsache
erwart
bull
##faction
suggests
kleidung
##gult
pulled
deleg
peters
niemals
senioren
fahigkeiten
ingen
##genen
350
stamm
webseiten
regulation
fau
lesson
transformation
jeff
normalen
beschrieben
runden
ending
##lates
kaufer
elf
geschw
jahrlich
suddenly
betreuung
schließen
scenes
##von
##identen
erhoh
crucial
##sburg
nieders
nights
##irl
##nummern
attach
agentur
##schulen
supplement
lebend
erhohen
branch
galerie
eroffnet
##rapie
diseases
shaped
dissert
##oty
##handlungen
circle
spielautom
incredibly
##made
diamond
##books
fuhlt
##zit
##flow
ath
##ani
lokal
walter
publication
mp3
parliament
##gerichts
relation
invention
minder
##wasche
cad
seed
pride
thail
##cre
honey
everybody
developers
nest
jewel
##boy
jeg
poster
##bauen
consulting
ausstattung
automatic
diy
lizenz
emiss
lok
dortmund
gestar
##mag
dienste
##lessly
comma
expressed
magnet
##grunde
hochschule
hybrid
schlechte
wiede
armen
behorden
aufmerksamkeit
faces
galaxy
recher
visa
benach
thr
collective
swing
##haltet
##ritts
pour
camb
4th
bildet
##kee
dil
recognition
spenden
trinken
languages
##uhe
wiener
##olit
##krieg
verbringen
schiff
politiker
gering
cotton
klaren
nurnberg
puzz
1989
alan
vergleichen
##ikon
strengt
##tragung
angriff
##reibe
##kette
cater
nachge
twin
futter
weich
stake
##tauscht
clicking
##ckets
sammeln
##statten
lists
gam
directory
fulf
chose
seats
asset
ay
ausgezeichnet
##wein
invited
##rhein
kh
gitar
##wander
reward
##sented
bach
landwirtschaft
robust
altere
strict
oma
verantwortlichen
stored
gelegt
##uing
auswirkungen
gegangen
##ilie
everywhere
norden
##anny
##urm
matches
##ador
db
null
anspruchs
speziellen
increasingly
##leistungs
##nie
mega
wunderbar
toten
kalt
baseball
powder
##riet
ratio
hence
flach
consists
##rey
spark
##orable
beine
blan
lap
getroffen
##46
afghan
prompt
##bund
shr
sichern
##uckt
therapeut
sections
arena
vorgehen
phones
##teria
massen
urheber
verlangen
unterricht
gelang
optimale
##ette
dame
186
selb
##stoffen
pricing
amen
betreiber
greek
cott
##reiter
einwohner
contribute
moist
weapons
##uum
##pielen
dateien
sony
dropped
##tense
rising
##hist
kontaktanzeigen
elemente
indoor
assume
##korper
##wirken
##kasten
availability
amounts
attended
geoffnet
gelande
murder
memorial
annivers
formation
kummer
comedy
asyl
sap
##ieur
retrie
fliegen
herstellung
keyword
sees
auftreten
feb
##ohlen
##zier
##anbie
besitzen
zahlung
2020
colorado
roles
setup
gehabt
causing
ubernommen
engaged
brilliant
verarbeitet
withdra
schrieb
vorhe
##anded
inneren
consent
discovery
##ively
##acious
eingang
bt
polar
##oop
besucht
##losigkeit
rome
expenses
schwester
firms
requested
##tech
##uc
##zahlt
demo
##imme
herausforderungen
ddr
ignor
##oured
decent
leer
geschafft
durften
##wirkung
destru
praz
##perate
sized
pitch
patch
##bares
##chend
halloween
##messen
hervorragend
carrying
decken
92
quellen
etab
initially
golde
untersuchung
hohere
##horn
##holung
inta
grenze
##andal
runter
gall
schonsten
##ansas
kandid
##°c
ergibt
recommendations
##kos
großeren
warning
consideration
britain
unus
adds
chairman
##stunden
repeated
developer
sr
oftmals
ic
phenomen
##dach
##hns
sichtbar
akku
cockta
aircraft
wu
##gesp
semi
weis
usage
##47
prayer
sept
singer
crystal
##wese
##klass
narrow
depends
verletzt
##arent
schatten
fake
covering
volker
##fted
generell
fifth
xx
desto
verwand
ehrlich
champion
fass
munster
bekam
desired
romantic
rit
treatments
arrive
kond
##afte
ecke
erklarung
fluid
forex
channels
brauch
##date
liefert
##stab
thousand
sammlung
vorbereitung
digitalen
nett
##aya
haust
drawn
##treffen
principal
wurd
##vens
erwahnt
opens
##half
##reibt
umfeld
##wurf
refres
diversity
erfolgreiche
georgia
nomin
lifetime
occurred
hors
##hnung
wing
patri
prison
horror
bord
plain
valent
##chron
pferde
hul
mud
##rar
kochen
quer
reihen
tang
aufenthalt
belt
governor
retro
fits
##rucken
tenden
##ulum
##selben
##idi
beratungs
accordance
##kasse
##wunsch
franch
ungefahr
approaches
cong
##zte
##feier
protocol
glucks
freut
conv
wach
##lyn
priority
dusche
betracht
strike
##bury
einstellungen
massiv
globe
durchfuhrung
hielt
verlauf
permit
audi
##hore
egg
musiker
##offe
beschwerde
angenehm
##gebra
consumption
genuss
ross
arbeitnehmer
intellectual
enforcement
##statte
dont
loose
bless
dup
wettbewerb
beispiele
herausforderung
explains
liga
##beschichtung
willen
wc
kevin
junger
staying
ryan
niede
depend
convention
patrick
traditions
thril
gingen
##mph
##standig
normalerweise
eligible
bewohner
##gefuhl
##gment
column
##aben
##berecht
zealand
solcher
##kennung
auftritt
##konze
vene
granted
marked
##felder
residence
tsche
##my
ink
cant
childhood
smartphones
hinsichtlich
##legten
heating
permission
unknown
brid
##mans
prie
controller
divide
##bungs
empty
##iente
mitarbeitern
meld
hir
electricity
##athon
##ught
andrew
meals
spanien
sms
gymnas
holidays
anhanger
##oman
requests
heiligen
retirement
curric
geomet
eingeladen
phant
##gelassen
interpretation
geschehen
wohnungen
thur
prufen
nc
kent
fahre
##kultur
legislation
thailand
vorgesch
offensichtlich
##hagen
pear
begonnen
mood
ausgang
involves
##sity
##kei
##atisch
##lev
eventuell
reply
##artig
injuries
liberal
championship
meets
keines
ee
reducing
stable
##pragt
examination
bestellt
gps
indire
enjoying
##unted
apartments
##kammer
exposed
fliesen
vinyl
franken
mercedes
##richtet
kommission
draußen
findings
watched
ubernimmt
anste
##feln
sehens
bundesliga
##systeme
##fug
genre
##staat
outs
stich
erzahlen
blend
hundert
percentage
entscheidungen
steige
dot
hide
fanden
odd
republican
breiten
arbeiter
hose
polen
mama
beta
weiterent
##tion
71
ace
mehrheit
bitten
bereiche
locks
##aka
##tts
keys
irish
visible
buyers
highway
simpl
##ologist
syd
##fels
ie
actor
haz
offene
certification
##verhalten
##astrop
mechanical
##konom
singapore
vessel
##anna
hrs
##druckt
tired
verzichten
waters
zeug
suggestions
##ican
anniversary
kompetenz
scrat
respectively
datum
##schla
##ament
produziert
angle
##ua
##stuhl
##phase
##via
understood
jury
doug
konsequen
agenda
##muse
verlust
vulne
checking
##ordnet
##isms
broadcast
##hot
transaction
rt
ave
nich
impression
toler
frist
##haut
spots
chamber
##cur
gray
meint
garantie
105
unex
##agues
emails
shots
##gi
##urlaub
joining
unterkunft
##raid
##fc
poetry
##rants
beitragen
##43
fruhen
raume
anxiety
grundstuck
hack
kong
passend
fib
mehrfach
##uent
victims
beteiligten
kriterien
##mah
betreffe
##projekt
sitzt
vieler
##bsp
##tels
co2
acquis
yield
talked
##losure
overs
commiss
klinik
jubil
ansatz
eco
ausgeschlossen
dio
alleged
spain
satisfaction
verband
gard
angesch
##lee
gor
nike
##95
toys
##lon
quadrat
gepfle
vertrieb
associate
vorstellung
reinigung
##kehrt
ane
responses
bewegungs
bure
disappe
genaue
irgendwo
##ials
empire
anfangs
##archite
##funk
verbunde
riding
ohr
homosexuell
fascin
purchasing
##falen
erwachsenen
traveling
ted
directors
##hew
laid
erfolgs
ressourcen
aktionen
tepp
funktions
##ifikation
verbesserung
config
castle
##verkauf
eier
datenschutzer
unmittelbar
headed
blues
letztlich
##astian
addresses
necessarily
##ours
betrachtet
admit
largely
yours
drinks
directions
##legte
##kg
uberw
involving
embar
bezirks
aged
##bucher
reb
gm
hamburger
nochmals
boards
betrieben
potentially
replic
##onet
frische
cooper
jane
korean
stead
accomplish
falling
##amer
pinte
eliz
komplette
##hrung
believes
gelungen
currency
proposal
chest
problemlos
gezogen
##otive
jordan
##iva
anymore
##chts
piano
schritte
intense
##market
leaf
nutrition
recall
amerikanischen
eigener
##olid
##platten
geschaffen
belief
##jet
announce
hosted
interaction
##holders
prostat
distinct
turkey
gewerbe
versuche
claimed
themes
mars
intu
##87
##obil
mw
communicate
migration
93
requirement
behalten
##frauen
toronto
##izieren
beobachten
kampfen
alongside
##berater
administrative
eve
##hst
rosa
ara
empo
loch
careful
seitensprung
##42
republik
doub
##kenn
employed
surge
##alers
chrom
overwhel
pinterest
sprachen
absolv
##bah
mannern
geandert
remind
##geschaft
gelb
##arat
rip
awarded
werkzeug
hunting
gum
bunch
athlet
versteht
jaco
ungewohn
startet
utility
##omy
criteria
telephone
hong
##produkte
gy
verdient
lew
umgesetzt
taylor
##kind
##fung
##inson
##ministerium
##bring
##uben
heran
dsg
##namen
weshalb
keinerlei
##chat
behalf
##omb
##hur
kalte
angesichts
kommunikations
tournament
##quar
verandern
steigt
fault
professionelle
carl
liability
##ighte
exceptional
shell
##imeter
stayed
packed
wesentlichen
compensation
mochtest
##lingt
##haltnisse
##prof
lean
##iose
hauptsachlich
treff
##uens
implic
ursprunglich
quasi
##rably
##lements
navy
##freiheit
mari
capabilities
##schlage
beeindrucke
latter
propag
m²
##luft
displays
riesen
##reihe
platforms
excel
afraid
diejenigen
uncom
displayed
applying
intention
vortrag
##aping
##marks
possess
neuesten
museums
equally
schaut
fingers
##ulator
accommodation
guaranteed
gemeinden
panor
studied
coat
tort
berichte
backup
producer
##unes
naturlichen
klick
abhangig
organisations
##izz
##utzten
zwolf
painted
worship
rings
cruise
##pse
##certain
krim
networking
mouse
##horigen
dargestellt
urlaubs
##woche
paragra
furthermore
gn
andererseits
cogn
##wande
dissertation
entrance
palm
gespannt
hanging
newspaper
affiliate
kunftig
bs
maintained
compact
mittelpunkt
scope
jurgen
victim
shoulder
##nor
##ndered
jar
fischer
prag
##ungsweise
chances
##plane
gegenteil
##aure
indicate
instruments
temperaturen
beziehungen
java
##oli
fif
bc
hunger
##sagen
ansprech
konkurrenz
aar
verhe
mischung
##loo
stood
rencon
whereas
##essed
verdienen
terminal
stations
licensed
beweis
conclusion
gambling
sprit
dement
mond
equivalent
erstaun
funktionieren
geset
##yard
##bogen
packages
attitude
substit
radi
engineer
##gefahr
kloster
mails
wanting
disable
skip
rank
wachstum
verbinden
##verschluss
partnersch
jr
nase
ggf
schicken
##vergleich
vorlage
passieren
##rested
echten
designers
dirty
##drucken
sacri
einstellung
herunterladen
ents
##rustung
bestens
markus
##fal
ariz
##200
conversion
nobody
shouldn
merely
fron
folk
83
prohib
anderung
aero
kapitel
##nergie
##rader
jet
servers
journalist
transact
##pern
##tooth
##gebnisse
situated
bomb
##becken
maintaining
somehow
speichern
investments
##orfer
warranty
##alo
boxes
farmers
ungar
verstanden
creek
outcomes
##iously
##temper
##rufe
strongly
ergan
##werken
pregnancy
##stufe
##rochen
llc
irgende
finn
lecker
participation
dunk
suppliers
remin
##vity
salv
##100
stages
survival
##acts
fax
surely
warte
closing
essentially
wechseln
victoria
pastor
##upid
schok
##pot
##ylon
orth
fernseh
##rans
115
gil
##nup
represented
ideale
dimension
linke
1988
teuer
feste
sydney
betroffen
##kord
##iffs
matth
vollkommen
eggs
gov
courts
auflage
erzahl
kindes
otto
outcome
mystery
lum
roads
bronze
contents
##gemeinde
occurs
delight
##olen
kratz
excellen
1950
stainless
##dete
studying
hearts
gip
gardens
gewisse
ehrenamt
flavor
bw
rechner
gelangen
versehen
eink
##planung
einkaufs
##fb
identifiz
##hmend
momentan
wissens
leib
umso
moreover
trash
varianten
infection
##utel
rolling
##worfen
##riebenen
historische
absen
entitled
invas
##quate
##formular
vermitteln
signature
meg
theorie
unglaublich
ferner
swiss
gewohnt
##verletz
schweren
erinnerung
vore
bd
bezuglich
lane
tons
convert
hessen
personnel
errors
haw
remained
killing
versicherung
hiv
datenschutzerklarung
chronic
##schmerzen
composition
bezahlt
prescription
machten
handen
schlafen
praktische
scores
genauer
romance
mak
checked
refuge
flip
##rennt
weird
detaill
grenz
prevention
rhe
streaming
##kleidung
smoke
photographs
sink
brenn
klare
arran
intelligent
stron
exists
bisherigen
optional
appl
guil
richtet
##maker
##ref
##usions
sowas
kiss
##struktur
kontinu
durchs
verwa
takt
greifen
##ziplin
funk
greatly
lied
termine
sequence
grin
faced
abstract
avenue
##stoß
drain
creme
carpet
billig
sher
dpa
spannende
uberprufen
bureau
spam
pron
meanwhile
liebs
loud
##konto
##spartner
enables
kanz
complicated
recruit
houston
##78
ladt
patio
enge
bapt
viewing
##ulted
175
podcast
navigation
##rschutz
appointed
##yd
kalender
ai
tablets
ding
konigs
wondering
eingestellt
immigration
##hlungen
hoheren
##rahmen
genie
consist
##design
ausfuhrung
braut
turnier
engines
normale
roulette
zukunfts
##papier
##schaden
##anter
couch
aband
##zufuhren
##imit
miami
##ttes
canon
gearbeitet
hochsten
anschauen
repr
innere
tony
maße
versorgung
combine
suden
101
deko
zuges
infrastruktur
zunehmend
##41
celebration
engineers
##ktiven
spectac
klassiker
bluetooth
hauptstadt
spann
accuracy
equity
kru
##bereitung
argent
##gau
vag
representatives
denkt
##ieties
ceiling
trusted
lief
kostenlosen
dys
verlanger
##bin
combat
hopes
inhib
eingerichtet
gelernt
trek
pots
hawa
schlagen
nutzungs
##lberg
infin
kath
handwerk
##lemented
gelingt
forums
continuous
inso
pounds
consequences
##fugen
harris
harder
heinrich
zusatzlichen
elegan
hasn
##rets
adopted
tact
##pton
turkei
##jahres
nennt
bose
gesichts
defic
economics
stephen
##roe
spray
elected
orte
westen
measured
musl
##uers
ense
bestimmungen
describes
buffe
jak
physics
reviewed
volunteers
tabellen
trips
erweitert
aufbew
##ading
##oen
beinhaltet
nagel
mau
inhalts
##ielten
demands
##uropa
usd
charity
acquired
regime
labour
organisiert
glob
seasons
fernsehen
##hort
81
##ueller
charlot
todes
mater
einerseits
##71
anle
assigned
franzosischen
cabinets
levit
1945
damal
umzu
##igend
spannend
gi
indones
beschad
teils
erschein
variable
wils
zauber
schneiden
define
operated
getranke
mild
conventional
griechen
ado
freundlich
hochwertigen
##burgh
dsgvo
strap
venture
pleasant
##fir
##feuer
shadow
eric
pics
follo
blogger
##weiß
emerging
extend
skilled
strip
einsetzen
##cou
##arn
controvers
rechnen
guides
raising
deeply
##aken
steck
hood
examine
thy
inventory
##deckt
arme
geheimnis
maus
dragon
luxur
hardcore
lyn
kul
meinte
aufgebaut
lawyers
cuts
genugend
demokratie
tempor
bds
temporary
merkel
zutaten
cb
##macher
mixture
haushalt
seitdem
warn
demonstrate
engel
##preise
wisdom
tiefen
tune
realitat
burning
abstand
aspekte
##worter
fred
beleuchtung
employer
jog
laboratory
stronger
semester
kenntnis
panels
##auss
##unterricht
clips
##mith
ersetzt
entering
transparent
##brechen
substantial
erschienen
##hofen
wenigstens
arizona
pixel
sg
abteilung
spielautomaten
lid
haushalts
cats
wins
##asser
oliver
##aste
##inois
nutze
schulter
##oration
distingu
zoo
tours
pom
lohn
##oto
einzigen
nm
manifest
reveal
exploring
##bereiche
juden
##vania
##kunfte
brian
einrichten
nette
##orien
clinton
stattdessen
apr
belg
bestimmen
sterben
##riers
preparing
hinge
sichere
stadium
tradem
##lossenen
morgens
titles
##teilungen
volunteer
reduziert
wilhelm
thesis
steckt
westfalen
ordinary
grundle
poke
marie
springs
ensuring
##laus
chips
transactions
stability
rapidly
eig
##cept
distributed
muhe
indicated
##weiten
bisch
returning
angekommen
kugel
##gendes
katze
elder
teena
parlament
##mobel
##uous
erfolgreichen
bills
foren
kun
##gluck
compass
reiz
kombiniert
##zeits
mounted
kay
rd
peer
chaos
sauna
anstren
selben
satisfied
eindeutig
##ikationen
signals
lein
fluchtlinge
rehabil
gebuhren
kontaktieren
smoking
speakers
eintrag
schlicht
heading
licens
uniform
##korb
sympath
refund
grunder
jewelry
bewegt
grate
##utzte
mieten
crown
ehemalige
wildlife
##attoo
##fordern
sturm
witz
datenbank
wheels
spielte
##zum
betrifft
intervention
lowest
slide
pira
pension
schalt
vorzu
beck
##hd
auflosung
freis
overview
unterscheiden
weren
gleicher
interne
benutze
##gert
##69
dachbeschichtung
##tery
soccer
##nahm
prest
eag
brad
ceremony
tong
##ubt
##mie
wasse
bedrooms
yards
beteiligt
sonstige
entstand
##oming
unc
loka
enemy
##hut
locker
brandenburg
vr
sof
puts
wifi
psychiat
nachwuchs
##quis
##gemaß
rats
focusing
reaching
##rauben
juice
provisions
wesen
bj
reiß
fabulous
alpen
ermitt
illinois
##arded
augs
unange
arrival
excellence
sought
##likt
wachsen
bold
angenommen
verbessert
##lenk
##conne
##geted
rettungs
5th
##reiten
luther
isbn
nachweis
vermittelt
##behorde
elizabeth
masturb
##jun
rabatt
barbara
linien
bachelorarbeit
traur
couples
behandeln
reserved
haftung
##ubers
verabsch
##nitz
yah
##lauft
fantast
veroffentlichung
besseren
##tschutz
definitiv
soldiers
jess
##72
##cos
grid
verdacht
europas
ki
flir
outlet
palest
enzy
emotions
opinions
platze
petro
scotland
cens
contribution
verhindert
hilfreich
regulatory
verkaufs
nurse
universities
broker
sebastian
##ideen
##ores
##nern
komponenten
gunstigen
pt
delay
loop
studios
nerven
##hauses
buyer
##publik
gefuhle
winds
##rut
blatt
osten
exped
paragraph
masters
linear
focuses
engaging
archive
ordentlich
pris
cigare
insights
matching
artific
berucksichtigt
mogen
##ibilitat
psychology
nfl
align
improvements
initiat
brook
contracts
pine
mam
tourist
##konzept
dl
ausflug
zustimmung
kings
gegend
liebsten
naked
geteste
cf
wichtigste
principle
oven
gained
extraordin
flirt
pens
copper
##lenn
##gunst
##ografie
##rogen
liv
cape
91
xe
anspruche
##welle
dependent
irrit
herein
##anges
cyc
roots
relating
jagd
ansicht
gasten
##zeichnete
functionality
bestandteil
stom
infla
det
weisen
width
computing
endgult
encounter
nachfrage
##parte
kurzem
worten
melan
amongst
krebs
enhanced
##bered
mistake
seller
enabled
##uxe
hitze
beantworten
##agentur
##81
sul
##rager
wirksam
anmelden
albert
oxy
calm
##chor
##spreche
##ifen
##freien
photographer
davor
##heast
verpflicht
reception
flour
premiere
##lance
wohnungs
##center
##manns
happiness
klo
dt
encouraged
decla
lor
##73
##bow
ruhr
dash
rubber
gestalt
baut
eintritt
rezepte
clou
gesunde
schonheit
sep
trigger
##term
unusual
##bildungen
ubungen
##uchtet
maler
gabrie
orchest
vermie
ener
promoting
einwill
dall
makeup
thinks
vorbereitet
unzahl
zir
thai
##version
meditation
mittelalter
contributions
##cat
attempts
ausbau
bluten
kanal
correctly
collections
josef
##fru
sentence
uberlegen
apfel
gotten
##ographie
##ocked
##bourne
personals
gewahrleisten
##lett
gan
shock
##send
tourismus
bearbeitung
duft
grossen
fiber
reprasent
##vable
steigen
##74
intim
##ziger
##fahre
repeat
abb
foster
##prasident
reson
alliance
subsequent
##icide
dispos
clinic
fuße
plas
stephan
begleiten
mechanism
griech
kub
teenager
offensive
notwendigen
festgestellt
##voller
ansprechpartner
##fallt
evaluate
reverse
vernunft
wolle
stadten
elementary
hauses
geru
##82
juris
verge
governments
##ctu
trock
oz
##vermogen
bewerbung
##winkel
##kter
curriculum
chrome
sile
##isers
knie
schles
penns
##imen
configuration
##ckel
erganzt
trim
fundament
##termin
estimate
angepasst
##informationen
erfahrungs
lil
introduce
bildschirm
motorrad
divided
allerg
##opher
rescue
duration
##onic
wettbewerbs
stran
##onent
fm
wellen
##wissenschaften
venue
musse
performances
##leitet
vergeben
rely
##futter
verschle
renew
perfor
##urz
##mutter
rucks
direkte
ahnliche
##mitglieder
##ylvania
tai
tourism
##gelung
buff
jews
malays
uncle
##pson
orgas
fruhjahr
voran
progressive
apotheke
1986
freiburg
nevertheless
metabol
stylish
brauche
veranstaltungs
crafts
schmidt
##iments
##boards
regionen
disorder
##pc
hunt
disability
vordergrund
##richter
##ordneten
yu
municip
wy
##insatz
hochzeits
schokol
##leister
##lichten
organisationen
letzter
aims
portable
rack
verteilt
trocke
columbia
##kinder
betrachten
taxi
deeper
maker
tabelle
##rimin
tooth
font
finest
verur
unkom
rush
loschen
chemistry
##athered
embed
##lson
naz
specified
##witz
chen
##mil
##sprecher
benz
aggreg
dave
magazin
spannung
gospel
schna
schweden
ausgesch
entf
diego
franzosisch
pointed
fremden
tolles
elections
##onie
##raumen
verschiedener
brush
worker
##tende
##reffen
##uns
synchron
logic
padagog
insert
##str
beds
kleinere
christians
dicht
una
##stechnik
gepack
dringend
preisen
einbau
tx
cannab
##leute
situationen
##koll
##dar
prozesse
targeted
reco
designing
effektiv
##omin
voraussetzung
dealer
echo
##instit
editing
##jack
aufnehmen
rufen
##84
angeblich
##jan
##plus
##anbieter
writes
##tehen
anat
##nehmung
lasting
ank
prospe
crack
uncertain
arrangements
partie
singing
nehme
##icon
##rennen
passage
##krit
schnellen
strengthen
horses
##glas
glanz
##analyse
umstanden
behaviour
jerus
rarely
damaged
layers
1987
##bran
##lasst
genossen
labels
drives
offiziell
##leun
strecken
rus
remed
packaging
caps
endet
convenience
wholes
visits
robot
marsh
flooring
rally
einzigartige
gesprochen
besitzer
teilnehmen
##zell
faktoren
fs
deluxe
summit
figuren
pregnant
angabe
tschech
miller
##bind
cameras
stall
creativity
verfassungs
holes
automaten
conservative
mayor
ranging
erzielen
##atische
brie
##bruck
entfernung
periods
danger
##rary
abgeb
unexpected
blin
enthusias
vine
##ieso
turen
munch
modified
bemu
levitra
democracy
acquire
concentration
daneben
nose
##sph
##nse
laufenden
cul
conservation
gastgeber
##rifts
sech
euer
releases
##anth
vorn
delivering
##team
##schne
superb
lisa
medikamente
jay
ursache
135
aids
##iac
##mmen
##ancen
hay
lone
##law
kummern
dancing
teens
streifen
basel
##post
##farben
##betre
til
brig
obs
##ilities
minds
##making
floors
seattle
##staaten
vamp
blonde
partnervermittlung
weist
anliegen
independence
territory
implemented
scored
spacious
interessieren
lautet
biz
aussagen
##gestellten
##away
narrative
##lten
fris
demnach
abwechslungs
großzug
beschaftigen
bestehenden
stupid
telekom
##zeichnungen
##stop
diagnose
sowieso
abnehmen
1984
##beginn
eta
gepragt
leid
geltend
##mone
##iking
widerrufs
negativ
unteren
##fahrten
screening
##utical
watt
shield
pennsylvania
roller
simult
cous
sophistic
jemanden
grundung
angegeben
pip
##ui
angekund
colleagues
werner
##bungen
leuten
optik
##kens
kase
deaktiv
advantages
potato
tater
seam
##auff
gumm
beseit
##verty
##zenten
##geschichten
stal
medication
franchise
##artigen
vertrauens
tore
stiefel
devo
glor
##lehre
singleborse
zweimal
auction
gewinne
##oben
disaster
aktive
##insel
##werden
##brit
sleeping
opposed
luc
diagnosis
sculpt
completion
hangen
constructed
##oses
##xid
##ofen
deput
restore
alternativen
wilson
schicks
representation
verlin
anfangen
agriculture
ni
##holder
depot
reparatur
bitter
passionate
harte
unterlagen
legacy
spare
trager
ownership
talented
cler
operator
forscher
armed
befe
##zenen
sket
bout
jason
survive
ought
entrepreneurs
pkw
versus
hinweg
##tung
vorstellungen
crusher
threaten
manchen
copies
##ument
schlimm
vitam
##fuhrten
aussicht
inspection
##cor
fucking
filling
##attan
##lieder
ampl
emissions
inno
##porn
desert
20th
kate
fraud
reine
bust
charts
##uft
erneuer
poverty
bearing
frequent
stellvertre
##worben
wandern
bbw
werfen
electronics
flexibility
zin
settlement
genetic
handlungs
experimental
pup
seal
##master
##gere
bbc
shed
##risch
entwickler
schwach
naja
terrible
geschwindigkeit
consultant
paare
##rums
##nenden
##ologen
##verordnung
geboten
modul
##strate
tunnel
##wohnen
erreichbar
philosophie
mithilfe
julia
gestal
lun
krauter
symptome
dishes
betrag
schien
zwangs
1985
bundesregierung
##muster
phosph
shore
balt
##orgungs
##teils
shit
frost
##chselt
lecture
injured
distanz
connecting
abund
##iances
somebody
verknup
##itenden
difficulty
kanton
installiert
anten
mitgliedern
##lickt
existenz
verbindet
uberwach
abgesehen
vorschriften
sons
sog
rauch
##iors
instantly
okonom
##pum
##blo
##hrte
suffered
hausarbeit
afd
worn
thirty
viv
fritz
alas
colours
palace
##verbrauch
intra
artificial
buttons
keyboard
##stage
entwickelte
toxic
##anien
divorce
judgment
##prufung
ri
exercises
outer
intel
##ragten
pets
outlook
exterior
##misch
beschlossen
legte
transl
##onia
sehenswurd
sieger
spectrum
blitz
integriert
##build
duo
gelassen
bent
##wohnungen
beneficial
179
##immel
continent
beziehen
##bte
fune
fisher
letting
sonde
##baus
girlfriend
ali
alteren
auswahlen
trinkwasser
attending
##matic
workout
ordnungs
soldaten
accum
automotive
##writ
alternativ
medi
unkompl
##nend
dedu
dealers
schwangerschaft
##handler
elsewhere
drogen
afghanistan
gesetzes
##rett
##fahrung
pepper
rick
erfullung
fool
genet
waves
##losungen
derived
oberen
gs
heck
##tenen
teenage
oberflachen
##ustellen
##nein
##ington
einstellen
prasentation
abroad
manchester
##peln
kontinuier
ausprobieren
xbox
arrested
bert
glory
cros
##serie
gegebenen
inflamm
astro
korpers
##note
poe
##vic
##iosen
charm
##aria
fewer
##bauer
austin
muskel
platten
environments
erstellung
##phia
##px
jerusalem
davis
##ols
bearbeiten
trat
werkstatt
vegetables
religions
justiz
substance
risiken
sna
overnight
weiterbildung
krise
widerspruch
noten
quantity
##ao
##zend
contacts
grounds
durable
##ever
##onist
comprom
clay
gefertigt
aest
automobil
shoe
officially
prophe
solidar
worter
hiring
stattfinden
appet
eingeb
wage
direkten
##dat
sorge
binary
einwilligung
renten
technologien
berater
pione
verwal
seeds
generations
geblieben
wich
holland
##verarbeitung
grateful
moderate
##fleisch
##anwal
salzburg
##ubung
##icious
fleet
##atile
##zur
identification
babies
##lay
##fuß
##landschaft
lesben
classical
teppich
suspect
##anspru
anwendungs
disorders
##schafter
geloscht
wahre
motorcy
pfalz
schub
##labor
exit
portrait
acquisition
besonder
wachse
ls
akte
province
keinem
mario
gepruft
entsprechen
erzeug
##otherapie
woods
duties
##stie
fruheren
##ologisch
beschwerden
##alitat
lith
##portal
##big
objectives
##bek
##tic
450
##werfen
lewis
forecast
neubau
shame
bry
cooperation
fragt
flights
unterr
anfanger
geliefert
##nehin
baumwolle
referen
##gebaude
ohnehin
ethnic
bree
##zelt
##isex
resistant
leh
ohren
##ckey
rechtsanwalt
##griffen
wodurch
beschreibt
dh
##outh
expanded
wherein
##nc
corresponding
darstellen
titan
divine
opera
saudi
##rine
wissenschaftlichen
gewann
horri
##chnungen
delete
participating
osterreichischen
##aro
recycling
invo
##ave
haltung
anger
eva
overse
##organisation
repairs
##writing
webcam
atlanta
investing
menschlichen
##giene
pferd
hrsg
surro
acry
carrier
bibl
verlangt
berechtigt
vorab
##geschoss
landing
satellite
aging
anreg
##lags
##vorsitze
edward
assignment
##aters
abilities
##konstru
beschluss
reiter
admission
pist
##atischen
virtually
twist
princess
konzern
vertical
decrease
dal
wissenschaftler
compatible
regards
erkrankungen
marathon
##igs
aggressive
beklag
##drucke
getestet
explanation
uberrascht
bv
aufwend
warri
gewunschten
##bewusst
##deten
lobby
versandkosten
prefe
konsum
pray
blatter
philadel
freil
traditionellen
tile
mord
occasionally
orten
unterschiede
bogen
measurement
hoffentlich
picking
demonstration
rheinland
##owa
temperatures
##bestimm
technisch
dallas
alloc
##kult
beautifully
gad
breaks
surrounded
##ooter
schaff
nico
testim
anstatt
emphasis
besche
##urft
measurements
magen
dritter
references
actress
discussions
detection
admitted
taglichen
##kuh
trials
bevorzug
demonstrated
huh
wissenschaftliche
##britann
api
islamic
dritt
tops
pest
luxe
stammen
glaubt
gewinnt
##leitungen
##rive
arrest
komplex
supplier
extraordinary
workplace
distra
thunder
salary
##mato
structural
polyes
remarkable
starb
integrity
lippen
attract
delhi
wunderschone
voting
hosts
sicheren
##betrag
reagieren
verursacht
purple
scholar
antibiot
herausge
silen
gly
brick
##tedt
marx
untersucht
##pd
brucke
invite
nachvoll
##chtisch
karlsruhe
##67
kleider
touristen
##itas
##unce
festen
geschieht
zustande
insol
##visor
rechtzeitig
parameters
kelly
stufe
bishop
simultane
mistakes
operational
lieder
animation
audit
wieso
implant
##days
##ein
##standige
ng
binding
gathering
targets
arzne
daraufhin
##iane
##bewegung
##61
friendship
220
reven
kindle
dimensions
##haust
nordrhein
optical
sed
##berichte
strukturen
##osa
generous
zusammenge
uberzeug
oreg
##buro
niedersachsen
telefonnummer
offnungs
empfohlen
sevent
##staben
traf
##iculous
nass
organize
atlantic
##makers
philadelphia
##anzeige
christoph
konferenz
sque
gastronom
problemen
nad
entscheidet
proved
bewerten
biological
applies
stucke
sandwich
##sicherheit
finanzierung
drehen
tt
hange
scheiter
movements
plugin
sponsored
pse
##aha
presidential
beliebte
schild
##ketten
sanger
##bindung
publisher
##hou
barcel
bedenken
zeichnet
fonds
verstarkt
mask
guilty
positiven
wales
testament
niedrig
dutch
erfasst
latein
alert
epic
boch
pole
##arbeitungs
durchmesser
entdeck
kaufe
incent
verarbeiten
sched
churches
sri
fascinating
achtung
##gerung
##luß
##konferenz
tens
vig
onlines
##rone
arbeitsplatz
polyester
gesprache
angemesse
dy
schauspieler
##dens
##olis
##architektur
batterie
uberwiegend
gonna
untere
impressed
unlim
##mates
beeintracht
indicates
pru
treppen
konserv
mieter
##sendung
consultation
##atzt
entwicklungen
density
workshe
heavily
punk
zwie
arrangement
##ichteten
verordnung
andert
umwel
campaigns
##altungen
oregon
shortly
salon
gewahrleistet
##malen
minnes
curious
pillow
monet
ausgew
checks
##hofer
##lasse
##irol
aimed
##eller
##oning
tatsach
phrase
##lli
chop
zim
worried
touren
fazit
bekomme
schmutz
jacket
scharf
handed
##kretar
nationalen
developments
adobe
##region
renn
auftrags
decline
spectacular
inex
balanced
kosmet
##ausschuss
##rity
wandel
feine
swim
##vals
responsive
##ikt
ausgleich
rober
investigate
kup
einver
##hotel
liege
schwierigkeiten
comics
arn
precious
elast
fence
rivers
fung
aufnahmen
imper
##schwe
struggling
richten
##bele
ships
swit
tied
klage
##ishment
mull
schreibtisch
adapter
##gesetzes
staffel
ore
dokumente
empfind
twel
##iented
##handelt
bester
##verlauf
ursachen
artistic
aluminum
utilize
energet
arbit
autonom
triple
headquar
modus
russische
verfolgt
sf
biology
unsch
profits
##achtet
schrifts
fragte
honestly
sitzung
##gesprach
aktiven
credits
##landern
actors
##methoden
kurse
##personen
##iehlt
gover
##63
angefangen
berucks
chir
scal
foss
tempo
registrierung
lyrics
diversen
anwalt
helfer
reaktion
##68
stack
colleges
hardly
overcome
##deln
accused
##dale
documentation
innovations
erkannt
mainstream
agricultural
adventures
gehause
saft
innenstadt
vorbild
poln
defensive
750
asks
##ordination
answered
restric
employers
moll
wurz
resolve
bake
asthet
##waren
##stic
##gradu
libraries
lokalen
##zubauen
losses
literary
kohlen
ambul
freundschaft
krafte
dynamics
##tti
##museum
schro
veranderung
bauer
spazier
##aches
befre
pill
kinderzimmer
##idas
alum
lug
schriftlich
beendet
thermal
tant
dramatic
##mitglied
timing
href
fulfill
loaded
banner
getrennt
##rolle
amenities
impul
nahrung
wahns
sendung
bekamp
alien
##finanz
irgendwel
##banken
240
investor
messer
##steigen
##versicher
##ituation
profi
estimates
festivals
gewerk
sib
matthias
surg
magnetic
##schreiben
psychological
aufre
guns
neighbour
manufactured
##rassen
unlimited
luke
wassers
ek
amendment
raff
vorgenommen
##republik
diff
rocks
##tele
craw
feststellen
luf
mans
knochen
nd
hieß
interessierte
##behandlung
schneider
##nisses
erwerben
homeow
behandlungs
formular
##quelle
##ilation
addressed
vas
##chain
samp
bruste
geschickt
walks
binnen
memb
heinz
hunter
physician
##igsten
##iley
veterans
struck
1920
citizen
absence
##igation
vacc
##iessen
angry
metern
poppen
chemie
##loch
ora
##wiese
schnur
erwartungen
killer
##storungen
itunes
sender
scheinbar
sprich
gust
##verzeichnis
hospitals
nachts
importantly
listings
corp
gewinner
fusion
possibilities
hinder
moz
christen
##ubert
##utage
##ologists
adressen
bits
##losed
##bul
barn
hadn
##oly
resulted
heutz
barcelona
rio
sas
gela
##irge
gehirn
##stall
expense
endor
clever
gezielt
##flik
sehenswurdigkeiten
therm
scholarship
widerstand
betreiben
worlds
shapes
ranked
decke
drucker
embodiment
heutzutage
abschnitt
##pi
mathematics
detect
boyfriend
bamb
untersuchungen
stufen
letztes
wartet
weltmeister
amerikanische
##zir
paintings
secrets
lokale
orthod
rass
radiation
rin
voters
representing
furn
##arischen
##decken
##punkten
captured
entscheidend
staub
symbo
texture
logistik
matthew
bles
destroyed
muscles
lachen
residen
##ucken
bestatigen
commissione
##temperatur
##kompeten
shif
19th
plastik
minnesota
##rers
imperial
removing
hydra
forderungen
kfz
std
anime
smell
lease
pd
gabe
medizinische
109
radical
winners
augsburg
kuhlschrank
##fullen
laug
illustration
abc
lincol
##mentary
##format
texts
##vertra
blast
##kontrolle
##verlust
specialized
tomato
anonym
weapon
flugzeug
anwese
##hz
offiziellen
discour
##fenster
massach
##verkehrs
fakten
ark
ratings
artwork
publications
projekten
##dire
##arische
erzeugen
stet
stuhl
1500
altstadt
oriented
##a€
##greife
pushed
matrix
##iene
evtl
empower
afrika
ontario
praktischen
administrator
finishing
airlines
coe
dirt
##hersteller
merc
austria
ereignisse
##breite
prominent
ofe
##power
zustandig
komplexe
skla
melbourne
solch
unent
handt
gestartet
##lassung
##beruf
declared
supplied
consistently
liberty
tiger
##branche
acknowled
##kuchen
lesbian
perfekten
##ftet
rathaus
##start
abt
establishment
synthes
##klang
massachuse
scheinen
##psy
receiver
specialists
coin
nervous
colored
lagen
adoption
spielzeug
##chef
blank
reduzieren
##arest
dauerhaft
3000
diskutiert
ome
mainz
cannabis
##upfen
canvas
unnot
olive
##herent
cultures
matrat
compete
tries
zeitschrift
chi
holder
##seh
##ocken
balls
tausend
duck
consolid
##union
massachusetts
##pelle
mattress
rencontre
phoen
safely
psychologie
disabled
reporter
erzeugt
empfiehlt
authorized
##print
armee
loads
entity
dahinter
bean
##kol
rational
wahren
earnings
##gebiete
amy
##menge
ego
og
##wett
experiments
erkenn
thoroughly
ersetzen
mate
erschien
##ffizien
verzwe
akademie
bezeichnung
##space
165
##iertem
xl
cosmet
deli
##opath
knee
##laimed
kard
ritual
disag
##bage
##stisch
sammel
beeinflussen
schrank
exhaust
##otyp
controlling
personlichkeit
1983
zufolge
##maten
lkw
disappoint
signing
funeral
gathered
ließen
waschen
delivers
differ
großbritann
downloads
aussieht
entspannung
vereine
unterhalts
##zah
##ieben
lasse
konflikt
allzu
eigentumer
tent
uhren
shee
sail
##beschreibung
schlagt
eliminate
simulation
##unate
stops
bf
##ttel
##ifier
digitalisierung
erheblich
euren
dubai
##lex
esp
tire
entzund
##haltenen
##borsen
##iller
abra
squad
kurzlich
spokes
desperate
refers
vorhaben
gluten
andrea
handge
toilet
##acted
krankheiten
posit
passes
##ndry
oklah
##cope
erhoben
bibel
toyota
einstieg
courage
blessed
philip
subscription
feind
umfassende
sang
productivity
nj
worauf
candy
ruckt
durchfuhren
neugier
transit
dialogue
yahoo
##world
bour
##ori
1982
nigeria
koal
professionell
##ashed
spart
pseud
bayer
besetz
bulk
##vet
##anteil
filters
beschleun
##kett
lodge
oxford
stocks
senator
##licit
barely
langfristig
swingerclub
shakes
##begle
wirklichkeit
underground
phoenix
lemon
lub
regisse
##sapp
letztend
responsibilities
##active
pushing
##spar
gipfel
ublichen
drittel
ensemble
##allow
##schm
enormous
##fluge
korrekt
##lossene
begren
stehe
starter
##riebene
rechnungs
backed
weigh
caring
sheets
vocal
initiatives
##aper
versionen
imaging
eignen
##gele
##landes
tattoo
subscribe
umfangreiche
verwendeten
vergn
beef
##zahlungen
retired
##hai
silent
##kuss
acres
vel
dingen
restrictions
leinwand
##personal
ports
schnitts
##62
immune
schwab
zumal
wrap
155
##wah
##gender
inspiring
##yon
##dre
kansas
meaningful
vorgesehen
attraktiv
##kontakt
kenntnisse
autobahn
galle
liebt
laura
mengen
gemeint
baume
bdsm
garantieren
bullet
besonderer
stones
##ounded
sisters
voltage
portugal
anfragen
zuganglich
appreciated
beziehungsweise
remem
scenario
regelung
partnerschaft
entspannen
stattfin
##bors
##gerecht
ahnung
##ozial
belas
230
##ierer
hetero
teig
andy
protecting
bezieht
babys
##wave
ate
uberleben
lamin
processed
##kanz
##fro
reinigungs
commen
##brun
##uchter
athletes
langere
cush
1979
##imedia
##ahme
infant
races
protag
schreibe
rect
dean
zeugen
##very
##anierung
oxygen
betten
katastrop
cluster
##reis
##mart
neust
composed
jurisd
speisen
verboten
sonn
beherrs
verschl
##attern
##hebung
pound
contractor
##anischen
##arkt
jener
vorfeld
##asenz
empfanger
stecken
##rill
thermo
verfolgen
abd
achievement
beliefs
oklahoma
securities
##ido
verkle
lion
cv
##omm
complaint
145
schleswig
makers
unterhaltung
humanity
dokumentation
riesige
##istenz
cartoon
margin
bog
offnet
conversations
##kreuz
ion
aur
##deutsch
langweil
financing
wirtschaftlichen
ubersetzung
minus
sovie
inszen
##ringt
durchschnittliche
tumor
chemicals
effectiveness
addiction
habit
pausch
mediter
interactions
fruhling
##rob
scheiben
reinigen
nahmen
##moglichkeit
bewir
einzigartig
marchen
mannheim
inflation
finanzielle
einblick
glam
prog
wrest
##reiches
priced
tc
melt
investieren
kontext
petition
falsche
weitgehend
##nitte
berucksichtigung
zeichnen
erweiterung
execution
sprung
potenz
polish
##zielte
exploration
determination
spoken
restoration
##appen
mauer
beliebtesten
##omme
whatsapp
##nimmt
##onds
frames
contractors
archives
##baden
perspektive
hud
jail
auftraggeber
claud
##rators
##wachen
21st
nail
fullen
installieren
funded
##ronen
sophisticated
damages
##mannschaft
leichten
dischar
calculated
similarly
csu
handlung
##orous
saf
schatzen
vorsitzende
actively
israeli
fische
junk
assault
hermann
##eping
excite
identifying
##robe
frischen
basiert
halbe
hunder
classified
##osen
##reif
cooling
letztendlich
##rollen
##map
defence
##leder
render
confused
musicians
startup
##zustand
##beauftrag
ofter
##mung
##nent
charlotte
newest
badly
folder
indiana
shelf
albums
backen
recept
fruits
nahr
wehr
boe
tremend
diagram
sachs
verliert
unterrichts
garde
hinterlassen
coaches
vorhandenen
##agn
bibliothek
spell
dw
experiencing
shade
geis
nahen
christus
kusche
skept
governance
##meldungen
##perrt
conditioning
##ali
##stufen
nationals
alice
vacuum
zins
##vard
slim
subur
##itan
suppose
zuverlassig
violent
zwin
arranged
reveals
botschaft
1930
##ouren
anonymous
spiels
produces
entertaining
depress
voices
unmoglich
##ulus
prasidenten
angela
ubrig
##ppert
penalty
6th
vorstands
exclusively
vermogens
wholesale
pursue
##ctures
haufiger
lege
##ndels
##cha
##mechan
acknowledge
##krat
##treff
physically
vpn
sprecher
trucks
##geschen
prufungs
freelance
digest
##holfen
lakes
centuries
cinema
einbe
illustrated
palette
stabilitat
poliz
mahl
##cuted
nachhaltig
cave
holstein
jpg
gefahrlich
gegenstand
prints
##aga
sue
guided
nahrungs
trails
vorgaben
wishes
teu
inval
2x
fired
retten
avi
settled
quiz
konkret
##geblich
telefonisch
niedrige
meeres
designated
##ceutical
keen
underlying
ultras
zahne
##lagwortet
surgical
sacrif
dreier
##mingly
bacteria
democrats
##asty
twee
pokemon
roth
episodes
drew
cheaper
recruitment
expanding
processor
bruch
pert
konkrete
bestehende
farbt
anlasslich
feeding
##kleber
succeed
votes
beschreiben
folgte
retreat
grain
##ziehungs
inspire
wik
##esty
charak
bikes
surfaces
hinsicht
bakter
locally
lightweight
rn
bam
##sea
##kabel
morgan
1978
sternen
sorts
inclusive
deputy
##stunde
fold
reis
englischen
aufsichts
##ysteme
fond
rf
vollzeit
belegt
memo
sponsor
oldest
diat
aachen
bilanz
rv
sieb
beruflichen
fuhrenden
##liegenden
groce
crimes
vorsichtig
nachstes
##hul
##amo
##casts
manus
surre
offline
announcement
kollektion
##ichtes
geburts
traditionelle
##bis
gemeinschafts
##ucky
soap
##olas
discipline
##sty
gemutlich
jahrzehnten
imagination
pants
brussel
spielothek
angelegen
##horer
##roph
##bai
kletter
##lena
anderson
##orde
##mate
mons
1968
##bean
zentralen
odds
##ardo
coupon
kohle
dreht
roughly
destroy
anerkennung
zertifik
onlineshop
berge
##rohr
foam
appliances
##forum
##teilte
studierenden
tears
##sets
##burn
fahigkeit
blame
##pas
brem
bing
verble
##videos
empfehlungen
unverbind
angesehen
unfa
fancy
els
merkur
schach
lover
erweitern
schließt
##hausern
lips
jahreszeit
bezahl
marketplace
##brand
steuerung
sql
endless
fame
paste
pays
##asern
rehabilitation
einzeln
nachzu
personalized
argue
congrat
drops
##lace
##bahnen
promised
compassion
vollen
occasions
russischen
sword
##gleiche
##agon
betont
destruction
nv
anybody
trom
##lest
deserve
##kleid
raumen
deutschsprach
coins
enjoyable
swee
##ordnete
veteran
##ndurch
##block
insolven
optimization
kundigung
##aktionen
##utor
analyze
facilitate
##chnit
##hart
##aki
##auschen
acceptable
speaks
beob
twelve
##proof
##gesell
fitting
unto
##cond
##lemente
operators
ao
ausgaben
mutual
chf
nintend
griechenland
##hose
##pflanzen
cure
anwender
boxe
ethics
offnungszeiten
tropical
##lieferung
placement
##ieds
##juana
aa
edu
##anleitung
bewalt
versuchte
hiermit
ya
durchsch
##fehler
cheer
1981
bayerischen
overloo
hurric
indien
##padagog
##abs
amster
weiche
objekte
veranstalter
monte
rutsch
##horige
voted
nachbarn
unterhalt
fernseher
explaining
##dienste
##ifice
##ntlicher
attorneys
acceptance
benj
##ussten
immen
##ilton
ceram
parameter
flexibel
charlie
##itable
difficulties
1975
beaches
hitting
##bib
producers
cambridge
static
relaxing
harvest
lying
stomach
vereinbart
##wachsen
baking
incorporated
templates
##urd
versorgt
uberle
cocktail
arbeite
kiel
rost
valve
wahnsinn
verschlagwortet
trace
beinen
arthur
gewinns
router
exhibit
xp
cognitive
gelunge
evident
basics
lincoln
suicide
##owned
##aufgaben
umsch
gord
probieren
automation
7th
weichen
loading
stap
##machung
advised
genial
##gate
variation
popularity
habits
robin
moore
involvement
forgotten
heroes
##lekt
magical
ausgefuhrt
begleiter
serial
palast
##aged
productive
charter
wunderschonen
aquar
selts
garn
##owski
##merkt
camps
reflex
##vented
pharmacy
schutzt
kb
laßt
##oires
trium
arger
mesh
proceedings
ole
cis
##ohle
##verk
summe
amerika
denkmal
beina
lob
nt
fitted
steigern
##freunde
##consin
seitens
##iffer
glu
##wenden
##beutel
##ouri
wirkungs
mittag
nato
kreative
geschenke
gunstiger
todd
welfare
##paar
alleg
annahme
##ppchen
apparent
honda
bloß
##weiler
molecular
beloved
##cheidung
proteins
##but
printer
großbritannien
threats
ranch
ermittelt
schreck
rc
##fire
zunehme
madrid
ensures
verletzung
mittelstand
hl
adequate
overseas
wisconsin
##pul
catering
fundra
##folg
##town
fortune
langfrist
##roster
bankrupt
##aumen
dieter
##zeitung
##graduate
##klassen
rechtlichen
alltags
##geschwindigkeit
##rise
katalog
mannschaften
verstor
dampf
##phys
geschafte
maryland
wolfs
rewards
anre
10th
##issa
##tener
wherever
leo
##stars
##ferien
auskunft
derart
##nutzung
malaysia
transferred
fue
placing
rasch
umfrage
statistical
landsc
##boot
weltkrieg
##abling
generator
autorin
pflanz
detro
##zeichneten
mv
desce
fles
fdp
airline
plural
solely
tiefer
a€
liest
titled
##trager
landschafts
erfolgte
merchand
alab
warmen
##zuh
torn
troops
bewertet
mexican
palestin
hex
refused
followers
gefeiert
strat
bewerbungs
losungs
motive
##iffen
##produktion
discounts
sponsors
sied
kalten
mixing
raten
1972
heels
sperma
eigentum
associates
umbau
downs
##ania
anthony
kame
denied
grip
dicken
inhalten
##veranstaltung
##wirtschafts
franzosische
koffer
sunny
##ipt
##bla
chlor
wasserd
paras
kleinanzeigen
laundry
alike
spass
1x
departments
beides
railway
inevit
ott
redaktion
documentary
considerable
##uro
fotografie
forst
organisieren
preserve
kreativitat
hygiene
automated
empfangen
bewahr
phd
alto
christopher
notebook
kurt
bergen
richtlinien
begleitung
barbe
grants
hockey
angekundigt
dunkle
intrig
tieren
hekt
fiscal
mechanisms
mosk
enorm
##itur
ez
mim
##zenden
specifications
identitat
lately
erinnerungen
vancou
za
##wende
verbreitet
modernis
herkomm
arzneimit
offizielle
naturschutz
erkunden
intermedi
prox
heizung
jenni
hinblick
geduld
brus
celebrated
costa
accomplished
cottage
kampagne
queens
verwir
hormone
justin
##seitige
positione
grades
surviv
precision
batch
wasche
cran
erkenntnis
capability
selecting
plum
##anka
entries
inhaber
sixth
##fahrzeug
##ollen
verbindungen
apost
wesentliche
##verantwort
##cus
revel
navigate
payday
peaceful
##kete
empir
pionee
accommodate
##kit
meters
gruße
gehalt
darle
##ablen
##rect
spy
vergro
##afil
vancouver
119
permitted
schwarzer
##aux
schulern
vereinbarung
stroke
nintendo
lawn
frozen
##finale
assuming
kasse
scho
gesetzliche
hydraul
eroffnung
institutional
gewerb
##tellers
wend
##igert
##iess
##prechung
nl
hahn
blade
locate
kleink
erfordert
rif
zustandigen
ama
tabletten
berechnet
uberein
##cca
priest
ancest
schwule
vierten
spru
disclosure
begeistern
##zure
##fass
singen
104
gesammelt
gop
treiben
ubung
##ilian
##ffers
gaz
##irable
unlikely
schuppen
reck
schwimmen
##chenden
swift
spezialisiert
berucksichtigen
weber
##sende
landhaus
anpassen
tender
vendors
nutrie
erkrankung
niederlage
positionen
##rink
creator
municipal
##laufig
formel
ia
transmit
eager
ramp
##ierbar
poo
alexand
blogging
advances
tension
professionellen
batteries
##lift
bekomm
ofen
thumb
homework
hormon
lustig
sax
flasche
friedens
leis
oscar
##bacher
##hoe
pumps
8th
abgele
glasses
delta
preview
convey
ereignis
timely
triumph
detroit
dozen
gods
verschiedensten
contributed
boom
dekoration
chase
hohem
gesellschafts
amsterdam
adidas
kry
toe
wolken
scratch
straw
crop
beneath
wings
##males
##vielfalt
jeweilige
schlechter
puzzle
wem
fluchtlings
kassen
##kurse
herkunft
bundesland
##ndlich
troubles
induced
##giving
##reibungen
##lebnis
##din
vulnerable
glow
heidelberg
marvel
automob
lovers
syria
schick
##rr
bedienen
renowned
bris
##inee
edges
charming
eingefuhrt
frankfurter
teller
##ffekt
purchases
##ст
blockchain
drove
ausgesprochen
mug
##camp
zell
ws
##dert
##fly
geschir
1976
constra
para
medizinischen
adjusted
##tec
ambiente
keywords
reagiert
plates
ungluck
##oire
schmeckt
hm
##kh
solving
##ioxid
explicit
doppelt
politisch
bulgar
gekenn
##mplo
einzigartigen
sb
nag
journalisten
wertvolle
abwehr
wirtschaftliche
##stift
entspannt
winkel
b2
##lus
##kalender
realistic
angemel
beteiligung
ridge
wahrscheinlichkeit
chore
intensity
careers
marco
plumb
cultiv
gewunschte
worthy
##hangen
##fu
geplanten
techniken
plag
erfolge
philippines
##long
##ports
marijuana
vip
##instru
kot
locked
generationen
alfred
##fab
reliability
##fonds
kob
institutione
210
fetisch
shorter
notwendige
ernahrungs
allo
versprechen
enl
ubernahme
kulin
companion
##kehren
spontan
erzielt
##function
riesigen
angest
knob
icons
assured
mobility
jas
puls
rekord
konflik
graduated
brems
dressed
ferienwohnung
##cell
##retion
bgb
##prakt
##bein
##magaz
biete
##krise
fifty
zwische
completing
converted
extract
accompanied
vorauss
eli
renomm
##otype
pflanze
##muhle
optisch
suße
##lauch
passenger
freier
pharmaceutical
kriminal
customized
lernt
vibrant
subtle
einkaufen
inseln
speise
vog
compound
angelegt
##nbsp
bruce
denver
hamilton
fassung
telecom
papst
operates
veroffentlichen
##ragung
ignore
##blatter
trauer
kapaz
1977
##zende
limitations
amerik
##ieger
mothers
blasen
possession
emma
vize
uberraschung
##rechtlichen
tennes
149
spreche
gerichte
keram
##betreuung
hitler
ratgeber
##mmy
institutionen
##ativer
dd
bundesrepublik
agreements
##dynam
dumm
##ussell
echter
soup
##gebuhr
indicating
##belt
accent
solches
basement
##mits
erstklass
102
scher
utilizing
beinahe
architekten
stoffe
hired
holt
##semin
supporters
##kamen
angels
0183
großem
##¼r
celebrity
dying
rasen
##abschluss
##freude
passengers
helden
##fox
##ordnen
##rimination
cherry
attraktive
silence
ears
ibm
syndrome
technological
likewise
##graben
darkness
revision
##praxis
129
gates
embedded
##acco
apolog
submission
schlechten
suff
sectors
aufstieg
##blr
jonathan
hubsch
1974
settle
weine
##itarian
##issance
hawaii
consciousness
##bereiten
bekle
sooo
##undet
##yen
##rite
robo
precisely
corruption
spateren
##strecke
measuring
duis
benjamin
salad
promises
##uu
neon
##auchen
##hofs
personenbezogener
##cra
##krank
##ystems
energies
howard
meh
##senden
bg
gewahl
##onisten
##bles
qualitativ
##geht
treating
wim
elektronische
##itty
mobilen
##kamera
lis
galt
zitat
vorsitzender
##achte
relaxed
gegebenenfalls
antonio
oils
cpu
cuis
begrenz
horst
gary
kammer
spor
throm
richtlinie
##liest
ausgewahlt
zweiter
##dered
##klin
dict
ons
##meer
##hardt
##hell
pearl
excitement
teilnehmern
1973
##aller
dauern
mise
enthusi
##derer
eiche
fremde
pracht
fastest
zen
munchner
mediterrane
cleve
oxid
##geraten
cabin
bernd
##vant
secured
##ularen
konzip
##grenz
uben
cooked
jacob
crafted
tausende
rog
bewusstsein
gains
##asted
wahler
##zwungen
dild
pfeffer
criticism
gemal
receives
stadtteil
kommer
365
outdoors
hervorragende
##hilfen
alternatives
roger
buhnen
koordin
tumblr
##wendet
erfahrt
invalid
##berau
anerk
pend
disappointed
carb
zerstort
buffet
wunderbare
walker
jennifer
nuts
##illion
aussen
minded
##kons
travelling
flaschen
complaints
marina
m2
##gestell
##otheken
cass
##otherapy
genannte
##brucke
modeling
wp
##ikes
unverzuglich
##ziele
gefol
abschließe
pon
##attung
attractions
photograp
corporations
gymnasium
encouraging
konkreten
##ialen
gp
##fi
konzentrieren
regelungen
vertraut
bast
css
epo
rebe
kissen
##groß
affects
kostenfrei
anytime
rival
meyer
darstellt
erreichte
128
trauma
motors
advise
refriger
vic
observe
sacred
rss
republicans
schuss
##opfung
bones
snack
bestsel
tsv
kits
forming
arguments
##rors
verfe
beschrankt
##attered
hallen
##fallig
strategien
felix
halben
subsid
terrassen
separated
##pin
confidential
platte
##schicht
tb
flee
trennung
buzz
falschen
betting
##zeigen
bonds
erkenntnisse
diskutieren
damn
hungry
explorer
satt
##web
advisory
##letten
accordingly
prospect
##cence
informative
differently
##lampe
dementspreche
pvc
zelt
maximale
##aid
comply
##betreiber
##harmon
shutt
charging
##vereins
judges
##anspruch
enemies
blowjob
##iratet
##paket
thereby
gesetze
fate
1940
eind
missouri
alumni
erlangen
vernetz
shelter
aufeinander
sweat
##inity
##ometer
phill
##kture
bind
nachhaltige
knife
zusammengestellt
pav
preferences
halbzeit
bloom
regener
##isierungs
2d
morris
##gebnis
borsen
entrepreneur
##nr
snacks
tm
##uct
##immy
ulrich
peru
variations
##ни
saal
tempel
kron
sustainability
schicksal
##herapie
mold
innenarchitektur
ritter
iowa
##chende
scham
sits
neo
painful
bunt
stif
sonstigen
##antes
##listen
hee
instructor
proportion
persu
empfehlung
regal
determining
##ventions
allah
hohepunkt
advisor
ferienhaus
##gess
##orsche
paten
klappt
##stabe
5000
##kenntnisse
kleineren
##stehen
##issed
filing
instrumental
magnifice
hess
flags
neat
##nsten
blaue
referring
anspreche
turb
belastung
anbau
errichtet
diameter
collecting
finanziellen
trio
striking
routes
schulden
tagliche
##cla
variables
energien
produzieren
zeitgen
halter
hazard
obligation
vermieter
honig
##deckung
responded
##ffed
encry
vector
retain
##zusagen
influenced
wende
1969
rechtsanwal
##ashes
##maße
reflection
##gale
##reckt
umgehen
##otte
veterin
##reck
collaborative
reduz
deadline
novol
##ippen
verify
becken
##teenth
steady
reichs
kaufmann
klavier
##studio
##varian
tanzen
brasilien
weakness
parade
turbo
achieving
quit
gewahrt
coloring
anregungen
rhythm
ubert
shemale
umzug
restricted
nev
geringen
topf
knock
neighbors
geschlechts
##gence
hierarch
multimedia
pent
##aver
##beitrag
##datum
##reht
identical
##aret
athletic
##pur
sextreffen
neum
atemberau
hob
ganzes
nicely
defeat
ecos
tackle
##with
thrown
steue
##studium
wiesen
anp
efficiently
tongue
cole
zuruckzu
1967
coupled
##iren
##bande
gaben
stadion
sack
##kleider
tennessee
kindheit
melde
typen
ordner
festgelegt
deaths
provo
##ipps
mathematik
civ
unity
js
suspension
##laubnis
lacheln
gateway
schwimm
##blog
nash
publicly
simultaneously
##istin
##großen
volley
##selbe
##fahige
abendessen
consp
begun
##arbeits
##rons
discrimination
gutem
liebevoll
ukrain
pries
lampen
specialty
##veranstaltungen
##flix
##decke
mice
ublich
konzentration
schwachen
wagner
rechen
fruchte
##rath
clark
##autom
beth
##werker
verstandlich
##wetter
##ußt
sorgfaltig
##prachen
reib
figured
definiert
cds
##inern
tempe
##bereichen
entwurf
damaligen
fkk
##sern
thuringen
##mels
169
yam
##hum
seating
australien
multif
verkaufe
coastal
nachfolger
accele
brass
##ов
treffer
schokolade
iconic
##faktor
pools
beobachtet
##hungen
mußte
coupons
harvard
##herz
labe
##atin
##pfle
installing
besuchern
##anzig
##standigen
cer
dusch
stopping
pollution
conve
momente
boundaries
blond
scoring
millenn
##cont
prophet
verpackung
jaw
jacke
brows
rentals
##achim
##modelle
##rium
bezirk
tl
caf
qualify
unemplo
nether
gesang
##osh
leisure
personenbezogene
revised
breathing
prospective
augenblick
pulling
##urgie
##oda
##atty
wool
easter
zart
draht
gently
beings
##reut
##onn
bewegungen
direktor
kassel
moisture
facial
##bezug
entfern
begegnung
##ndsten
ipod
harten
ergonom
sensit
##naissance
implications
lauter
rude
beruhmten
dism
geringer
geilen
disagree
konstruktion
novoline
hing
erworben
wollt
schwache
plumbing
einheim
gefickt
heated
##hole
inhab
propriet
gulf
wax
##platt
hg
organisator
zeige
leise
##wi
##lehrer
dominant
booth
erlautert
essence
##aß
dunklen
gewichts
##suche
scharfe
mehrmals
terra
cups
##wun
pou
query
1200
##takt
##acker
##bron
nummern
traditionell
heutige
regisseur
platin
ethical
armb
##resp
attempted
##liegt
differenz
gegenseitig
##igo
viewers
effizienz
partial
competitors
vorschlag
bend
commod
##fotos
insulin
wohin
populations
buche
unvergess
##fig
bite
closet
##idal
##deutschen
##wickel
nachteile
varied
##nell
berichtete
##haar
devoted
parish
aroma
##ando
geschlecht
erforderlichen
graz
warehouse
anruf
flur
geograph
laufzeit
poison
expecting
weile
impacts
delighted
offense
gibts
##top
biele
##orph
voruber
##prozesse
erstaunlich
ganzheit
shake
schwerer
##hub
plasma
##zugen
convinced
##geg
verwirk
particles
mitteln
netflix
vorsicht
##dacht
zellen
regionale
schwed
boats
tester
perception
muslims
concluded
wertsch
advents
kandidaten
helm
freige
instances
novels
kooper
##mud
##liert
##oun
crossing
##fish
nz
nylon
analyst
##gte
##cour
carib
presenting
##arr
joachim
costume
großteil
deckel
spektak
##organis
shine
##aal
##rub
##store
optimierung
weiterentwicklung
symbols
schicht
gelieb
soviet
##atta
##lect
ostsee
##ausbildung
atmungs
##rup
##opfer
bosch
vorliegen
##wirt
applicants
##wanne
verschwinden
##gibt
chapters
##iary
##jacke
159
bears
zoom
##gewe
##wettbewer
fortschritt
salat
##rosterreich
reloc
fon
zusammengef
##ictions
forgive
flexibilitat
cleaner
politicians
##kyo
optimieren
eurer
dementsprechend
ordering
pope
handbuch
barriere
##gesellschaften
beliebten
##lord
##bergen
incorporate
weh
porsche
burden
##angle
beweisen
angeht
significance
eingabe
interessanten
beantwortet
bedeuten
floating
qm
memorable
##rass
guardian
bienen
relate
##gebuhren
plugins
strive
workforce
gebrauchs
acute
kolner
boring
##rooms
isolated
hiking
gefang
decorating
alabama
##quote
##itsch
wheat
paperback
##strasse
verteilen
##grunden
##weisungen
wilder
aufgestellt
libe
spielern
##esse
nationale
archa
grundschule
diesjahrigen
##ietung
angegebenen
begrenzt
gradually
##rament
ahnliches
schaum
##gesehe
##spiegel
zb
cric
souver
##itudes
uberraschend
intend
##manager
##loses
##bibli
tul
mint
implementing
##spunkt
curve
suchmaschinen
##gebene
regelmaßige
##ingang
attempting
italienischen
##anische
suits
menschliche
comprises
console
1971
zurecht
szenen
##afe
##systems
elektronischen
begrundung
negle
hochschul
helle
gour
##kia
##fy
statistik
kontrast
throwing
##projekte
einwand
susp
relatives
##istischer
betreut
##worte
##ammt
##samen
112
reichlich
kau
vertriebs
reads
lucken
##gur
medications
##kraften
##aufwand
quilt
climb
lande
amid
lautsprecher
##kuche
cocon
symbole
vielfaltige
##umme
dive
greift
schlos
schlam
grob
adverse
tonnen
##phor
##pakt
verletzungen
##gerechte
edited
tales
fugen
kupfer
verspricht
leak
gesellschaftlichen
blackjack
generika
regionalen
123
fbi
kombinieren
aufsatz
grafiken
doct
node
motivated
##cr
##natur
zeigten
excessive
##atting
gelege
##itende
reactions
ties
##lene
protective
##ickers
planeten
reflects
regarded
kast
picks
ruling
notification
ems
braunsch
steven
filmen
typische
enrich
pose
jetz
teles
fda
typischen
##rene
139
raj
wrapped
interdis
##wurdig
preisvergleich
tweet
##oper
bearbeitet
automobile
exklusiv
utah
##bahnhof
##piece
embrace
casting
portland
flye
##aaaa
ueber
##uff
##steine
faire
abu
verze
elektronik
lace
branches
##beis
autumn
acou
herzlichen
afterwards
angebracht
erhol
##neter
separation
investitionen
dawn
sund
shorts
motorcycle
screw
carries
posten
dresses
tanks
playoff
legendary
rezension
chuck
##kart
aktiviert
perspektiven
##ntwicklung
praise
machinery
##scheinend
##hafter
globa
slave
gastronomie
##mouth
##komfort
subt
##hill
contrary
spannenden
modify
##worthy
##lach
nyc
deines
##anas
dell
mitglieds
poem
##acle
menschheit
susan
requiring
lowen
wiesbaden
isa
fraktion
ci
##orben
pasta
profis
##lem
##atar
ubungs
##auber
ubergeben
moderner
shades
bezogen
entscheidungs
getre
1900
kinders
perse
##laufer
lingu
recommendation
prominen
##video
chal
fotogra
physicians
ming
##linary
bestimmung
niedersch
behaupten
complexity
reserves
uberpruft
utilized
vill
switzer
oliven
unterscheidet
bride
olympic
manh
versatile
stille
##oni
vermeint
##ulates
apparat
##hetor
##berge
diction
shang
athe
kass
wiz
corps
intuitive
orle
lp
planungs
besuche
##verbandes
dunn
nachtrag
gerhard
sid
rauchen
exem
igno
##ighters
vielfaltigen
dressing
##schuh
promotions
erkennbar
enroll
##pop
donations
##hoff
entschuld
##guard
scottish
groo
umgehend
##held
qualities
rolls
kurzfristig
geschma
schriftsteller
alar
gul
ausfuhrlich
alber
harbor
ausfuhrungen
##state
vod
##verbindung
venen
fought
thriller
##itations
elis
##nere
toller
braunschwe
erleichtern
nonetheless
agyp
lung
##familie
backyard
enjoys
lieferanten
discussing
herd
vanity
arbeitete
enterpris
erhohung
distinctive
enabling
##initi
##amerika
stieg
chel
beats
handled
##cyc
architectural
wahrnehmung
##ocke
nationwide
legitimate
langjahrige
##rah
arsen
##check
faden
##besitzer
echtes
geraum
vereinigten
##mitten
assumed
assisted
##streifen
kontrolliert
sadly
treasure
##apolis
uncon
scroll
genehmigung
steine
kenned
umfassenden
satisfy
blauen
adjustable
##helfen
##cklen
##lover
fortgesch
passwort
dated
##marke
bugs
sensation
##upp
discretion
tear
beschaftigung
masterarbeit
spanisch
gegenstande
specially
cardio
##riss
gesetzlich
seelen
celebrating
turm
tatigkeiten
vollstandige
intimate
schilder
##bag
##platzen
maur
dispute
##aktions
bekommst
loschung
##tellern
squee
showcase
##desh
pulver
konfigur
symph
taiwan
##offeln
ungarn
##abteilung
gebunden
benutzung
##quellen
accidents
formerly
##glanz
reduces
erganzen
alaska
gefullt
unne
devast
hert
favorites
prel
silk
106
brave
lev
##zentren
##flach
schrauben
brace
gemel
langleb
kongress
bundestags
anscheinend
adams
advocate
examined
mitbe
bottles
modes
##ffizienz
herrscht
fails
kette
brazilian
whit
smar
declar
competen
anleger
glanze
gedruckt
horizontal
deriv
algorithm
##news
vorschlage
ruckkehr
ard
pel
tremendous
##agung
thres
reinfor
sensors
##bol
modellen
indigen
##arfs
##nut
##linger
durchschnittlich
##aire
tus
garbage
switzerland
angesprochen
tos
brooklyn
headquarters
syl
geto
suited
reim
donau
runner
erledigt
mason
spouse
shelves
dankbar
##behorden
jorg
beute
##ulieren
acceler
colorful
magde
verfahrens
kuste
ruckseite
hype
##ocur
orleans
abgestimmt
seeks
madels
lecken
intake
##volles
eindrucks
##cul
prede
wines
mitgliedschaft
befried
doo
##flex
uno
einzahlung
decorative
subsequently
erlauben
bundestag
##ternity
##estone
##insten
feuchtigkeit
devil
soci
##regt
bedienung
addressing
tn
trafen
bondage
dez
locksmith
beans
##irat
##anwaltschaft
darmstadt
commissioner
chill
anwal
##iration
##mad
##arbeiteten
spezialisten
textil
einverstanden
##phe
greece
bochum
idy
versto
verantwortungs
rundum
begrußen
##affe
vorsatz
ausdrucken
waist
lebenslauf
entities
immobilie
versorgungs
timber
##vater
heights
dessert
knopf
##rschrank
begriffe
theories
gie
einleitung
recognis
generating
##holds
illumin
##grenze
##hnte
paradise
strain
mwst
##yan
##seitigen
##ulare
peoples
dozens
educated
disabilities
##zeu
##gehalt
0800
rolled
aufgefuhrt
rhetor
bubble
stays
gehorte
exakt
dsl
lamb
broo
ambass
lined
orna
##child
doktor
perspect
energiee
countless
zufallig
abandoned
##spot
ketten
##anomen
registrieren
traume
##tausch
##andina
insider
unterb
gesunden
##isan
climbing
knight
nazi
diskussionen
ersatzteile
urin
inser
##faden
catching
##mob
##dex
tires
kreditkarte
fare
kran
dienstleister
basteln
gebuhr
ankund
##stucken
##ologe
eingangs
wilde
##ckend
confirmation
anhalt
##shore
##city
cancel
perpet
heisst
altes
zwischenzeit
mittleren
gelost
##onents
##werbung
barg
ubel
ks
##hma
##herr
audiences
independe
volunt
auseinandersetzung
einander
serb
##bedurft
cigarettes
trainieren
domains
outf
##bab
##cup
insofern
medie
combines
##alous
quantum
benzin
ebenen
verliebt
##server
##rost
britischen
ankle
reiche
trains
sanft
fussball
geholfen
##hrten
##track
##bent
soviel
deemed
folgendes
detected
##mos
stereo
ridiculous
embra
innocent
##nery
##atigung
bedanken
functioning
creatures
##beeren
buried
reconstru
geistes
dimensional
pornofilme
belle
seh
rejected
debatte
axis
##hender
1965
douglas
markte
meldung
resid
radar
retailers
jahriger
begeisterung
violation
leuchten
##ties
##alm
decoration
korrig
nachhaltigkeit
asiatische
konzepte
##krankungen
18th
ausgehen
##uto
##pil
syrien
appreciation
aktions
beeinflusst
flugel
##wanderung
elektrische
##gens
spider
charme
##atherine
lcd
hinterher
##install
dublin
papa
zinsen
##quest
cryptocur
gd
##jacent
##yo
remode
bankruptcy
omega
ufer
geeignete
federation
##oline
glen
rag
neueste
plaint
verstehe
anzub
brutal
##folie
sung
tauchen
##verages
abgeben
##quet
colonial
faust
##ustet
gelen
rend
vereinen
hipp
supplements
mitteilung
cuisine
schut
presentations
entstehung
ubertragung
glaubens
fabrik
downloaded
herrlich
konzeption
##haw
obtaining
verleihen
pills
utter
##eling
magazines
hinweisen
alphabet
biom
thanksgiving
kentucky
notion
calcium
typisch
trane
##zessen
prima
orientation
orchestra
coconut
internetseiten
optimalen
fels
##arre
wichtiges
sanierung
fakult
retrieved
unterhalten
immense
kennedy
theoretical
existiert
transcri
jungsten
konfront
wunscht
adjacent
##iasis
fuhle
permal
photoshop
erleichtert
##gemach
interessierten
##nett
fug
flesh
demanding
##forward
##rechtlich
kalk
modules
##kompetenz
anticipated
bekann
shipped
perspectives
sichers
konstant
blocked
referenz
pag
incorrect
customs
##ptet
pflegen
zielgruppe
##funktionen
buchstaben
##fg
dried
mn
gaze
##nab
umsetzen
gebucht
segel
bathrooms
##aule
angebots
roland
jug
eigentlichen
scam
herauszu
##mine
obligations
wells
dak
vista
partnern
magnificent
footage
census
daughters
##vester
nebenwirkungen
##lining
##belast
volumen
replacing
olden
##bedien
laune
tokyo
##lly
nba
solle
##aneous
wallet
szen
nano
aspekt
##izierte
notfall
erganzung
##zgl
wurzeln
insolvenz
##brucken
epide
choles
crushing
norweg
slides
sake
nurses
effiz
saug
bewerber
offerings
##got
spektrum
pickup
establishing
merkt
closest
proposals
##illon
canyon
coalition
duke
##rio
reit
strahle
##tedly
koe
hase
mete
objektiv
impulse
tuch
umfangreichen
##sense
beamten
betrug
borders
fireplace
fuhlte
ausgesetzt
akzeptieren
##uding
##steuerung
weibliche
seemingly
barrier
##beteil
##adays
employ
gordon
vu
brauchst
nebenbei
meinungs
shakespe
adress
punch
cargo
asien
schock
profound
betru
flyer
##wertes
integral
fluge
desires
herzog
installations
##ippi
gesichert
108
fears
hausfrauen
cp
##thon
hinzufugen
ey
##uhrt
observation
investoren
##fix
formats
##ntscheidung
flirten
vertrage
nutzern
unterschiedlicher
kostenloser
passive
promotional
##angene
michelle
counseling
belegen
fleiß
##rosion
cache
##verletzung
1800
carn
##niveau
ana
##handels
nerve
cataly
##chungen
putin
buchern
##oßen
minority
organizational
registriert
donation
surprisingly
netherlands
##llo
myst
raf
##jing
sweden
##heizung
katholischen
sandy
diagnosed
ratsel
##zucker
faktor
mississ
lymph
##mengen
##itution
borse
wides
kohl
##ufen
##umfang
permalink
caribbean
##ziehbar
cellular
ranges
ingenieur
##itious
nowadays
besetzt
9th
##isc
leop
##ricts
emerged
harmful
buches
decreased
trug
theres
editorial
##mons
einzug
pfarr
missions
##isal
unbesch
russell
demn
dissol
gian
failing
eisenbahn
##nee
unterhalb
hurricane
combining
##nahe
forty
exch
betriebe
sacrifice
anchor
spaten
undergraduate
separately
##apor
upset
legislative
##vac
handful
vorganger
wr
gultig
warming
##pause
##lop
##jenige
mechanics
unnecess
eagle
gf
berufung
##neath
antise
moderator
calories
bunte
##lafen
##inster
##litz
indigenous
seas
##bir
intermediate
seniors
langweilig
##idel
enterprises
verzichtet
##flu
merken
renaissance
tiles
zukunftig
participated
ether
bielefeld
pcs
111
prepa
##wendungen
teilte
antique
erziehung
dennis
##bound
homeless
reuters
psycho
##verteid
goldene
samuel
vale
beruhrt
introducing
sitze
borro
glatt
northwest
aktualisiert
duisburg
jessica
4k
centered
existieren
chile
underneath
jackpot
merchandise
##gramm
verfugbarkeit
schlech
akten
##adi
informatik
seasonal
christine
320
overwhelming
##ruh
japanische
cycling
sportler
irgendwelche
etliche
aaron
##feste
greens
medicines
knit
flows
vorjahr
ausgewahlten
##ikern
inns
##obje
thou
ced
grocery
##hinder
herbert
##aufnahmen
12th
##medien
ric
pitts
bescheid
endgultig
hun
knowledgeable
begruß
##materialien
cleveland
browsing
gruß
waffe
rief
gekennzeichnet
ballo
conjun
interse
xml
hindu
wetten
modische
wester
elderly
lod
103
mixe
leucht
basil
hospitality
sticks
##uner
flair
##kore
##nished
geo
accessoires
kommand
bakterien
seil
builder
gelangt
recherche
marry
abstimmung
##brief
roberts
pockets
protokoll
comprising
conform
ian
prospects
behauptet
districts
reasonably
trademark
blutdruck
##ierst
leuchte
##ightened
wachstums
##olin
lever
bestatigung
mills
horte
wiederholt
##angaben
tourists
containers
##schild
##soft
burst
balcon
systemen
jimmy
herb
krisen
kompakt
650
kv
vorde
##imore
teaches
vendor
##rod
helmut
shy
eigentliche
krankheits
##rupted
esstisch
accepting
jager
graduation
asphalt
homeowners
recreation
imagin
sheep
spul
deco
vorliegenden
##backs
assert
##kredit
##lust
florian
deer
cemeter
constitutional
bestre
##buh
##kriegs
##kab
composite
annually
sportlich
mobilitat
billy
hypert
logos
wahrung
mentor
externen
klapp
linkedin
absicht
barrel
sorten
puert
farming
auswertung
continuously
bezeichnen
goet
##spuren
ausblick
gefuhr
unions
##itated
cod
instituts
##gewin
executed
pyram
##mien
##regeln
potsdam
pressemit
bookmark
internationally
johnny
##liz
remembered
dairy
maine
treats
vermittlung
sketch
schlacht
##studien
kamin
mysterious
##ppers
##ayer
schriften
tad
structured
abma
faul
rucksack
##klam
vereint
luxurious
unterliegen
comput
counts
adoles
bremer
rechtliche
earning
lb
##neiden
a1
freu
deciding
metallic
##schle
##bener
auftakt
bleibe
##kassen
adapted
spreads
phenomenon
tomaten
vielfach
gw
sowjet
ausrustung
##kulture
transparenz
arise
consuming
oko
stetig
deaktiviert
invitation
phantas
architekt
##wache
##haven
mecklen
joke
theft
anthrop
paths
urge
##stimmen
uploaded
exklusive
##hallen
freder
monetary
provinz
quin
hc
anhang
##jour
qualifikation
##demo
1964
##meier
archae
morph
granite
brauchte
##lenz
critics
eternal
matte
readily
pipeline
schall
probability
beenden
wiederhol
nationen
abgelegt
bedingt
wunderschon
demnachst
nex
refuse
bock
lig
sporting
potenzial
##methode
##isser
##probleme
##bird
sahen
baker
loyal
volkswagen
poems
commander
jens
##break
##quer
sicherung
unterschiedlichsten
staatlichen
pes
##nia
khan
behorde
circa
##opft
dod
recur
beschaftigten
nasa
##odie
flecken
##viertel
perceived
englische
schweiß
unkompliziert
stolen
aufenthalts
brett
entnehmen
transfers
##aison
keramik
promising
unve
beider
##hritis
werkzeuge
gin
brosch
schenken
##gebieten
blieben
contacted
eleph
bip
inclusion
##gaste
echtgeld
preventing
##afrika
##fulness
sensitivity
##verbot
logical
gebeten
##raining
reminded
jubilaum
nachfolgend
dim
gmail
latex
eigentums
aufklarung
anerkannt
##ingly
infections
noble
kompetenzen
abortion
beauftrag
kanada
klingen
gewunscht
##walk
externe
flavour
playstation
hmm
sneaker
##sanierung
weiten
bened
regensburg
consultants
auszub
streams
penny
buddh
pfarrer
##noten
tobacco
##ahrer
womit
courtes
##vereinbar
cia
bunten
legitim
hohes
duplic
##verhaltnisse
krat
nimm
observations
behinderung
##kissen
nod
kompletten
##igers
exzellen
##db
confusion
##stehenden
erfahrenen
##geschrieben
renewable
##nersch
ermitteln
##probe
racial
ausubung
exceed
begrundet
unzahlige
compounds
jenseits
mk
##legungen
##ichtigkeit
manhattan
##strahlung
bestehend
springer
hb
compelling
fb
hav
expend
##copy
workflow
programmes
##oser
reißverschluss
verpflichtung
aro
##fuhrte
##jahriger
spieltag
coinc
eich
potter
##games
outline
komprom
bewerben
acre
nachteil
##ride
##cession
ankunft
##xtures
binde
propaganda
##igner
beitrags
##shine
##screen
taten
gelegentlich
southeast
firefox
angehorigen
##quo
resur
tunes
##boo
josh
curry
aven
panorama
##programme
speeds
muff
mercy
stellten
abgegeben
zahnarzt
kontra
nostal
interns
##wertet
##ieller
##reden
begegnen
ausstellungs
disposal
rocky
##gasse
##school
studierende
preference
korrektur
##gelande
erwahn
peripher
brucken
legally
berechnung
bereiten
trades
terrain
aufbauen
mannes
numer
ellen
envelo
grows
scary
valentine
##kok
welcoming
preserv
##antrag
tote
pursu
nelson
sip
jurisdiction
condem
verleiht
##hua
jegliche
##ubs
attraction
mumbai
brake
branding
instin
kulturellen
##sender
weing
einhaltung
##othy
enttauscht
packs
eingetragen
hore
attendance
kulturelle
revolutionary
therapeutic
prostata
ausger
##iop
##brot
stehenden
einnahme
homo
restlichen
gesorgt
fairy
##parks
enden
comparing
##fahrts
verhandlungen
befurch
hosen
faq
##arios
gezahlt
ursprunglichen
safari
inquiry
uh
##boro
wohlbe
gleichermaßen
##geladen
sorgte
individually
##ausstattung
indirect
haufigsten
ruft
furnish
widerrufen
volumes
locke
terrorist
genugt
zusammenhange
##stairs
##cience
tubes
##omo
impressum
slic
garlic
phanomen
meinungen
##uliert
aufweisen
discla
1933
surveys
buil
umgekehrt
asce
beast
betriebssystem
emily
midnight
fier
herausrage
##hte
shoulders
##heater
gepflegt
strings
competing
##plex
farms
bestseller
##terin
##klus
bezahlung
##illy
##schiff
fatal
rachel
manfred
umstand
##faser
vorkommen
styl
plattformen
alm
adhes
##links
conferences
montre
reflected
threads
consisting
sunset
departure
vorbereit
strictly
##cot
excuse
heal
cms
tribute
siemens
turkish
corners
gewebe
dropping
lv
annehmen
berufliche
##petent
empfehlenswert
ahnlichen
vergnugen
erscheinungs
##volumen
uncomfort
independently
verlange
logistics
11th
patience
suggestion
harsh
notwendigkeit
leverage
zigare
showc
##training
##mandem
cooler
synthetic
uwe
watches
spitz
zig
farmer
##ception
mosc
##setzungs
arrow
##illance
##gefunden
travels
liverpool
regie
##profit
##furt
britische
destinations
schieds
graham
kritisch
substantially
1966
kinde
median
##dose
fulle
meldet
memor
couchtisch
styling
sean
herstellen
gefangen
dikt
##mord
abitur
cort
##berate
huf
geplante
##media
##teilungs
fraction
##leiten
##lihood
##genau
##nast
vet
regelmaßigen
##lton
goth
##hals
crossed
rente
wt
##redited
##ndienst
bargain
##strafe
drill
investiert
uberwachung
grinding
wirks
seventh
adjustment
analyses
zeilen
buchung
sixt
larm
einheiten
kommunen
##kuste
medal
langeren
##anschluss
##neider
respected
kred
##lohn
##omon
##mother
rotation
##kapital
isolation
zurzeit
oracle
characterized
themed
##tees
substitute
##holm
thats
##onal
##igern
##itioner
##inny
westlichen
elisabeth
bemerkt
samen
pigment
geschlagen
gezwungen
##iate
marit
blute
aston
bewahrt
valued
bernhard
aufgehoben
injection
##dies
namely
zwischendurch
ausserdem
suggesting
microwave
##utors
jama
kostengunst
##besuch
##motor
marshall
##bege
drawings
vessels
claiming
partially
##isto
##wellen
occupied
ceramic
greg
spine
##ocom
startete
##zentrale
sympos
insekten
##spolit
angewiesen
chinesischen
surveillance
modest
bother
mallor
konzerte
cheapest
leasing
shamp
beside
braunschweig
geeigneten
baltimore
vormittag
gitarre
leitet
##kennen
aktivieren
terrorism
zwang
honour
##gow
tends
antrags
musikalische
##anol
kolleg
bereitet
fuchs
symptom
streichen
overla
abraham
drachen
gabriel
interessenten
##ilog
angemeldet
gebildet
christianity
punktlich
texten
##bezir
ehre
sekund
##bibliothek
##optim
wayne
mitnehmen
ambition
drucke
##ucks
engen
affecting
controversial
##lando
##wandel
akust
gardinen
weiber
##wertungs
##omi
##anwalt
umgeben
karen
resolved
steering
auszug
##indungen
korperliche
##flechte
bios
argued
##idity
attributes
indonesia
entscheidende
##produkt
comme
##opfen
jerry
loft
throat
newspapers
##rip
##ptive
instrumente
silicon
clarity
vorbehalten
einnahmen
recipient
portions
##igenen
survived
gesperrt
turner
##kost
stationen
##bewusstsein
lawrence
##fied
nicole
nachdenken
deutsches
feinen
verlor
##ра
woher
psor
ausgewahlte
##ocker
niche
pulse
aufruf
geltenden
freely
reset
erfahrene
conducting
##lagert
unsicher
enro
konsequenzen
ld
##schir
jemals
##xit
gefangnis
nachte
disrupt
males
##rede
tempt
##schlagen
buddy
##unktion
verbreitung
litigation
musee
evaluated
##asis
wanderung
annoying
julian
silly
carter
behalt
jh
schweine
vien
construct
rocket
wound
assass
550
luxem
angebotenen
descriptions
keineswegs
perf
rah
studieren
angenehme
##lles
satan
scout
vielfaltig
##hochschule
tailored
##achtungen
fortunately
##kende
tropfen
boutique
##lend
tamp
kristall
nearest
whist
wuppert
anm
glaser
##leuchte
sozusagen
lebe
##icherer
a4
apt
wettkampf
thereof
treppe
konzentriert
geschmacks
floral
kraftig
vereinbaren
uberlassen
builds
##geist
souls
liebling
eingest
gigant
kosmetik
transformed
##osse
gerufen
##uched
weißt
##cules
ausgeg
leber
trader
clouds
agb
anget
kleide
##reet
dysfunction
##sonst
aktie
receipt
##bereitet
recruiting
freiwillig
prosecut
kontaktdaten
emotionen
droht
##partei
fickt
handwerks
scientist
courtesy
voter
angemessen
bemerken
verzeichnis
verhaltnisse
sunshine
angewand
claudia
zugrunde
sara
configured
spirits
rounds
gc
wohnraum
124
ethn
aj
accurately
coating
##ransp
accessed
##igter
exquis
##achts
donate
##graph
uberprufung
##zheimer
gewur
handbook
osterreichische
proport
spice
franklin
##zweck
verstell
lah
erotic
##isp
folie
nevada
dildo
kwh
madison
sachverstand
chemnitz
abgerufen
ewig
bedient
shuttle
cement
15th
medicare
pian
neuem
storungen
inherent
venues
aviation
##commer
heilige
genres
verraten
falten
einsetz
linda
packing
##liness
##zech
wurmer
nationalsozial
sicherzustellen
anwesen
lampe
sheriff
larry
premises
booked
switching
favoriten
##isy
handles
##anspruche
##sole
##izable
shakespeare
beauft
straightforward
chan
hypothes
##odor
1963
##weist
bemuht
zweier
buffalo
fry
##orsten
puerto
werdet
drast
orgasmus
wan
pairs
verbands
harmony
easiest
diagnostic
threatening
##pit
horrible
vortrage
sexuelle
unbekannte
##nten
##rows
##jud
genius
marcus
artic
publishers
mehl
talents
##ctory
whip
verzo
orientierung
fever
##olds
##unken
cleaned
##griff
arzneimittel
warmer
fa¼r
vertie
astronom
infol
anlegen
distur
clue
traurig
cited
associations
entschlossen
##aked
afrikan
schwim
homemade
fakt
##aktive
analyzed
nunmehr
delicate
explosion
meilen
stakeholders
vorlagen
ferienwohnungen
worksheets
aufgefallen
##steil
##inkommen
sear
prece
forgot
##esco
exams
offset
minerals
rast
supportive
occasional
servicenummern
millimeter
rides
incur
equality
invested
targeting
ulm
italienische
polymer
##uhlen
engagiert
consequently
##ij
ausgestatte
ralph
jesu
rode
swed
##aired
##aud
##ais
dazuge
ranks
upt
berechnen
##health
borrow
##undene
saß
kreise
##estern
perry
auslands
greif
realisiert
eingehen
##oners
borde
metropolit
##fuhrungen
bias
executives
reaches
verbrechen
commentary
verschaffen
kratzbaum
mecklenburg
hike
freud
clut
geschichts
counties
permits
freiwilligen
##wetten
##freundlich
##rechtliche
trap
pressing
ecken
repeatedly
hochglanz
verlass
umst
monop
compos
sins
prayers
spins
##wickelt
revers
activation
nowhere
##bauten
invasion
translated
assurance
oriental
td
gutachten
##tellungs
inland
blas
orchester
##piegel
angeschlossen
##rsten
serge
##pread
cafes
notable
mathematical
interra
zugelassen
pam
kontrollieren
##rste
teilt
motoren
##ocy
erledigen
##gast
##igious
rainer
landtags
sz
dsch
belgien
##uese
defendant
##iets
partly
##bersch
nikol
risik
nachfolgenden
##alb
evolved
gemessen
elabor
scared
##fahrzeuge
terrace
solic
consecut
auszahlung
abseits
brach
penn
sellers
ausgerichtet
##strager
lightning
globalen
alternate
journ
wirtschaftlich
rudolf
supervision
speicherung
investigated
sten
##ikums
decorated
organizing
dough
##langen
studierte
gaining
##itioners
fakultat
##positionen
##kreises
##ozi
##unterlagen
##ndo
monatlich
coding
schuppenflechte
##ogramm
verhaltens
umsonst
lac
hottest
##baller
107
louisiana
##jahre
attachment
##atened
weeke
pg
##uungs
correction
reservation
nails
traders
shanghai
eife
reichweite
##bang
investigations
kontaktformular
akzeptiert
tauch
erhohte
978
##orientierte
newer
geburtstags
##sekretar
##icut
##hund
saarland
symmet
charaktere
ves
##asy
##istency
anpassung
lions
mailing
##modus
##asste
##bewertung
unber
##grundlage
fog
kusten
##izations
osnab
rm
attacked
michel
confe
##volta
##imo
owns
##kommun
betreibt
threatened
chiro
außerorde
##stick
gottesdienst
furcht
biblical
tits
quartal
mississippi
automatische
sincere
##blut
threw
eroffnen
fid
prazise
ebenholz
ausfuhrliche
apparatus
280
##beer
trennen
safer
practitioners
herzens
header
helic
realisieren
##pent
appealing
messenger
##ightening
##iatric
kulturen
116
moscow
niedrigen
##gered
##bestimmungen
ruled
brist
rim
warned
rb
coordinator
##rina
pauschal
phy
loyalty
technicians
volleyball
dictionary
##alte
fulfil
bundesweit
witt
tole
animated
##infe
rezeptfrei
fellowship
craig
mitunter
extras
##opter
modu
judischen
widespread
##nachlass
fette
indicator
methodology
##markte
projekts
praktikum
##icts
elastic
appli
114
##ckern
##igence
##illo
mapping
diabet
sleeve
breites
pokal
##warten
tactics
gill
teilnehme
etabl
##ikerin
##acles
schaf
circles
dasselbe
##sic
lawsuit
journalists
strick
pne
flexib
##licks
staatsanwaltschaft
ubergang
graduates
flavors
##innutz
felder
aktuelles
sans
anbietern
describing
collar
##archiv
canal
einger
##pace
##hness
indul
pads
fotze
closure
muskeln
adorable
geschaftsbedingungen
magnes
mittages
penet
venez
indie
nurt
contributing
wirft
momentum
##ofs
tafel
bewahren
klagen
promp
physik
##loß
integrate
liz
vaters
gelt
##krebs
##fertigung
idyll
brille
scrap
ugly
magdeburg
predicted
nazis
villages
busch
whirl
derby
##opfe
##untersuch
spren
kaputt
kalorien
fifa
1961
veranstaltet
ubernahm
##ql
pointing
##atsch
verwend
orlando
##uela
belly
finanziell
##gio
##blau
##shire
abwechslung
kiefer
latina
soldier
##rability
soziales
offshore
gelingen
briefly
malware
editors
putz
absurd
##polster
hoped
##figur
drums
reminder
coco
polizisten
mush
##pruf
repert
schott
grammar
parker
##maßige
leitungs
uberaus
##nacht
vm
lighter
welten
riders
modernes
reibungs
merkmale
nachster
dimin
##runden
locher
wurzburg
vone
##ffs
##gten
##rode
##lain
effekte
durchzufuhren
ubersetzt
panoram
uncomfortable
strahlen
honored
##meist
auszeichnung
prosec
attracted
konsequent
prescribed
liable
outfits
chelsea
klager
fangt
earthqu
dreie
profitable
priester
bangla
gemeldet
betonte
260
comparative
umstande
sudt
ausgewo
##achter
##gold
##basis
sooner
antioxid
classification
pierre
##mangel
##oh
wieviel
sterling
seaf
bicy
##essa
dess
erp
relevanten
browsers
ubermittelt
stewart
##eser
influences
hinauf
rankings
swap
vegetable
females
##sentwicklung
##stained
aesthetic
##advant
integrierte
vierte
versteckt
##rek
dedication
appeals
taxp
##olly
draws
auslander
gemeinnutz
assignments
##uan
fertigen
##wy
marble
##omes
mitarbeiterinnen
##building
pelle
##igende
##fertigen
pressed
sekunde
begegn
bundle
##liebe
##hae
touched
reflekt
##zubringen
bereitstellung
wahlt
deliberate
##arina
##но
chains
bung
behavioral
##herren
testimony
stattfindet
viren
##rumfang
jumping
##gefugt
peers
verbundenen
##deutschland
rape
diplomarbeit
spannungs
dirk
arbeitsmarkt
xi
zusammenfassung
sensible
stats
##itte
straft
1962
zucht
harass
registry
pony
##donald
congreg
passag
##wels
besonderheiten
fantasie
##tres
breach
##manship
1939
battles
erziehungs
1944
verfugbaren
yacht
cemetery
##marken
intelligenz
##jahren
founding
##zahlungs
##izierten
continually
staatliche
##betriebe
rezens
prizes
##kot
varying
##arts
nokia
integrieren
##kont
glance
warren
siegen
gebieten
korn
nab
mude
bgh
replica
seminare
##tschaften
##austausch
gewar
verurteilt
schienen
punishment
cousin
salvation
ea
##lastung
fasch
entschied
oc
##comed
##unsten
##ova
##heft
##mbles
werten
##licity
linden
einschrankung
suv
beleid
disziplin
haken
##itating
a3
miete
acids
activated
experte
tasty
bucht
rande
mittagessen
moses
##lsh
dign
restored
zdf
suites
##inf
exotic
alternatively
ventil
stepped
##marsch
erbe
regret
nh
italienisch
gedanke
psoriasis
finanzen
statue
voneinander
##tox
wut
chinesische
##amel
stiefe
##bril
##cock
webin
poland
ignored
rebell
verteidigung
stairs
meisterschaft
comparable
begeben
fridge
ses
innovativen
handmade
##nack
phrases
##bearbeitung
verursachen
bored
neb
gefuhlt
##ißen
##party
synony
sandra
submitting
gemutlichen
##kenden
suspended
tuition
skype
reaktionen
mosa
##nets
locals
embodiments
consens
evangelischen
##rschafts
kontinuierlich
beruht
klimaanlage
verschlussel
notigen
dorn
karne
ginger
umzusetzen
##weiter
##aku
eingebaut
niedriger
##milch
versau
zwer
nebel
##iraten
testoster
##conscious
cozy
anstieg
##wol
resorts
##mingham
reminds
##hanger
immigrants
progn
affiliated
lego
disappear
lett
nepal
wore
hirn
##kraut
##quel
##anes
varieties
erlauter
cricket
##aums
evo
##creme
attent
schlimmer
##bish
##file
ebooks
##ruhren
humb
metals
prasenz
algorithms
ausgangs
##strategie
primar
##flie
quoted
##baume
professionally
##anor
vorsitzenden
##ianz
ausgelost
serum
buddhist
##andinav
dile
##onna
sier
zukunftige
puppe
veroffentlichte
##onial
practically
organs
##bereitschaft
quantitative
ruin
17th
##uv
escorts
##oge
fruhere
zar
kai
spritzen
##ologies
bande
rustic
detaillierte
metropolitan
##ern
tausch
##psych
##auswahl
wiederauf
vorhandene
knack
bsp
eil
zumeist
##aba
spaziergang
##untersch
anpass
discusses
gravity
hutte
grave
lenses
invis
stub
liegenden
##logy
##base
exemplar
##mmer
##beam
brat
##oub
##akteur
oliv
##orp
derselben
##seys
potatoes
netzwerke
lanka
kale
pedest
nonprofit
einsp
##brett
heimischen
congratulations
##pare
helen
schalter
privilege
fork
verschwunden
wiring
transparency
ausgerechnet
dentist
slam
acoustic
##rainer
awful
partnerships
kerzen
rostock
gameplay
zwingend
tuning
bp
##itzung
geforder
refine
deny
conjunction
blur
handic
piraten
##prinzip
##andt
marien
absp
newsletters
assessed
zap
ultim
marker
##streit
einzelfall
unklar
lav
verwohnen
stempel
##arzte
cycl
negotiations
upgrades
refreshing
sabine
galleries
hellen
gefolgt
##morgen
thromb
vou
abwicklung
##pfen
fuhrten
cylinder
absorb
negl
##ziellen
thompson
unp
mounting
kerl
rays
segments
##proche
ehefrau
##aint
tick
##iders
applicant
bloggers
brokers
disadvant
encom
##51
##bec
arnold
##verhalt
##leihen
cnn
fahrzeugen
backing
elektrom
southwest
zweites
deleted
kommende
erlebnisse
commons
pile
##fahigen
teurer
gasth
feas
##ffy
dag
##information
durchschnitts
medieval
##greifen
##owns
##richtungs
counting
14th
refugees
moskau
##ologically
ausgie
interracial
herbs
prelimin
##begriff
landen
botan
brexit
jakob
dealt
streng
##inet
unfair
bbq
##orung
matur
liebhaber
gutscheine
ruth
verschen
opel
summar
##pels
jerem
funktionalitat
inmitten
##igra
##denden
kauft
aufgerufen
##geburt
circular
stitch
hypn
unnecessary
distant
mits
calib
lieferumfang
barriers
dumb
sportliche
sehns
colum
aktivitat
distinguished
befind
4x
##anzt
##phil
##warme
consequence
paradies
phasen
kannte
stamme
challenged
##nette
journals
traumen
obl
complain
sven
continental
konzipiert
##bridge
##bronn
##max
translate
auffassung
beating
##bane
sut
korpe
marsch
hugel
##zufrieden
mais
fatig
##arks
considerably
thickness
marty
##alties
langs
maßgeblich
pork
consecutive
kameras
origins
##oooo
erheben
juan
##unfall
wohnt
clearance
sauerstoff
strich
roboter
gewal
supermarkt
medikament
niss
platzen
esszimmer
strikes
##ysis
merchant
sovere
entstande
ralf
roofing
connecticut
ausgelegt
uberfluss
explores
combo
pond
discharge
practicing
##richen
##itus
performs
breed
meteor
##bringung
##gon
proben
##chair
christlichen
extensions
##home
13th
##ragte
werkt
shout
besseres
withdraw
langem
schlug
##59
handhab
bemuh
jahrgang
portuguese
centres
appearing
selbstbe
technischer
stirn
occupation
camer
devot
zeitgenoss
gestorben
chev
1948
lesbische
perfection
##undenen
weekends
seel
erfassen
matched
tranen
verlangert
erholung
regulated
pittsburgh
##betten
arche
elo
agypten
holte
ape
komfortabel
berufen
manually
durchgang
fruhlings
hochstens
##kran
tibet
fortgeschritte
marking
vest
##untered
schmal
franzis
apples
differential
istan
gloss
abfall
tastes
einschatzung
exot
##fuhlen
execute
##alia
brunnen
montreal
alu
schriftliche
holders
##logen
proceeds
unesco
##gler
welle
nir
dorth
verified
participant
krone
travelers
membrane
##munity
16th
uncertainty
naht
iq
##pole
##kong
##pom
##bestimmung
negativen
rainbow
##nommen
##munic
instand
positioned
endorse
##ubergreife
panic
sli
nationalpark
cathed
wilden
dienstleistung
beijing
acker
needle
fuhrer
zier
lazy
fußen
preferably
personliches
longest
cope
erhebung
dienstleistungs
neugierig
presum
truppen
versorgen
wright
thrilled
##rund
outsour
internationaler
verbal
vorgang
illusion
danemark
repet
klimasch
tobias
vocals
daddy
ghana
deadly
badewanne
behaviors
characteristic
gottingen
steep
##bud
anzubieten
bestes
##zuschließen
##plant
maßnahme
steak
palestinian
anschau
weim
gerechtigkeit
swedish
siehst
gerechnet
##uma
##watch
##werkstatt
geschm
ausgangspunkt
##pumpe
mantel
jahrzehnte
##stur
##rauber
##cose
gelaufen
rider
##zeitraum
declaration
schnit
##haltene
terry
hingewiesen
complement
##vag
threshold
distinction
niederland
##masse
##rones
analysts
backofen
condo
welcomed
hebre
promoted
##teilnehmer
hats
##iri
marcel
##menschen
##ammad
expendit
collins
prinzess
bacon
vorsorge
matchmaking
dorthin
kokos
sync
mandatory
resil
prapar
270
aspir
operative
##arin
deutliche
musician
altesten
habitat
saints
holoc
foundations
realt
##hosen
collapse
nahere
porch
##burgermeister
vorerst
##commerce
rubrik
wohlbefinden
fighter
##ighteous
extending
spritz
eingegangen
geschick
4000
dismiss
##rena
##genossen
ausgebaut
saube
broader
bedurfnissen
productions
lucas
inspirational
kidney
kasten
##brochen
approached
zufriedenheit
goldenen
zulassig
puppy
##ologischer
dock
##produkten
walt
einstell
costumes
manages
##tha
nova
hobb
prinz
skate
prestigious
hydrogen
replied
ballet
abgabe
sustained
##zielle
vibration
voraussichtlich
1938
candle
opponent
sprint
fassen
sells
lustige
##spezif
ausschnitt
fahrlass
##presso
defeated
museen
encountered
lite
struggles
##ßert
##laim
entwickelten
pfad
argentin
##unktur
##ieb
connectivity
##icherten
bekannter
unterm
##gelte
heuer
drunk
polo
enthusiasm
documented
ermittlungen
personlicher
beteiligen
scenarios
zones
hint
geruch
judicial
becker
dramatically
strengths
225
##chell
getotet
##lack
infected
priorities
fotografen
hochschulen
arbeitszeit
##adresse
abruf
tasting
magnesium
mia
wille
fifteen
licensing
marktplatz
illustrations
costly
understands
highlighted
cone
1918
anzusehen
transplant
begrußt
asthma
##atable
hindi
##werfer
tasten
kreativen
substances
angek
##class
gestattet
erhielten
franco
awk
kod
##komp
##clip
uc
preliminary
jura
bisherige
##sicher
deployment
ours
unerwar
polster
folgten
##ipend
##cho
##deutsche
hervorge
besicht
zusammengefasst
zahlungen
coated
incon
margaret
backpack
stabile
epa
finals
caution
hagen
geschenkt
##zundung
##arious
##renten
beil
##freundliche
approaching
setzten
einzelner
bedeut
concentrate
##ankt
##finder
kaisers
faithful
feat
hardwood
verzweife
##verfol
tauschen
horny
witch
##kri
cosmetic
bytes
existed
##kommission
veroffentlichten
kreislauf
##meid
unabhangige
romans
##ois
baked
lukas
attain
##genomme
##ggy
tirol
##iße
##frequen
xd
expedition
##wurfe
rahmenbedingungen
globally
warenkorb
##marketing
toug
reportedly
delayed
visibility
##feind
searches
verfassung
##mn
grandmother
##ministerin
##gewinn
##ifiziert
vergewalt
piv
##kelt
##maßigen
educate
outlets
setze
##rec
##gestellte
mrd
knoblauch
vegane
##fullung
##arbeitete
##dles
traditionally
maximize
daumen
dul
##ransport
xxl
herrschaft
edin
ausrichtung
glue
complimentary
betragen
versam
##ifiable
verlags
plaza
buses
##zim
modular
sic
##konzer
customize
happily
batterien
diamonds
hesitate
untersuchen
raumlichkeiten
internen
shaft
diving
python
##iries
fotografieren
calculate
monit
##rechter
erlernen
##maus
eurem
hamp
petra
bicycle
gedachtnis
sheer
festplatte
##polize
##zusetzen
suck
verte
##auren
ausstellungen
czech
societies
##tender
##verstandnis
achievements
demonstrates
skirt
needing
coug
biss
felsen
sends
conclusions
birmingham
inexpens
gummi
##ropri
wealthy
wondered
##likationen
langzeit
viral
schum
erfurt
##adigung
lifting
vocab
abkommen
widerstands
kliniken
goethe
remedy
lonely
##schlusse
##style
untereinander
schlauch
seither
##stet
tribe
##ituationen
hiding
##atigen
##alltag
##peuten
competent
1600
##kategor
minimize
##keten
broadway
neil
attribute
indicators
fertil
geladen
##layer
anreise
##lore
gourmet
enger
einsam
facharbeit
imposed
occurring
##berries
satin
##normal
classics
##phen
attende
kris
grandf
machst
##chet
commands
opponents
scanner
kostenloses
launching
##var
##genic
zom
repos
##tho
erteilt
spekul
mead
literacy
beif
orgel
##wunsche
pflichten
beleg
tamil
robinson
##beat
finanziert
ambassador
boasts
vernachlass
elevated
stair
pins
fluor
wuppertal
mixer
hirsch
kinda
trier
uberlegt
##amine
##ti
glucksspiel
cn
##firma
unterstutze
rope
debris
refresh
abbildung
bundeswehr
pertain
musikalischen
geregelt
journalism
unpre
nutrients
##msten
filip
##seins
hillary
mitmachen
##irus
lubeck
geographic
oval
hookup
vienna
antik
##pezif
##rencies
attraktiven
geradezu
bestands
goodness
dominated
scripture
##aucht
dakota
##reach
ubernach
##konstruktion
##ismen
kita
##markten
grove
schalen
fires
##bten
tastatur
chefs
wozu
mittlere
anlauf
geister
ket
campbell
geschnitten
wurst
revenues
maz
deutschsprachigen
sicherer
##atal
bevorzugt
hispan
dichter
konditionen
einsteiger
slice
fauce
nickel
schwein
declined
burned
##roy
eigenem
reinen
sgb
cakes
spen
seht
##lagt
##kurz
sessel
fachbereich
wurzel
geholt
diskrimin
matratze
notige
danny
bases
manipulation
civic
learners
prosper
##arisch
menus
consistency
arrives
bets
develops
großartig
ruhige
investitions
gemeinder
##vorgang
awkward
messaging
mallorca
##itory
unbelie
gesellschaftliche
blicken
embro
attrakt
fortsetzung
##este
strafe
gewachsen
krypt
##maler
##ndens
avoiding
gemisch
bekamen
deserves
waschmaschine
baptist
thie
blessing
universitaten
asym
##iba
tol
recordings
holocaust
versicherungen
healthier
wartung
burns
##histor
fingern
befand
kritisiert
##anc
##wl
##wealth
organised
##nap
homosexual
convince
influent
##wachst
teufel
##agnen
conflicts
luckily
schnittstelle
livest
decides
##akten
erwahnen
##tale
forb
arriving
prohibited
##lington
geleistet
unemployment
combinations
enqu
jungeren
##rankte
weld
photovolta
nathan
mittags
abundance
##iber
##kanal
pneum
haha
##jag
istanbul
betreffenden
aufzubauen
jumped
aue
fathers
luxemburg
ubertrag
erwerb
frustration
werken
assessments
teich
##asten
lichter
##fabrik
rico
kontaktaufnahme
belongs
raid
verlangerung
keith
##umenten
hild
unfol
shifting
##stehende
equation
crisp
vornehmen
renovation
##bedienung
ui
queries
flowing
##hots
toss
##familien
##cakes
##nte
pein
abmagerung
necessity
zukunftigen
aunt
einher
qualifications
saure
ssl
##gelasse
122
bridges
bundnis
moor
aussp
freeze
chiropra
##wd
##mill
geor
aler
inhabit
haftungs
##konzert
kaffe
satze
tray
dermat
finishes
huren
##recken
balcony
##chancen
##fax
##idy
psyche
##gesetzten
saves
welpen
1980s
##gia
##003
gegessen
snaps
##mensch
##actory
vorliegt
marion
maintains
nacken
schritten
gauge
befreien
mexiko
sonntags
forderte
beurteilung
bedarfs
foun
atlas
treiber
##ulary
encourages
hunden
nominated
touring
wages
antrieb
schonste
referend
columbus
platinum
behinderten
ruhigen
entscheidenden
runners
forests
##hless
reviewing
strassen
desirable
##serfahrung
bargeld
springen
##verteilung
interessanter
cbd
traveled
##ivan
irak
knees
vorrang
clan
notify
therapist
stanley
verrat
agile
angewendet
nancy
ix
datenverarbeitung
großartige
clause
firmware
fertigung
beruhmte
einblicke
landed
##rade
assists
nissan
bischof
schemes
upp
jude
resign
complications
laughing
cattle
genesis
barry
sewing
eingeschrankt
vincent
ansass
##orene
updating
##atigkeit
schwimmb
monarch
##massage
##atis
affare
verpasst
verbrauche
##pru
essentials
ausprobiert
##auger
algebra
hue
trilog
schweigen
lgbt
jamie
schuf
##gering
##systemen
qualifying
cushion
accredited
pand
righteous
rezensionen
erkund
veloc
indians
kenya
chand
steal
goss
assozi
##gesund
vereinigung
uss
##spitze
spende
##ulative
##wire
##straßen
##absch
irgendwas
tesla
architects
jenen
mys
mong
##just
bestellungen
mitgliederversammlung
##ippe
mba
bikini
crops
influential
fabrics
crm
##denafil
angemessene
##uze
##gling
##olia
sailing
enlar
##than
ernsthaft
schwierigen
backs
unisex
##faktoren
barack
vermitt
wahrgenommen
wohne
paradig
relaxation
beginners
kritische
cycles
gunter
enhancing
##vascular
sophie
nw
##wettbewerb
##grun
hunderte
unsicht
debit
befreit
##rungen
heel
handlungen
druckt
linz
##oz
##inken
fundraising
compress
indication
inspect
pausen
reass
releasing
walzen
washed
##iah
herab
martial
tutorials
##uppe
guild
terrific
spielten
circulation
schiffe
soy
ration
banned
1958
senken
##hutte
fing
inflammation
bruno
##spreis
realm
integrierten
##bewertungen
maple
##vogel
kummert
beurteilen
grundungs
earliest
estee
surroundings
lime
thru
impl
ots
dazwischen
inaug
abschied
mannliche
verteilung
##nik
pipes
##iaries
indes
##kut
arising
aufzunehmen
alzheimer
startups
beschaffen
kabine
inexpensive
angeben
##roffentlich
witter
losch
##oid
ruby
schuljahr
##plattform
waited
##kshire
flies
freundliche
shampoo
oldenburg
##ausgabe
waterproof
##offel
##zente
1949
sozi
##nered
klagerin
wink
retention
thee
orthop
commonwealth
sierra
cocktails
flick
1956
verbot
pioneer
verschm
1914
lauren
vampire
##nels
aggregate
118
spreading
innovationen
##leep
distribute
dense
eingesetz
vorherige
grande
thankful
laus
soda
anatom
cau
##intens
silvester
norwegen
##risiko
laz
wissenschafts
##pless
##runken
danken
recreational
##53
inver
##kenntnis
ministers
creature
goose
forge
schatze
##initiative
dg
appell
geleitet
haftet
##reuth
interventions
außergewohnliche
##profil
neustadt
amph
verschluss
##urfen
fixtures
graus
##raler
##zusammen
##dung
steigerung
blocking
stoß
universitats
##dee
ces
cage
encompass
##nersatz
clearing
astron
touching
kri
labs
##wachs
vielseitig
beklagten
sentences
murray
sportlichen
compromise
##cake
vagina
umfassend
cameron
cancell
sealed
zion
##free
souveran
wussten
riv
ausschuss
##lebens
mercury
irgendeine
substrate
tissues
eingriff
backgrounds
moe
quarters
netto
##iza
inspiriert
batman
whoever
salmon
manga
durability
respo
tutors
auswe
cbs
billing
schwanger
bemerk
##semester
themat
qualitative
##grade
##ifizierung
dreck
selective
blech
##vorschriften
attitudes
abgelehnt
##ulich
aux
schiffs
verpassen
##assy
ausgebilde
lining
tuned
dump
sattel
1959
stranger
##hall
arbeitsplatze
betreten
pean
derartige
linking
##kow
improves
connects
##werts
pud
##igst
uhrzeit
treue
cleared
listened
stum
besuchte
stiff
undoub
arabia
##amkeit
relates
##rschuhe
pursuit
allegedly
emper
limitation
reihenfolge
ideally
julie
##fuhrerin
folgender
flame
diploma
schimmel
contamin
kriegen
verglichen
erfor
gemutliche
antisemit
##gard
assure
weddings
##versicherungs
unlock
hubsche
noon
gangigen
vanilla
consensus
##tur
##horst
olympia
##westen
genauen
certificates
wofur
darlehen
auswarts
analytical
befur
##kreise
##ließung
elegante
##alon
notch
infolge
overhead
1957
##perten
1941
spanischen
eintritts
zulassung
malerei
bangkok
##strecken
bloss
##lichte
trainiert
metz
photographers
##500
succ
1970s
lave
ola
zeitschriften
furnishings
verbracht
postal
wartungs
fursten
##utzungs
##anstalt
households
330
chapel
treib
enorme
##nessed
greet
##cci
silhou
verification
armband
##reform
lightly
1955
advocacy
futures
gestiegen
editions
builders
cathedral
arsenal
fossil
mehrwert
##aho
leckere
##herstellung
##kels
invisible
walmart
##vertrage
##strukturen
abbau
arthritis
##teilten
tite
##xide
##weilen
altar
##olic
lesser
##aille
responding
unab
eigens
incidents
0900
exempl
lacking
dwe
coordination
silikon
skulpt
untersuchungs
vollstandigen
verliehen
anordnung
laufer
##ordnungen
avoc
championships
innsbruck
shocked
ais
warriors
armel
kommunal
allies
##ahle
zwanzig
subd
kilo
##gae
socks
standorten
##untergang
neckar
motivations
confusing
gewasser
emission
katholische
weiblichen
##acing
##atility
spite
##iera
bucket
reif
annaher
aquarium
supervisor
##ikale
gitarren
##git
besitze
mane
wig
transmitted
##ihen
stort
##register
##pfer
sometime
1942
glieder
bekanntesten
rounded
stating
coca
pfor
alignment
schief
##oons
##tagen
lenders
viewer
slavery
ud
pursuing
##ichterstattung
verne
##lauber
produktiv
firmly
##zins
##isons
missbrauch
briefe
##tscher
jubilaums
utilities
##path
coral
aufgeben
kundenservice
insure
brachten
##cill
erlang
allianz
wette
stimmungs
lebensdauer
ansichten
sliding
##imity
analysieren
investigating
mediterranean
##mia
erzielte
schmel
drift
crying
netten
##messungen
trieb
weihnacht
extends
##terol
eigenschaft
nina
##ск
guards
##uation
##spring
rechtsprechung
gefl
breathe
cents
handhabung
osnabruck
nordlich
merit
solved
##tentwicklung
lending
cisco
suspected
gewinnspiel
##raumt
##lley
fang
constitute
##caster
gebiete
detective
##iated
fangen
##nk
strasse
anwenden
shooter
herbe
mancher
3g
kt
bosen
##iegel
tendency
##iedet
spruch
christliche
##lampen
grasp
##boys
betreuungs
recherch
donated
siege
schnappchen
waschbecken
koll
##waffen
euros
appointments
lebensqualitat
##bekleidung
devote
frise
##organisationen
beeindruckt
##western
schra
uphol
##motiv
upgraded
eleven
grav
karton
wats
disclaimer
einklang
specializes
koalition
idealer
massagen
##zzy
ausp
treffpunkt
allegations
rehe
schwieriger
begut
unbekannten
transen
##nosen
cleans
##wortete
permanently
publikationen
giants
coven
##wurdige
wrestling
fh
lbs
lender
freundes
##hhhh
curios
aden
fokuss
nieren
cove
flora
jungle
flussigkeit
fx
spiral
ferr
stressed
superv
lectures
scandal
fester
dietary
##wickeln
malen
stecker
##bone
##ushi
cruz
##igenschaften
separat
erbra
sexfilme
113
artike
withdrawal
##gerie
carpe
educators
einsatze
wrist
zuzu
##mma
bettwasche
hassle
cob
hua
preservation
pk
##hrough
insane
pb
fortunate
##bster
timeline
##otter
heilung
rewarding
databases
dude
##hauptstadt
##magazin
##beitrage
##bestatigung
qa
gewiss
mirrors
montiert
spatial
nachst
hollow
grandfather
revelation
##dere
dfb
tolerance
adjustments
chie
urgent
ashley
##asters
##gee
progression
sup
inviting
einziges
erfreut
##cheinander
##starken
singleborsen
humble
defining
abbe
##kulatur
virtuellen
##keeper
gentleman
ostern
tabs
##rannt
##verbande
edinburgh
unwanted
erect
verheiratet
reed
teure
technically
altered
compiled
dab
##amon
enrolled
packet
##rint
ortlichen
brechen
##institut
##brem
erhebliche
carriers
pupils
##ufe
schedules
passport
##serklarung
kroat
landlord
conveniently
delightful
tommy
##lasses
##facher
ribbon
grosser
doctrine
eindrucke
##indern
freiwillige
##pez
norway
persistent
##geschneider
identifizieren
verdammt
manuel
reiner
einfaches
##fuhrende
fatigue
survivors
feeds
sprech
##verfahrens
furnished
dolph
wonders
budgets
stimulation
accountability
verbund
erzahlte
gewohnlich
boundary
pending
zwecken
verlegt
compression
##spf
abnormal
llo
anbietet
jokes
spotted
undoubtedly
##zucht
credent
##author
##kie
gehandelt
##thy
zentimeter
warmth
prevents
##olar
hochwertiger
##ladung
autism
predictions
amerikaner
pall
##habe
##vorsorge
hinzugefugt
symposium
##sery
vorgesehe
recovered
##mentation
##ttle
##uri
##orenen
analysiert
jerseys
embry
ernte
##spannung
##upf
##hammer
geschul
##ttern
erwischt
##rende
wunderbaren
legende
satisfying
##uttert
custody
zombie
seminars
harness
##cuss
geschwind
ecu
cares
sudlich
fehlende
engineered
koblenz
vorles
grauen
bedeckt
##aht
##mogliche
preva
evans
##borg
##fachen
kompetent
witnesses
verlauft
jeremy
warentest
appra
rar
##oglich
geklart
anarch
pfanne
polished
escal
gestaltungs
prufungen
vocabulary
schadens
comprised
locken
versetzt
##yster
ingredient
harz
altogether
adaptation
burgen
deposits
effizient
einschrankungen
origine
grundlich
lebte
##tage
scheibe
haushalte
routen
tomatoes
nud
##iqu
godd
sampling
gog
heb
kartoffeln
verdop
verwendete
amazed
scatter
befrei
##kandid
##sext
prax
##iegs
obsc
patches
##appropri
specification
schlank
soundtrack
eintragen
##selling
rage
##sprufung
##mul
vorbereiten
warrior
nobel
repertoire
metres
genuinely
##sersatz
wiederholen
serviert
eingeben
destiny
amd
perlen
##waff
baren
zeitlich
##mac
eid
stric
##bike
arte
poorly
gedreht
klimaschutz
crimin
##telling
grape
scholarships
modifications
##ingesch
##ptic
trophy
##beteiligung
tragedy
dokumentiert
wiese
christi
solltet
absoluten
##rels
intensiven
1080
##izers
##tragenen
zertifikat
confront
erarbeitet
##itol
conceptual
##orger
1960s
notified
beachtet
assembled
beantragen
splash
bohr
glucose
handwerker
##renden
befestigt
##gungs
steil
parenting
##iroler
carlos
concentrations
##vertreter
schutze
zunge
stellungnahme
##kante
##situation
hannah
##splatz
nadel
##mittelten
uberwie
##ilo
reign
uberwinden
wardrobe
##chemical
schulz
vitamins
norman
nashville
organe
##periode
uran
##ounced
obes
##zzle
verdau
ou
schwung
fucked
pete
##technologie
reluct
gebauden
##girl
##criptions
##jung
##abl
monument
datenuber
acknowledged
finanzierungs
ergebnissen
expose
touches
voy
tanze
vivid
strips
hamm
ausdauer
##metter
retailer
sankt
##zentrums
rever
rugby
frustra
##lichung
##zeile
produzenten
tuv
checkout
getriebe
impf
schwarzw
##borough
fahrten
0700
ecosystem
rader
schmecken
gießen
##food
historically
auftrage
burgerinnen
beklagte
pader
proprietary
fasten
engagieren
850
crap
gangbang
activists
konigin
##massig
omas
leiten
affirm
unterkunfte
technician
token
gucken
lineup
irs
synthesis
gemeinsames
verwandelt
kostum
northeast
##abge
basierend
bernard
hemm
wanna
schauspiel
toast
freispiele
anzug
exklusiven
##marked
##info
lenk
##ен
treasury
mortality
tue
offnung
drye
##vd
fruhzeitig
leidet
imported
##ро
zustandige
surgeon
##gewebe
mitchell
##ausen
oze
transce
infinite
vorwiegend
funften
1946
landtag
##quart
moss
##denkt
##durchschnitt
##words
310
##imir
##setzer
1953
kommunizieren
genießt
dreimal
##ummy
lte
womoglich
kleiderschrank
rolf
harbour
##messung
mono
abfahrt
inhaltlich
1947
nebene
##serts
nasty
sequences
ubere
diana
##ierender
staates
gluh
horizont
zugreifen
##igenden
ferry
predomin
##brow
##urzt
##ogan
varizen
kha
appliance
buffer
traded
obere
correlation
joints
revealing
h2
osteuropa
marginal
imagined
frustrating
contrad
##leiterin
herstellern
boxen
parf
gedenk
##strand
asleep
1990s
allmah
sneakers
##klaren
optimiert
rtl
explored
vid
##titel
##tennis
gunther
dryer
wuchs
owe
recognised
##kler
##ministeriums
ankommt
mins
ji
##landen
1954
oberhalb
anspruchsvolle
physikal
promotes
bestanden
großter
wirksamkeit
schafer
weitergabe
orthodox
governing
##js
penins
tricky
gebaudes
nutzlich
arist
belgium
gallen
patt
sexually
cliff
standorte
##rte
analysen
lithium
expo
blown
austauschen
unbekannt
fiat
117
facetten
kanad
##sphare
##rac
##verander
zitrone
unfor
playground
zeichnungen
ehemann
##leuchten
eber
nuss
keinesfalls
cola
bekan
##atibel
gange
##riz
tagung
##xp
##opp
##alat
yang
nursery
##agel
ive
interfe
portraits
ruhiger
montana
##sprodu
langjahrigen
insured
panzer
kopie
##freies
freig
kicked
##annon
##iks
auditor
vorlauf
abgeordneten
baj
kompatibel
kindly
hoe
semic
mobilfunk
singh
victorian
agrar
##athie
sorte
varies
japanischen
refrigerator
##tages
##ateral
gelbe
befragten
chats
discovering
dunne
traits
##children
hauch
attendees
procure
##metall
modification
##tzen
boul
coole
mighty
lucy
##rangt
##points
verbrauch
##beleuchtung
mamm
##loe
pursuant
towel
##ruchs
programms
bewaltigen
obesity
outrage
notor
zugunsten
absent
woh
ansatze
hz
##quin
flaw
untergebracht
socken
##journal
eman
rasp
irrt
sew
mitgeteilt
firewall
administrators
sanit
prediction
##rierte
heir
pharmac
trademarks
teilnehmenden
vegg
heater
##gelegt
boun
einziger
handys
composer
herbal
##bese
##toos
bolt
pir
rumanien
stobern
investition
##scheiben
jenny
snake
songwriter
tatsachlichen
columns
artikeln
geometry
akteure
außeren
magie
lila
eti
insulation
miracle
anschrift
unst
ruckgang
romer
erfassung
##grenzen
starkung
herkommlichen
encounters
jake
kaliforn
1a
kampfe
##schwer
##ogn
alexa
starring
##regung
##geschlagen
##54
naval
##kb
readings
verlegen
einig
wizard
##jab
##horigkeit
particle
beruhmt
##nehmb
verabschiedet
reichhalt
inflammatory
zugeordnet
tierarzt
30pm
stoffwechsel
raises
spinning
leu
##traum
##tails
denkbar
##hydrate
##amtes
##amas
##tasche
pumpkin
chick
orb
jeffers
hochwertig
chili
topped
##zicht
aufb
adren
projektes
beschadigt
pane
##nerin
##belastung
partition
treffe
decorations
leve
abschließend
##samer
embarrass
echtzeit
expliz
##zeitige
##52
buddha
tweets
wicked
hedge
guilt
crem
tyler
komplexen
##bonus
zeitungen
##ungsmittel
stumb
cables
versenden
murphy
stund
##vored
bekanntlich
##geschenk
armut
vorzug
##dorfer
elector
shadows
verwalten
weiterempfe
pia
##urnier
ferne
geistigen
##ommer
wv
##helfer
erfolgreicher
heiraten
einze
ips
a2
bail
kut
kanten
solide
quell
brom
##rohre
##anntes
akkus
##ubungen
gvo
scanning
mf
biography
smoothly
hervorragenden
babe
##bstahl
hausern
railroad
nem
thri
distress
gurtel
mittelmeer
##iral
rp
inac
laying
bic
mph
arkansas
radius
patron
schussel
richtigkeit
##aktivitaten
enthaltenen
##lieren
vp
unrecht
suchst
##ferenzen
advocates
##regal
struggled
opa
vorpom
kunstliche
treu
mischen
spezialist
##baye
spruche
concerts
256
gesprachs
gerichtet
##ßerung
##freier
emil
frequenz
bella
smash
witnessed
mona
vertrages
osterreichs
##chnitt
turbu
einrichtungs
blanket
syrian
vereinbarten
positives
expressions
klassisch
temporarily
##ckten
trekking
apprent
maye
answering
antreten
protects
outlined
ample
grief
drilling
interf
##mbling
outreach
##kne
definitions
behandel
reporters
legends
towers
griechischen
ausbe
amino
lm
gerausch
geschlossenen
converter
demol
inspirieren
##iy
freundlichen
verhalt
initiated
brutto
notar
betrachtung
##rechten
korperlichen
heftig
uberlegungen
fuhrungskrafte
gefreut
aussichts
nes
moms
ambitious
krimine
##zahler
omn
jelly
##versand
reservations
petersburg
hed
refined
profic
##satze
warner
recy
eiweiß
surfen
antike
##acon
erhobenen
limiting
ludwigs
##gegeben
##aufent
quadratmeter
emotionally
##stark
treibt
scripts
reasoning
christina
nutritional
bleeding
malt
burgern
##garant
kanzlei
##inhalb
versichert
unified
knoten
mae
lich
planted
##jugend
rasse
venus
sommers
antiqu
township
##dende
keeper
121
ausnahmen
publikation
athlete
drying
##ер
##regel
intensiver
ingenie
darsteller
vorange
001
##mare
vaccine
medikamenten
##aman
substanz
##spolitik
considers
weitergegeben
peg
disclose
arabic
posters
sende
ping
propose
einschlag
alf
aufkleber
pensions
bobby
nol
kapazitat
leban
gartner
##otypes
ungleich
administered
hypertens
voluntary
oo
susanne
##bildern
##stro
zahle
intimid
##voir
verpflichtungen
purely
##dog
##bags
hugo
breeze
systematic
lasten
frustrated
clow
leistet
##zielten
##konig
##illers
befehl
##proben
acrylic
macro
researcher
senses
##ussia
infra
bore
##bisch
lively
proxy
herzustellen
##cloud
anstelle
citizenship
getreide
holle
sichtschutz
ausgezeichnete
resin
komisch
erarbeiten
facher
motiviert
inevitable
normen
jena
##usa
gleichnam
ench
##ausweis
cholesterol
##standards
sucher
watson
1943
shifts
##ischerweise
absoluter
freight
beinhalten
##arms
glut
absolviert
multic
vergleiche
##57
cooperative
eingebunden
roses
##oria
##mitte
disciplines
conspira
aussteller
recycled
##kapaz
fasc
colomb
##achtungs
fixing
ausfluge
##zubehor
hdmi
fuhrende
##gger
##teine
png
acryl
enhancement
offener
handball
bemuhen
##banden
proximity
fieber
detox
immers
##hero
useless
squir
##standigkeit
mastercard
storen
ausfallen
richmond
begleit
midst
justify
##zonen
gewisser
netzwerken
signifik
neuro
promptly
##houses
sanctu
eingeschaltet
##findung
##reiniger
##atics
lc
htc
anwesenden
##gebers
##mix
quantities
leckeren
fallig
lamps
synthet
virtuelle
##stau
##verf
vorhange
##athlon
##software
invasive
pressemitteilung
parado
1952
admire
rezeption
##leiste
##arien
plurality
achte
monsters
mack
moh
sci
sozialer
beeindruckend
kompetente
##ologien
bonuses
gaps
##cro
vernetzung
neighborhoods
##dene
bisex
schaue
chord
##ocommunity
behandlungen
enforce
unverbindlich
esse
remodeling
144
redd
forcing
uberzeugung
##uba
leuch
stirbt
consumed
##rif
cryptocurrency
bequeme
rundfunk
addict
zuverlassigkeit
angren
zuverlassige
prev
renewal
##chens
twent
##abad
downlo
commemor
remarks
geta
practitioner
folding
repay
newton
switched
eighth
adler
shin
##cafe
weltweiten
##pektrum
selbststandig
##zulernen
lifted
##reinigt
quarterly
downloading
limous
lebenden
zielen
disclosed
provincial
trenn
dn
nannte
fotocommunity
dp
dodge
simpler
amtsgericht
heben
##moglichen
##56
irland
fairen
appearances
konfrontiert
hypertonie
scheduling
projected
##ausend
assessing
irr
erich
##pfe
zeitungs
timer
fruhstucks
natal
leere
tide
##uity
##ifiers
zukommen
##fuhrenden
##alters
baue
kampfer
bodensee
bloody
believing
incentives
claire
egyptian
##hat
streiche
corrupt
kraftstoff
iot
spotlight
##quot
##assis
wonach
sudo
schultern
ringe
simplicity
connector
breakdown
maul
fled
carav
konflikte
##itzt
extraction
anmer
iter
violations
##asant
bizarre
hypothe
dunge
prisoners
##cils
chun
schauspielerin
knall
landgericht
verwende
scent
controversy
##katalog
inher
##loh
amber
gloves
racism
treaty
kaf
beverage
masturbation
bundeskanz
monu
wg
espresso
##aunen
backe
displaying
leinen
monkey
schlusse
kopfhorer
markers
verruckt
folglich
ausfuhren
angesagt
marin
ars
och
##behinder
unmittelbarer
dare
ubersichtlich
##verletzungen
##natural
einzusetzen
stile
mentally
angenehmen
teenagers
maritime
##gemaße
nachbarschaft
leistungsfahigkeit
sehnsucht
patho
definitive
steh
toilette
impuls
civilization
incentive
affection
leap
panik
katz
cuba
ermor
jefferson
crush
##ablauf
##bander
grundlegende
realise
axel
tractor
##chtung
##radf
float
feminine
scheitern
##seinrichtungen
notably
##mms
arbeitslosen
lena
trendy
schlage
abweich
rams
realen
semant
konj
geography
molecules
seafood
winters
theoretisch
fluores
headphones
robots
extravag
##kranken
porto
hinunter
saturn
sculpture
emperor
friedhof
beginner
mitbringen
glamour
schwestern
##azier
##melten
##cap
enjoyment
nbc
positioning
nachweisen
messing
abhangigkeit
sonic
##vio
##oso
suchte
shepher
fn
kombi
##foot
nee
reiten
ihk
vorsprung
##soever
##user
konigreich
sped
##jobs
unheim
berry
noah
##wil
mannschafts
stuhle
folien
obstacles
laptops
globale
skinny
##storung
##direktor
paired
##iefe
umbre
mck
heilen
trapped
##idia
##vorstand
dokumenten
wilderness
##acked
pn
orientieren
respir
thrive
sudwest
untergrund
banana
void
saubere
##reiz
##polizei
dankesch
trainers
gardening
menschenrechte
rho
curiosity
leichtes
##96
erfrische
catherine
turkischen
verstecken
buros
##rex
shallow
grim
viable
orientiert
ankauf
deployed
basin
clerk
exchanges
##typ
schichten
erweiterte
verpackt
##pflichtig
compatibility
gewol
kantons
thankfully
migranten
iw
tutor
verpfle
holl
writings
pencil
clinics
butler
##300
sentiment
auszubilde
youngs
empfehle
eaten
##hangt
fist
126
neuigkeiten
begegnet
optimize
##vt
unabhangigen
ministerprasident
ausgep
feast
##aton
##rities
##indel
vertragen
rabbit
##tenberg
widmen
teilzeit
erreichten
##anim
shab
vergleichbar
sights
interdisziplin
hend
libert
herausgeber
pediatric
einmalige
##handlungs
kopieren
##mir
creamp
aktueller
##kum
abweiche
onion
bestimmter
rhythmus
tantra
elementen
hudson
ethernet
dvds
engra
##splan
##schlussel
disciples
erzieher
spinal
zusammensetzung
##omatic
prix
senat
beads
vorgehensweise
##sache
velocity
missbra
evolving
kennenzulernen
##keys
analyzing
dauerte
kroatien
acted
inwie
benannt
norbert
pravention
delegation
jeglicher
##hee
##achi
verstorbenen
schmetter
##atorium
armor
olympics
##ckung
iris
behaupt
hash
assumption
##roff
erik
handsome
integrations
beaten
erwerbs
casa
nationally
korb
wissenschaftlich
##peicher
bricht
verbesserungen
baumwoll
endeav
##online
avoided
undertaking
##uchtern
boiler
prinzessin
##peg
kindness
moritz
diagra
alteste
angriffe
endete
quietly
##scheibe
##nuss
studiert
lotto
proudly
nour
hypo
gekla
stuttgar
gewahlten
scales
schirm
schwert
definieren
confron
##copic
##ologic
bali
ganzlich
artif
binden
tischtennis
##fuhrungs
pathway
##iedelt
maske
sticker
celebrities
jeep
printable
benachbar
wohns
gelebt
crude
pictured
planes
lebensjahr
fict
verbindungs
nachmittags
energetic
legislature
skandal
uberste
spezialitaten
##iam
sedu
gemass
malta
bedurfnis
dreif
nachhaltigen
##sphase
cigarette
infect
kuschel
tasse
torrent
besetzung
finanzamt
headlines
dns
communist
fassade
probiert
yarn
##caa
stove
committees
vermehrt
deploy
weitem
zugangs
hochster
advertisement
##anspruchen
honors
gesellschaften
##kochen
concur
qualification
bees
erhohten
##caped
stipend
##vorhaben
##usee
harter
schadensersatz
freak
congressional
inappropri
preserved
132
parkplatze
##gue
prejud
##seeing
socially
##undern
storn
##breiten
##llt
verbren
heizungs
implies
niederlande
beschaftigte
enzyme
wii
##gam
glitter
tailor
improvis
silic
prone
slower
benotigten
gdp
entworfen
stoppen
erwir
io
по
bedroht
720
vot
declare
hattest
protests
quir
harald
defending
mannlichen
conclude
niemanden
ferrari
decks
unregel
scharfen
geschwister
munzen
phantasie
ain
pedal
disconne
##responde
giro
##oro
crowds
gescheiter
cube
dichte
stadtischen
erstreckt
##uar
wounded
theology
whisky
##liter
##you
1910
##heet
scenic
belonging
meantime
127
selections
leipziger
peninsula
lengthy
brock
discom
headline
richards
revie
##bat
lachel
privater
##gett
##felt
lauten
rook
##find
roast
commented
elektrischen
##lins
plaintiff
farbton
mitteilen
##sprachen
##ziale
vergleichsweise
gultigen
harvey
blacks
vfl
##ndigung
convicted
unco
bungal
bevolkerungs
diskussions
##minuten
dankeschon
##mere
calculation
sudan
##weh
##zzi
delays
wenigsten
protocols
##regelung
angehorige
determines
freilich
pont
iranian
gefahrdet
##esheim
tones
stichwort
shred
interessantes
gewid
lugen
labeled
cun
exquisite
bucks
nsa
breeding
manuell
##asonic
feierte
unle
betreffend
hulle
konntest
hyde
theaters
absorption
##01
pene
handicap
subscribers
allmahlich
##otherapeut
##tragene
abgaben
harassment
pw
assisting
pars
gelenk
florence
aqua
##lagerung
informal
spamb
haufen
searched
ungewohnlich
priorit
introduces
masses
verantwortliche
culin
spon
universum
eligibility
dashboard
evaluating
zogen
adel
##ksten
schwierige
hierzulande
bayerische
advertisements
bedacht
##woman
##verfug
##leton
deficit
sunlight
##arb
effektive
verschieben
##isierter
geniessen
tribal
##dating
nhs
##gab
rebecca
aufgeb
druber
zeitalter
sleek
argumente
mindset
rollstuhl
##fans
redire
etabliert
##leum
idol
dachsanierung
stillen
##foto
teilzunehmen
zertifiziert
framed
gekur
krankenkassen
accessing
kapitan
romischen
disappeared
conviction
ultrasch
##ет
flew
inspector
cedar
bereitschaft
lebendig
##lief
sußen
lottery
arrog
anxious
##asso
##werter
crunch
shocking
branded
boulev
kirk
##hinter
elephant
beliebtheit
jonas
researching
rgb
##rh
gna
viktor
guarantees
tubingen
##borne
resultat
begunst
beantragt
##ungel
whee
hacker
##thal
imager
gluckwunsch
drawer
swar
protagonist
geschatzt
abzug
eintrage
epit
hemd
##vereinbarung
spezifischen
##rals
obstru
gratitude
sahne
gesellschafter
angestellten
politischer
specify
##alls
##onente
kurven
entlas
entgehen
parlaments
glorious
platziert
jeweller
switches
zugeben
picnic
assumptions
bowling
##iern
spokesman
sudafrika
##fords
verlasst
jets
sturdy
sonnenschein
befasst
rechtlich
finances
##cheng
constraints
otta
katharina
bristol
frances
acquiring
entdecke
jahrest
stutz
monitors
arter
vegetation
mats
zaun
##arz
##dateien
911
warf
sozialdemo
##stern
stiefeletten
uberraschen
worries
##overs
wishing
trum
decay
##gebirge
homoop
powerpoint
dynamik
twins
sacrament
gv
ethiop
apparel
sohne
3x
##orig
defects
##zwecken
##alette
##comp
##dest
flan
considerations
##buche
metabolism
verluste
berke
##ikalen
vorpommern
herstellers
schur
##igerung
hobbyh
sexuellen
##nick
vergabe
joins
##moder
2500
##klima
curt
134
##keeping
480
nachgewiesen
nahrungsmittel
##klinik
collectively
baumen
##opolit
stephanie
scenery
hepat
lerne
landesregierung
raucher
enrollment
artikels
discont
ede
angelegenheiten
patrol
##schuler
gat
unin
epub
xen
blackberry
brides
##tellungen
collector
##illes
philips
gestaltete
umweltschutz
chess
advisors
defines
spambots
schriftlichen
baustelle
##inhaber
milan
archived
##cch
420
krankenversicherung
kuhlen
affiliates
interval
dart
flut
examining
##ciplinary
blake
chrys
##amilien
glasgow
nasse
manuscript
whirlpool
##advisor
##vation
gehts
fassaden
prostate
agrees
gag
##usen
impair
##figuren
uncategor
thoughtful
##dling
##standard
##jahrs
napole
shareholders
s3
dunkelheit
gleichgewicht
proze
umfassen
wip
schloß
benen
ik
oem
dread
angelegenheit
empfinden
denmark
##liess
##lehr
erstens
##trock
stag
gesprachen
autofahrer
unabhangigkeit
whatsoever
erlaubnis
##xter
interim
gymnast
disg
stockholm
##ikat
antif
##nehmers
nodes
##heric
trocknen
verbreiten
wahrnehmen
turkische
prognose
##ancies
umfangreiches
brunette
hebrew
durchsetzen
abonn
einmalig
lebensmitteln
equations
##hofe
grabbed
sangerin
martha
insoweit
außergewohnlich
##haftes
landschaften
##codes
triggered
[...]
